0017
ffbd
ffbd
fff0
0038
0031
0007
ffd2
0015
0037
0002
fffe
0004
0011
002b
ffed
0013
ffc7
ffd9
fff5
001d
ffe1
fffc
ffdb
0029
fff4
fff3
ffeb
0032
fffd
ffc1
000e
fff4
0040
ffdc
004c
ffc6
0013
fffa
001e
002a
ffdd
0011
001e
001a
0020
002e
fff0
0013
ffee
fff3
000b
fffb
0010
0008
000f
ffc9
000c
ffe2
ffd2
000d
ffda
ffeb
0020
ffde
ffd4
002d
003e
fffa
ffe7
ffe8
000f
002b
0033
fff9
fffa
0056
0016
ffbf
fffa
ffdf
ffbe
fff8
ffce
ffe7
003c
0019
ffde
ffeb
ffcd
ffff
fff1
000c
ffe4
ffce
0014
0054
0006
fff7
ffc7
fff0
fff8
ffd7
fffa
0013
ffd6
0013
ffda
ffcb
0044
0022
001b
ffc4
001e
0027
ffe0
0041
fffa
ffbf
0018
ffe1
ffa3
fff5
ffec
fffc
000c
0002
ffde
000a
fffe
0002
001f
0021
fffa
ffe5
fffb
000a
fff6
fff4
000c
0020
001c
fffc
ffd6
0018
ffdb
ffec
ffd9
fffd
ffe3
0023
ffff
000f
0000
000a
0009
0009
0028
0003
ffe1
ffe5
fff4
fffb
0014
ffd1
0000
0002
0004
000c
ffd8
fff5
000c
0006
ffd4
000f
ffb6
0012
ffff
fff6
0005
0015
fff5
0018
ffb2
ffdb
002b
fff4
ffd1
fffc
ffd0
000b
0012
0018
ffd4
000a
fff1
fff7
fffc
ffed
fff2
0021
0001
0009
0007
0007
ffff
fffa
fff2
0013
fff9
ffda
ffdb
0002
fff7
0008
0011
000d
ffeb
0024
ffef
000e
fff8
fffb
0035
0011
0002
000d
0019
0004
0014
fff0
0021
0011
ffeb
fffc
fff4
ffef
0004
000c
fffb
fff8
002e
0017
ffe8
fffe
0001
fff1
000a
ffee
0006
fff1
ffff
0018
ffe8
fff8
0010
fff0
ffe2
0042
ffdc
ffbd
000e
fff9
000c
0014
004a
000c
fff3
ffa4
002b
ffca
002a
fffd
fffb
0041
ffe2
ffe7
0025
000a
001b
fff6
0004
fffe
002c
ffed
ffb4
004b
0011
0000
ffeb
0028
fff1
005d
ffc7
ffdf
000a
ffef
001a
ffff
ffe4
ffd8
0020
ffbe
ffe5
fffe
0039
001b
0012
ffe7
fff5
ffc1
0017
ffd4
ffb1
002a
0044
ffd4
0004
ffff
ffe9
0008
0008
0000
ffc1
ffc6
0005
0026
0002
fff7
ffdd
0021
fffa
ffb3
ffec
0014
0028
fff5
0040
0010
0041
0000
000a
ffb5
001a
ffd4
0015
0004
fff5
fff0
ffd8
001a
0036
fff9
fff0
001c
ffee
004a
ffed
002a
ffeb
ffd0
0054
0018
ffef
ffe8
fffc
0002
005b
fffd
001b
ffee
fff8
fff2
000f
000d
0054
003b
fff5
0003
0063
0000
0045
ffef
ffdf
0014
ffef
ffc0
ff9e
ffdc
001d
002f
fffa
0005
004b
ffcf
ffe7
ffdd
ffc7
fff8
0036
000c
0016
002d
003e
fff2
002f
ffa3
0008
0020
ffe8
ffe0
0020
ffd0
ffc8
0000
000c
0014
0054
ffe0
001b
003e
000e
fff8
0048
0009
003e
003a
0013
0019
0043
ffef
006a
fff3
0009
000b
fffa
ffb2
0024
ffdf
0057
0028
ff93
0013
004c
fff2
fff7
ffd5
ffe1
ffec
ffda
0007
ffe1
0018
0017
ffe3
ffc6
0034
0050
001a
fffa
fff6
002e
ffee
ffcf
fff9
ffec
0008
ffd4
0019
0009
002e
fff5
0020
ffbf
fffa
ffd9
0036
ffe2
ffe3
000e
ffda
0002
0008
000e
fffc
ffec
fff7
ffd4
0001
ffea
fff5
0009
ffdf
0033
0028
fff6
fff9
0017
ffd1
0030
000e
ffc2
fff8
ffdb
ffb9
000d
fffb
0007
ffe7
ffe6
0002
fff2
001b
fff0
ffef
ffef
0033
0000
0008
000a
fff9
fffb
0009
0019
fffa
ffda
001e
0017
001d
000b
ffe1
004a
0027
fff0
ffce
0012
000f
0007
001e
ffed
000c
ffed
fff6
002f
001b
0032
0003
0016
fff7
0011
0024
000c
ffec
0023
001c
0009
0023
ffeb
004d
0058
fff2
ffff
ffeb
fff7
ffe2
0003
002a
0009
0039
000f
ffd9
002c
0016
fff6
ffdf
0012
0016
fff0
ffda
0006
001b
0001
0007
fff2
0015
ffdd
fffb
fffe
0026
ffff
0023
ffdc
0015
0000
ffda
ffde
0015
ffd4
0018
0002
000a
fff5
0015
ffe0
0006
0023
ffef
0004
fff9
fff8
0005
002d
ffe8
002f
fff4
0018
0024
ffcf
ffe4
fffd
0021
ffeb
0010
ffdb
0015
0007
000b
0000
ffff
000c
000e
ffd5
fff0
004a
fff7
ffbf
0020
ffd1
0005
003a
0006
ffdb
ffc9
001c
fff7
003e
001f
fff0
0026
ffe4
fffb
ffd9
0011
000c
003f
0001
0004
ffea
ffe1
fff3
000f
ffd4
0012
ffeb
0007
0013
ffff
fffd
fffa
0017
ffe7
fff3
0018
ffff
fffe
0022
000e
0031
ffcf
002b
0024
ffc6
ffe2
fff5
001d
0000
fffe
ffe3
0039
fff8
0009
fff2
0017
0046
ffe9
0004
fff1
000f
0017
ff97
002b
fff7
ffed
003a
0033
ffef
ffc2
ffee
001a
fff0
0016
0006
0003
ffcc
fffb
0009
0023
ffce
0012
ffff
000e
000c
ffdc
0004
0022
ffe7
ffd5
0005
000f
fff3
0020
ffd4
fffa
0022
fff5
001e
000c
001d
0003
0029
fff4
0033
000b
0029
0022
fff0
0007
0007
0029
fffa
0019
0018
0004
fff9
001c
ffe4
fff1
000d
0005
0017
001d
0026
ffe0
fff6
0029
ffec
fff4
002b
ffc4
ffff
ffee
0030
ffda
0019
0000
fff6
ffde
0020
ffcf
ffcf
0005
fffe
0001
0002
ffe7
ffe4
001d
ffdd
ffe0
0015
0013
ffcc
ffe2
fffb
ffc1
0012
000f
0011
ffc2
ffcb
000c
ffe7
ffdb
ffd5
ffdb
fff9
ffdc
fff8
000f
ffe6
fffd
fff8
ffd9
0029
ffe7
ffe8
0013
ffe3
0002
0011
0013
0024
ffdf
001b
fff8
ffd9
0010
ffd0
fffe
0023
0004
ffe7
0057
ffc1
ffe4
ff41
ffe7
ffd2
0025
0007
000e
0038
0028
003e
ff8e
ffc0
ffd6
0066
0009
0034
0020
007b
000a
0034
ff36
004e
0024
ffe5
0046
0002
ffeb
ff64
004b
009c
0020
0090
0026
0033
0089
fff5
0059
003f
ffce
00aa
006c
0011
0025
002c
0032
00e6
ff9f
003c
001c
ffeb
ff8b
ffdc
ffe9
00bb
002f
ff85
ffc8
0111
ffe0
000e
ffc9
ffe2
fffb
0012
ffd9
ffeb
ffe6
0006
002b
0002
ffe8
0007
ffd6
ffe6
fffb
ffe1
0010
0023
fff3
000b
0017
0032
ffed
001b
ffbe
fff7
0000
fffb
ffe5
0014
ffe1
fff3
ffe6
ffeb
0016
002b
ffdb
ffee
0009
0007
0005
0012
fffd
0026
0023
000e
000f
0018
fffb
0047
0006
ffe4
fffe
fff6
ffee
002e
ffef
003c
0030
ffd0
000e
001a
ffff
0012
ffed
ffe6
fff3
ffe6
fffc
002c
0016
0029
0004
0005
0020
fff3
0000
ffe4
002b
0016
0011
0009
0000
ffe4
ffea
ffc5
000a
ffe0
0031
fff5
0012
0008
0016
fffe
0000
0010
fff3
fff8
0015
fff2
000b
0017
0008
0022
ffd3
0030
0020
ffb9
ffd1
ffec
0013
0004
fff4
ffb6
001f
0001
0019
0000
0022
0015
fff1
ffdf
ffda
0006
000c
ff9e
0021
ffd8
0012
0042
fffb
ffe9
fff5
001c
003b
0003
0005
fff6
0021
000c
0007
0010
002e
0002
0015
ffe2
000a
fffd
ffe2
0018
001e
0003
0004
0004
002c
ffc7
0016
ffe0
0022
fff4
ffee
000d
0011
0028
fffc
0015
ffd0
001f
000e
ffe3
0003
ffea
fff1
000c
0018
0007
004f
0036
fff6
ffed
ffe4
fff0
0017
ffed
001b
fff8
000c
001d
ffe3
fff5
0006
ffd4
ffec
000b
fff5
000d
ffc6
0008
ffc0
0050
003e
0001
fff5
ffd1
ffea
ffbd
ffeb
ffdb
0044
0025
0003
0018
0010
0003
fff5
ffe0
0001
ffef
ffdf
003e
ffd4
000f
ffd9
0024
ffec
ffdc
0000
ffdf
fff5
fffb
0021
0021
ffbd
0034
001d
ffea
ffd8
fffa
000e
000b
ffb9
ffd9
0051
ffeb
0014
fffa
fff8
006d
ffe8
0016
001f
000e
002f
ffa5
0030
002c
fffb
001e
0018
003a
ffd9
0006
0017
ffd9
0013
0003
ffd4
ffc7
ffd3
000b
0036
ffcc
0003
ffee
0009
0009
fff3
0006
fff5
fff7
ffd9
fffe
0011
ffff
0007
0002
ffe9
0044
ffef
ffc6
fffa
0011
ffdd
0004
ffd5
0022
001f
0008
0023
ffe8
000b
0007
0035
ffea
0001
fff4
fff9
ffdd
0015
fff3
fffa
000b
000f
fff4
001b
0026
ffec
fffd
000b
ffe9
0013
0005
ffde
0026
0026
0039
000a
fff1
ffec
000e
ffdf
fff2
ffe9
fff2
002f
0000
ffe8
fffd
fffe
0000
0011
ffe6
0004
000a
003b
fffd
fffc
0006
0002
0010
fffe
002c
fff2
ffd2
0010
ffca
fff7
ffda
ffec
fffb
fff8
fff6
0009
ffdd
ffea
fff8
fff5
ffff
ffe0
ffc9
0004
ffdf
000e
000a
0018
fff4
0001
ffd5
fffb
0001
000b
ffd1
0006
0007
001f
0004
002f
000c
ffec
ffb1
fff4
0005
0000
fffc
000b
fffe
fff8
0017
ffc2
0004
fff4
ffe7
0021
0020
001c
0002
ffec
ffef
fff4
001d
0016
fff5
0002
000f
ffdd
000a
0042
fff8
ffad
0002
0004
002e
0011
fffa
0001
000f
000b
001a
0008
0018
001e
ffe0
ffdd
ffd9
000b
001e
fff0
0011
ffb8
0002
ffff
ffdb
fff3
0027
0022
0024
ffdb
ffd8
0008
0002
fff5
0019
ffea
ffdc
0004
0026
fffc
ffdc
0027
0030
fff0
0002
fff0
ffee
fff7
ffd7
000d
0026
0015
001f
0021
0011
0003
0023
002e
ffb5
ffff
0006
000a
ffe5
0004
fff5
ffd7
000e
fffb
0003
000b
ffff
fff9
ffdc
ffe8
0017
fff3
0004
0004
0008
001b
0036
fffc
0007
ffbe
0007
ffd3
ffee
000e
ffd7
fffe
0006
0010
0012
fff3
ffd1
fff7
ffdb
ffc9
0006
006b
002b
fff7
ffdc
ffbb
fff6
0002
004b
0012
000f
fffa
003e
ffaf
ffd2
ffed
ffe3
002b
ffd0
ffe8
0026
0051
fff0
ffe2
ffd7
fff0
000c
0030
ffe9
0004
ffef
ffee
ffc5
0009
ffbe
ffd4
ffa7
0000
ff9c
ffea
ffff
0004
fff4
ff9a
0009
fffe
ffce
ffdb
0016
ffdd
0021
0029
ffad
fff9
ffc5
ffcd
ffec
0001
0019
ffc4
0013
0010
ffbc
000b
ffd3
0004
0018
0022
fff0
ffd8
ffff
000d
003b
fff0
0012
001d
0015
ffea
fff6
0017
ffb5
ffeb
ffe0
0002
000c
0012
fff0
0019
fffe
000f
0017
0015
fffd
fff5
ffff
0011
0023
fff5
0025
ffd5
ffff
ffef
0036
001a
ffdb
0014
fff3
0004
fff6
001b
ffd5
ffef
000f
0016
fffc
0004
fff8
ffed
ffed
ffdc
ffd7
ffea
fff8
0001
ffda
fffb
0013
fff1
0026
0021
0020
ffd3
fff0
fff8
0010
fffc
ffde
ffdc
ffed
001e
0000
ffd9
0000
000a
0002
000e
ffd8
ffe2
0013
001a
0005
ffe1
0008
fffa
0015
ffd8
0018
0021
ffdc
000d
ffc6
0004
ffce
0012
fffe
ffdc
0002
0007
fff0
ffea
ffdd
fff2
fffc
ffc8
ffda
fffc
0009
0021
ffff
000b
0016
ffe0
ffeb
0003
fffc
001e
ffe4
0005
0010
001a
fff6
0003
0005
ffe8
000e
ffdf
0013
000b
ffe5
ffeb
ffe0
fff5
ffe4
ffec
fff9
0021
fff3
0006
000b
fffe
ffde
fff6
ffd9
0026
fff7
ffdc
0023
ffe7
fff8
000f
0034
fff0
fff5
ffea
ffc5
0000
0010
ffed
0009
ffe1
0010
0015
fff2
fff6
fff4
ffe6
fff3
ffd1
ffbd
0048
fff4
ffff
000b
fffd
0026
000a
fff1
fffc
0034
0013
ffc8
001f
0025
0006
0017
0041
ffc2
fff3
ff6e
fff4
ffd6
000f
0008
0020
004b
0020
0033
ffb4
ffe0
ffcf
0047
000b
0014
0019
004a
0004
002e
ff76
0044
002f
ffda
003e
000a
fff7
ff86
0042
0079
000f
006d
001b
002e
0063
fff3
0036
0033
ffd9
0072
0054
000e
0018
002e
0023
0095
ffab
003b
0015
fffa
ffa9
ffd6
ffe2
0079
0007
ff94
ffdc
00c8
ffdd
fff1
ffdd
ffe8
000f
ffe3
ffe8
ffe2
000e
002b
0030
0010
0030
ffdf
001b
fff6
0001
0002
0034
0015
0000
0010
ffdb
0015
0021
fff0
ffea
0017
0010
000d
001f
ffe7
ffeb
fff2
0009
0021
000c
001d
0012
0026
003c
002e
fffb
0026
0000
0001
ffdf
0003
0023
fffb
0013
0026
0017
000f
fffc
fff2
fff3
001e
fffb
0018
000a
000f
000d
ffe7
001c
ffee
fff5
0028
ffb9
0031
0048
0047
ffd1
fff4
fff3
001e
ffe4
ffff
fffb
ffed
fff8
0030
ffe9
ffff
ffd9
fff9
0023
fffe
ffe2
002e
001d
ffe4
ffcc
000c
ffd7
0027
fff6
fffd
000c
ffce
0004
ffbe
fff5
ffa8
fff4
ffc0
0002
ffb0
ffdb
0009
fffc
ffed
ffbe
fff0
ffe8
ffee
fffc
fffa
ffde
0002
0049
fffa
fffb
fff9
0005
ffe8
0015
fffe
ffe9
0039
0007
ffb9
ffea
fffa
0031
0042
0018
ffe1
ffe1
000f
000c
0007
fffc
000b
0046
001c
ffda
ffe0
fff9
ffcc
ffe9
ffcb
fff5
000e
0042
ffe5
fffa
ffed
0004
ffff
0011
0014
ffe9
ffed
0021
ffeb
fffa
ffe9
ffd3
fff4
ffef
ffef
0018
ffd1
fff4
fff4
ffea
fffb
000b
ffcd
ffe5
fffb
0019
ffff
003b
ffec
fff2
ffd6
ffe3
fff9
0000
ffc5
fffc
fff6
0010
fff8
0011
0000
ffa9
ffb8
ffb8
0072
0049
ffef
fffc
fff0
fff6
ffb7
ff9d
ffd0
0052
0033
0015
0037
0021
001c
ffff
ffda
ffda
0011
fffb
002f
ffdc
0015
ffca
0003
0008
fff4
ffda
fff6
0008
002a
0060
002b
ffbc
0052
000c
0012
ffe5
000b
001f
0014
ffaa
fff6
0059
0010
0009
0004
ffa4
006c
ffdc
002d
0018
0004
004c
ffe2
0027
001c
ffe7
002a
0001
0000
ffff
0001
0001
0000
ffff
0000
0000
0000
0000
0001
0000
ffff
0000
0000
ffff
ffff
ffff
0001
0002
0000
0000
0000
0000
0000
ffff
0000
0000
ffff
ffff
0001
0000
0000
ffff
0000
0000
0000
0001
0000
0000
0000
0000
0000
0000
0000
0000
0000
ffff
ffff
ffff
0000
ffff
0000
0000
0000
0001
ffff
0000
0000
0000
0000
0000
0000
0018
0019
ffcf
ffb3
ffef
000e
002b
fff7
ffee
ffd2
fffe
0006
ffcf
ffd2
0029
001c
000a
0047
000e
0053
0015
fffe
ffab
0027
0013
fffc
0009
fffd
ffeb
ffe7
001d
0020
ffef
0020
0011
001c
003c
0012
0032
000b
ffde
0039
000b
0002
0031
ffef
0014
0060
fff8
000a
ffe9
fff8
ffca
000c
001a
003f
0030
0014
fff6
004d
0015
fffb
fff0
000d
0053
ffcf
ffd2
ff92
000f
ffda
0028
000d
0008
0006
0017
0034
ffd1
ffd3
0006
004a
ffff
0016
fff3
005f
0017
0012
ff5b
0035
002f
fffa
0039
fff3
fff0
ffa3
002e
0065
0020
007a
0017
003c
0053
0012
0056
0043
ffde
005e
0041
0010
0045
0019
003b
009d
ffcd
001d
0015
ffdf
ffbe
fff0
fff8
008d
001d
ffc4
ffbe
00b3
fffb
fff1
ffdb
000f
ffb9
fff1
0055
0040
ffe8
ffe5
ffc3
fffd
0025
006f
fffb
0006
0017
003c
ffa2
ffc3
ffda
ffc7
001f
ffbb
ffd6
0046
0053
ffd9
ffdd
ffaf
ffe4
ffff
0029
ffe3
ffe2
fff8
0016
ffd5
fff9
ffa9
ffd3
ffb5
ffde
ff9b
fff0
ffef
000f
ffe8
ff82
0031
0014
fff3
ffc4
0023
ffeb
0012
003d
ffbf
ffdf
ffc7
ffce
ffbd
0018
fffc
ffcd
0010
ffff
ff9b
ffe3
002d
0011
fff0
ffad
0017
0011
fff3
ffef
0023
ffe6
ffd9
ffd3
0006
ffe3
001e
ffe8
0024
0041
ffe8
fff0
0037
fff9
0013
fffb
fff2
ffe2
0031
ffe2
ffd5
0026
ffd6
ffed
ffd2
0009
ffd4
0056
ffd5
fff2
fffe
fffc
fffe
fff2
ffe7
ffe4
002b
ffcb
fff7
fffd
000d
0000
0014
ffe9
fffe
ffd1
0027
ffe4
ffbf
002d
0020
ffe6
0003
000e
fff2
fff3
001e
ffff
001f
0001
ffe8
0013
000e
fff2
ffcf
ffe2
fffc
0040
fff8
fff5
0018
ffe3
0012
0000
ffe4
0009
0012
ffee
0003
000e
fff0
000e
fff8
ffeb
000d
fff5
fff0
0019
fff2
fffc
ffe2
001e
0013
001f
fff5
fffd
ffec
ffe5
fff9
002b
0018
fff7
0004
ffea
fff3
0013
fff9
001d
fff1
fffc
0019
fffc
0005
fff3
ffeb
0006
ffe0
0026
0015
ffe9
ffda
fff5
0016
002a
000f
fffd
000b
0035
0021
fff5
0002
0036
fff8
fff0
0016
fff0
fff7
ffec
0008
0030
002c
ffe7
ffff
0038
ffbd
0013
fff8
0008
ffc7
ffe8
0012
002c
0036
0000
ffeb
0004
0019
0005
0005
fffa
fff9
0000
fffc
0009
002a
003f
0059
ffd4
fffe
ffed
ffe2
0000
fffb
fff3
0017
0007
ffca
fff6
0003
000e
ffdc
ffea
ffef
0051
ffb7
ffe9
ff53
ffef
ffdd
0015
0002
0022
0047
0028
0031
ff9c
ffd2
ffd8
0051
000e
0022
001b
005d
0008
0023
ff64
0049
0026
ffe1
003f
0000
fff6
ff79
0044
0089
000f
0080
0022
0040
0074
fff4
0039
003d
ffe0
0087
0058
0015
001f
0034
0021
00b5
ffac
0043
001d
fff5
ff91
ffdb
ffe4
008e
0017
ff93
ffdb
00de
ffe0
fff8
ffd7
ffea
ffd6
ffce
004f
002b
000a
ffd5
ffde
0020
002b
0054
0012
001b
002a
003c
ffb6
000a
ffd6
ffbc
0002
fff8
ffe8
0054
fff7
ffe4
fffb
ffcc
000b
0008
000b
ffb1
fff9
0020
004d
0026
fffb
ffc7
0006
ffc9
000d
ffe0
ffe6
000a
0028
ffec
ffc5
0029
003f
0040
ffa0
0018
0009
ffe1
004e
ffce
ffdb
0031
ffe0
ff87
ffde
0041
ffd0
0007
ffee
ffb7
fff0
ffd1
003d
001d
0024
0004
ffc5
000e
0028
001d
0030
000d
001b
0025
ffe9
fffa
0015
ffd9
ffe3
ffd7
0011
fffa
004e
0015
001c
fff3
002a
0001
001f
fff7
0006
001f
000b
ffea
0021
0008
fff1
ffef
fff0
0004
0005
ffde
ffeb
ffef
fff5
ffe9
0016
ffce
ffee
001d
ffff
0007
0017
ffe0
fffc
ffbe
ffd8
0001
fff4
ffd3
fffb
ffdb
fffa
0018
fff8
fff1
ffea
0011
000c
0020
0000
fff2
003c
0011
fff1
ffef
002e
0013
0006
fff0
fffb
fff4
fffc
ffd1
0017
fffe
0029
0002
0022
ffe3
0009
fffc
fff7
0008
0002
ffea
0005
0001
0006
000e
000e
0021
ffd0
0019
0014
ffbf
ffd6
fff4
000b
001d
000b
ffe0
0008
000f
0008
fffc
0007
0010
ffe2
ffde
ffd1
0002
0019
ffb0
0013
ffbe
000b
0022
001a
ffed
fff0
ffd8
004c
0005
ffe7
ffdd
0013
003a
0005
0023
ffef
0004
0004
ffec
0025
fff9
ffee
0002
0028
ffec
000d
0014
0048
ffdf
0014
0006
001a
ffe8
0010
0004
ffc5
0030
0002
0042
ffe9
0000
0020
000b
0000
ffee
fff6
001c
0035
ffe3
002f
fff5
fff6
0007
ffde
0011
ffcb
ffc9
0020
ffd3
ffcc
0025
ffe1
001b
fff1
ffa8
fffc
002b
0013
ffd5
0015
ffc0
ffe7
ffe8
0012
0027
001c
002b
000b
0017
ffd4
0009
ffdf
004e
ffe7
0004
0011
002e
0001
0040
ff8f
002d
001e
ffec
0026
0026
ffd3
ff7f
0049
003c
002e
0040
0019
fffe
007b
ffed
002e
0038
ffd5
0046
0033
ffe9
0010
002a
0019
0071
ffba
0031
0010
ffeb
ffef
ffe9
ffdc
0078
0000
ff90
ffe8
009e
ffdc
fff4
ffee
ffec
000c
000a
0001
ffde
ffcf
0008
0019
002c
0007
ffef
ffda
fff1
fff6
ffd4
ffe2
0031
001c
0022
001f
0022
fff0
001b
ffea
0022
fff8
0008
0001
0026
ffbe
fffb
002d
0015
0025
ffff
0003
ffeb
004b
0016
ffde
002f
0000
002f
0002
fff9
0019
0000
ffc1
0021
0008
0011
002a
ffee
ffd4
0034
ffd0
001d
0027
ffbf
002e
0018
000b
000d
fff5
fff1
0012
ffb1
0020
ffe5
0004
001f
ffdc
fffa
005a
0039
002f
fffb
ffec
002b
fff1
fff4
0013
ffd3
fff8
ffc3
0009
ffe7
003e
000b
000b
fff1
0019
ffef
0013
ffe0
0016
0044
0002
fffa
0026
0027
001c
fffc
ffaf
0018
001e
ffde
ffe6
ffe9
ffdf
0018
ffea
ffcc
0007
0035
001b
0005
fff2
fffd
ffdc
ffc7
ffc5
ffe3
0014
ffd4
0003
ffeb
fff3
001f
ffd3
fff7
003d
0022
0009
000a
ffcb
000a
0032
0024
001a
fffd
000b
003a
ffe3
ffdf
0006
fff2
000c
ffc6
000a
000e
0053
0008
0010
ffe8
000e
0011
0009
fff7
0017
fff3
0000
ffbd
0018
fff1
0006
ffe2
ffc7
ffec
fffb
ffce
ffd1
ffeb
ffd7
0000
fffa
ffaf
fffc
001f
fffb
000e
0019
ffde
ffea
ffa1
ffc2
fffb
001f
ffbf
0001
ffd1
0003
0003
fff9
ffd1
0030
ffe2
0024
ffdc
ffee
fff5
001b
0023
002e
000e
001c
fffc
ffd8
0003
ffdf
0002
fffe
0000
0010
0014
0001
fffe
0003
ffca
001c
ffb1
003f
ffd6
ffd4
004c
0033
0020
0014
ffee
fffc
0004
0018
ffd3
fffa
0019
0000
000b
ffe8
0032
003b
0066
ffbc
0011
0003
fff6
0014
ffc3
fffa
0024
000f
ffdd
ffd0
002b
fffc
000a
fff9
ffea
ffe0
0016
001b
0033
ffd2
ffe4
fffe
0000
ffc9
ffdc
ffed
ffe7
0012
fff3
ffef
0000
ffde
fffd
0010
ffd6
ffe1
0017
000b
ffe4
ffc1
000f
ffe8
0000
000e
002b
ffde
fff0
0019
ffc3
fffe
ffcc
fff2
fff5
fff6
ffe7
000c
fff3
0009
ffea
ffb9
0017
ffd9
ffeb
0004
ffeb
001e
fff8
0022
0013
fffb
0016
000d
fffa
fffb
ffee
0005
004b
0016
ffe7
0017
0004
fff1
ffda
000f
ffe6
ffff
fff5
0001
002a
ffef
0020
fff0
0005
ffe9
fff2
fff9
fffc
000b
0013
fff4
0019
ffd2
ffff
0025
ffda
0007
000c
0000
ffe3
000e
fffb
ffd9
0031
ffed
000b
fff2
ffea
0034
fff1
fff2
001a
0026
001a
000b
0005
0023
0020
ffdc
ffff
ffe4
000d
ffef
ffd1
000d
0011
ffea
fff6
ffe2
004e
ffd2
ffdc
ffff
ffec
fff2
000e
002b
0009
002b
0004
ffe3
0011
0026
001c
0006
0017
0012
0015
ffe0
0008
0013
0003
0006
0007
0013
0016
0012
0020
0046
ffe4
001b
001d
ffef
ffd7
002c
ffe2
fffb
000c
0006
fff7
0012
fff1
000b
0001
ffea
fff7
ffed
fffc
0019
ffed
0015
fffc
ffdb
0008
fff1
0008
fff2
ffd2
ffff
ffcc
ffe8
ffe7
0006
000f
ffeb
ffaa
0003
0001
0018
fffc
ffbb
0018
0030
001c
0019
fff7
001a
ffe3
fff5
fff8
003d
fff7
0035
ffdd
fffd
0001
ffd9
ffff
000b
ffd5
000f
ffef
001f
ffef
000c
ffe2
fff1
002c
ffe4
fff3
fffb
0014
ffeb
002e
ffd4
0034
fffc
0012
0021
ffd4
ffea
000d
0042
ffed
0025
fffc
001c
ffea
fffd
fff2
000f
001d
000d
ffdd
0009
0044
fffa
ffa8
0026
ffc9
fff6
0031
0046
ffcb
ffed
ff78
fff0
ffd8
0019
000a
000e
002a
001b
002b
ffb5
ffd7
ffe3
0045
0006
001e
000c
005a
0000
0024
ff6a
003c
001d
ffed
0032
fffe
fff3
ff91
0035
006b
0015
006f
0019
0031
0061
fff5
0040
0036
ffe0
0077
004c
000a
001f
0022
002a
00a2
ffb4
002a
0016
fff0
ffa9
ffe9
fff5
0085
0021
ffad
ffd2
00c1
ffe6
0004
ffd7
ffe7
ffee
002c
002a
ffe4
ffed
ffd1
ffef
fff6
fff2
0021
fff5
0015
ffe3
ffed
ffc2
fffa
fffa
002d
0033
001b
fffb
0032
fff6
0016
fff5
ffce
fffb
0004
000e
ffe4
000e
0005
fff5
fff4
000a
ffc7
0011
ffdc
001e
ffc3
ffd3
0042
0014
0007
ffd7
001a
0003
0039
ffd7
0007
ffe9
0011
ffe4
ffd1
0003
0008
0014
ffe0
0004
005e
ffd7
0013
0006
ffbc
0000
fffd
0038
0016
0018
ffab
ffdf
0002
000e
fff4
000c
002e
0034
0003
ffc0
ffff
ffe5
ffec
ffea
ffe3
fffd
0023
fff7
0001
ffff
ffde
002e
ffed
0011
ffed
fffc
0023
0036
0003
0009
ffdc
0002
fff3
0029
ffe5
fff9
000b
000b
fffb
ffdc
000b
002e
002e
ffb8
000c
0024
fff3
002b
ffb2
fffe
0013
fff8
ffde
ffd7
002f
ffea
fffa
000d
fff6
fff4
001d
ffb7
fff5
0007
0028
0026
ffcc
fff2
ffdf
ffee
ffe5
0006
ffd2
0040
fffe
fff1
0034
ffe2
002e
0037
fff6
ffe3
0003
0011
fff2
fffc
ffec
0017
0003
ffd8
fff4
0000
000b
fff0
000c
000a
0028
0018
0002
fff1
fff5
ffe8
0005
0027
0009
001d
0041
0017
ffe1
ffd1
fff5
fffa
000f
0020
001e
001f
0027
fff0
fffa
0030
fff8
fff1
0008
0033
ffe5
fff0
ff79
ffea
ffd5
0016
fffd
0003
0021
0014
0026
ffa7
ffc4
ffe3
0043
0004
0028
0025
005c
fffe
0025
ff76
0036
000d
ffe8
0024
0001
fff3
ff9b
0033
0061
0014
0057
001b
0016
005a
ffef
003e
0018
ffda
007f
004f
000d
000f
0022
0019
00a5
ffbd
0028
000d
fff7
ffab
ffea
fff2
0081
0029
ffaf
ffde
00c5
ffeb
001c
ffde
ffda
0009
0007
ffd0
ffda
ffae
003b
0036
0003
0002
ffc9
fffa
ffc6
ffce
ffdd
0034
0021
0004
0031
0005
0015
fff0
ffe2
ffed
0007
ffd9
002d
ffdf
fffd
ffd3
0017
000a
000b
fff9
ffdc
000b
0006
0046
0026
ffc8
0027
000d
001e
ffee
fff9
fffb
0007
ffb7
fffe
004a
000b
0014
fff8
ffd6
0064
ffe2
001d
0035
000a
0038
ffdf
0030
003e
ffef
000c
0011
ffdc
ffdb
ffe9
ffc1
002f
0037
fff9
001f
ffde
fff9
ffd8
ffec
0001
002b
0033
fff1
000e
0000
0000
fffb
ffff
ffc0
0007
fff4
0025
fffd
0015
ffd0
ffd4
0015
0021
001d
0013
0016
001b
006c
001e
ffdc
0058
0002
fffd
fff3
ffe7
001f
0021
ffdd
0016
001d
001c
0027
ffe5
fffb
0042
ffd3
0065
0002
ffd1
0016
0007
0025
0013
0003
0025
ffcd
ffd0
0038
0042
002a
fffa
ffc7
0011
0041
0052
000a
0011
004b
0042
ffcf
ffec
fff9
ffb5
ffed
ffd1
0002
0031
003c
fff0
0028
ffc9
000d
000d
0017
ffd5
ffee
0000
002b
000d
0002
ffe6
ffdb
fff3
ffe2
ffea
0001
ffc9
fff5
ffeb
ffe5
0019
0032
fff8
ffc1
0016
fffb
fffc
0042
ffd6
ffe4
ffd2
ffc1
ffc0
fffc
ffd8
ffe6
ffc5
fff8
fff2
ffec
0030
0006
0001
0006
001d
fffa
0005
fff9
fff8
ffed
ffe9
fff8
0002
0000
ffe4
0018
0026
0026
000a
0004
fffd
0028
0012
001b
0000
fff0
0025
ffd9
0012
0018
ffb9
ffcc
ffd2
ffeb
fff9
fffb
ffff
ffdf
fff8
fffe
fff6
ffd7
000e
001f
ffdb
ffd9
ffcc
001f
fff4
ffe0
0023
ffda
0002
0005
ffb5
fffa
001e
003b
ffd3
fff8
ffdc
0009
0007
0002
fff1
ffe5
0000
ffe1
0019
fff4
ffe8
fff8
000f
fffe
fff5
ffc7
001f
002f
ffe0
000a
ffee
fff8
0009
fff2
ffec
000e
fff0
ffed
000d
ffe7
0011
000a
0009
0006
ffec
ffbd
fff7
0005
0018
ffd9
ffe2
fffe
ffe8
fff4
0002
0009
0006
ffe5
ffd8
0010
ffcf
002c
000f
ffca
0011
0004
000c
0010
fff0
ffe9
0030
0008
fff3
fffd
0011
0003
fff3
0007
0009
ffe5
fff9
fff7
0019
0018
0005
ffe5
ffbc
0023
ffed
ffda
fff4
0042
0000
000b
001f
fff0
002a
fff9
ffdc
ffee
0000
ffdd
0034
fffd
ffeb
fffc
0021
fffb
0001
ffee
fff2
0009
0015
fffa
000f
0010
fff6
ffef
001f
fff6
000d
fffc
ffd7
fffc
0000
0030
fff0
ffe5
fff9
0005
001c
0023
0005
0026
003b
0002
fff0
001c
0035
fff0
000a
ffe9
0029
fff3
0016
fffd
fff7
002b
0000
ffc8
ffce
fff5
fff7
0008
ffe6
0020
0020
ffd5
001e
0001
003a
0002
0013
ffd0
ffec
ffeb
0013
fff5
fffc
0003
0005
ffe4
ffec
0014
0007
fff2
ffd9
fff6
0004
003d
ffe6
ffe3
001a
0005
0001
0010
0004
001c
004c
0006
ffcd
ffe5
fff1
0021
000a
0026
0043
0030
0013
ffe1
001b
000a
0029
0002
fff4
004e
ffe9
ffb3
ffaa
ffe9
0001
0016
ffe7
fff7
000c
ffe7
0006
ffcc
ffe2
0013
0007
002e
fffa
fffe
ffff
0000
ffdc
ffd7
0016
0014
001a
0006
000a
fff2
0006
0016
0017
ffd2
0020
fffd
0053
0007
001b
fff4
0058
0027
0015
001e
000c
0025
fff7
ffd7
ffde
0018
0017
0020
0004
ffa5
001c
fff5
001f
fff3
000d
0005
0026
000b
fff1
fff8
0024
fffa
ffda
002b
0026
ffed
fff5
0004
003b
0011
0019
fffd
001b
0007
001e
fffc
0043
fffa
ffbc
fff1
002d
ffe9
003b
ffb4
0002
001d
0018
000e
0042
ffd3
ffa9
0023
000f
0049
003b
fff1
ffee
0026
ffd8
0019
002c
ffe3
001f
0033
ffeb
0006
ffeb
0033
0036
ffcf
000d
0016
ffd3
0030
0007
ffe9
0051
000a
ff97
ffe0
0048
ffe4
0000
ffe5
ffe6
0026
0008
ffd6
ffd8
fff5
ffe7
0004
0004
0007
fff3
ffd9
0005
001d
ffde
ffe9
fff1
000c
0005
000e
fff7
fff3
fffa
fff6
0006
0004
ffed
fffa
fff0
ffe1
002c
fff5
0004
0000
0019
ffe5
0005
fff8
0018
ffed
001d
0033
fffe
0013
000e
001a
0016
ffea
fffb
ffeb
fffe
0035
fff8
ffd5
0009
ffe0
fffa
000c
fff7
0012
0001
fffa
fff6
0012
fffa
0016
ffe3
ffd1
ffc6
ffe4
0009
0027
000e
fff8
000a
ffef
fffa
fff9
ffbf
0014
0048
000b
fffe
ffff
0034
0000
0007
ffc3
0001
fff6
0010
fffb
fffc
ffec
ffe1
ffe4
0036
0035
0043
fff3
0008
001e
0030
ffec
0052
0019
0021
0024
0007
001c
0025
fff1
005c
0005
fff5
002e
ffdc
ffcd
003b
ffe7
0052
0030
ffbf
fff6
0023
0021
0028
ffe3
0017
0010
fff6
fffb
ffe7
0010
fff0
fff3
ffda
0010
000f
000a
0001
000f
ffca
fff9
000c
001a
0001
ffea
ffd8
001e
fff7
001d
000a
0009
ffec
0015
ffe1
0021
000f
ffe6
0025
0026
0012
0017
001f
0002
0024
ffec
0037
002a
ffe4
fff8
0003
ffff
0023
fff1
0012
fff1
fff9
0027
fff5
ffd5
fff4
fff8
000a
fff5
fffc
ffeb
fffd
001e
0001
0006
0030
ffef
ffcc
004d
0004
fff2
fffc
ffbc
fff6
0039
0067
0014
000a
ffe9
0043
ffb7
ffdc
0010
ffc6
0014
ffb0
ffe9
001e
004e
0002
ffff
ffd0
0002
000d
001c
ffd7
0014
0014
fffa
ffe3
0015
fff6
0001
ffcb
ffca
ffe6
0008
ffe8
0005
ffe9
ffb0
0018
fff5
ffbf
ffea
0044
0004
0019
0008
ffcf
ffd4
ffc2
ffae
ffca
001d
0001
ffcf
ffe8
0001
ffdd
000f
ffe4
0036
ffe3
001c
ffe8
ffcc
fff6
0031
002f
001e
001d
fffc
001f
ffc1
ffdc
0019
fffc
0008
ffbf
000a
fffd
003e
001b
0017
ffd8
002a
ffef
0013
fff5
001d
0024
ffed
fff4
0021
0016
0007
ffeb
ffea
fff3
0014
ffee
fff3
fffd
fff2
000e
fff4
ffd0
ffe3
002a
0010
0011
ffe6
ffc3
fff3
ffb2
ffbf
fffe
0006
0007
ffdf
ffc9
000c
0009
0025
ffc8
ffd8
ffda
0007
0003
0029
000b
0015
fff4
002d
0017
ffea
0007
002a
0031
ffe8
ffe1
ffe3
001b
fff4
fff8
ffa5
fff3
0011
001d
001f
fffc
0002
ffd2
0009
0031
0020
0050
0007
0028
001c
0009
0025
0030
fff4
0016
0026
fff1
001e
000f
0036
0043
ffec
000b
001a
ffe0
001f
000d
fffe
006e
0002
ffdd
ffd2
003a
fffe
0009
ffe3
000c
ffe6
ffef
0019
ffe5
000b
0006
ffe8
ffd1
fffa
0053
001d
0009
ffd0
0022
fff4
ffee
ffef
fff9
0015
fff7
0012
0017
0008
ffff
0006
ffd6
0001
0000
0046
ffc0
fffc
0013
ffde
000b
0010
0002
fff2
ffc6
0028
ffc8
ffdb
0019
000a
000b
ffd5
001b
0036
0019
ffeb
000a
ffcd
001b
fffe
ffb0
0012
001b
ffd2
fff6
ffde
004d
ffd3
fff4
0001
ffec
fff9
0027
ffe4
ffc1
ffe9
0036
0010
ffde
fff9
0022
ffeb
ffde
ffba
fff0
0005
fff4
0010
003a
003a
000f
000d
fff8
0012
0018
000d
ffeb
ffd5
0018
ffef
fffb
0010
ffe0
ffc1
ffee
fffc
fffe
0022
fff6
ffe9
fffa
fffc
0019
ffec
0015
0006
0010
ffc7
fff8
002e
ffff
ffdc
0024
ffb3
0006
fff4
ffe5
fffc
000b
003c
0003
fff5
fff3
0007
fff7
ffcc
0002
0069
0006
ffdd
fff2
ffb9
0002
001e
0065
000f
000b
ffd7
0040
ff9c
ffe3
fffd
ffed
0041
ffcd
ffe5
003a
0051
0005
ffeb
ffd5
fff1
0022
000f
ffd2
0027
fff8
ffea
ffc5
0014
ffbc
000e
ffa3
ffd8
ffb5
ffe7
000b
fffd
fff1
ff9f
001a
ffda
ffd6
ffd7
002e
fff4
0022
0006
ffb7
ffdd
ffc2
ffc6
ffc3
0027
0028
ffb8
0006
000e
ffb1
ffe3
ffe3
0036
001d
ffc6
fff1
ffdf
0027
0030
0032
fff9
0005
fff6
0041
ffc0
fff4
fff4
ffc8
000d
ffe2
ffca
002f
0010
fff8
ffe9
ffeb
fffa
0031
ffd9
ffd3
001c
fff6
0010
ffe8
0001
ffca
0011
ffc5
ffd0
fffa
fffb
0000
0013
ffdb
ffaf
fffd
fff7
ffeb
ffda
0031
0006
fff5
0031
000b
ffc8
0003
ffe4
ffad
002c
000e
ffdc
0009
fffe
ffb7
ffe9
0009
ffec
0024
0023
0029
0014
fffa
fff3
fff4
fff1
fff8
001f
000b
002d
fffb
ffeb
ffee
ffe5
0005
0020
fff6
0005
ffe5
0015
0005
fff8
0006
000b
fffd
ffe3
ffd6
fff8
0012
ffef
0014
ffe0
000f
0017
fffe
fffb
ffd6
fff2
0001
0024
fff3
002e
fff9
0018
ffe7
ffe6
0006
0015
0007
0010
0003
fff4
001f
ffe8
ffd1
0013
ffdc
fffc
001c
0030
0000
ff93
ffff
0011
0014
0048
fffc
ffe8
ff92
ffeb
ffec
0028
ffbc
0068
0016
0004
0011
ffbc
0026
0014
ffc2
ffbb
fff3
0007
0037
0007
ffdf
ffeb
0041
ffd4
0004
0011
002a
ffec
0041
fff1
0060
000c
0053
0021
fff1
ffff
000d
0052
ffe2
0011
001c
0038
ffd4
0014
ffd9
fff9
005b
0019
0037
003d
0040
ffe9
ffc1
0053
0012
fff6
004c
0022
fff3
0002
ffe2
0014
ffc7
0005
000f
0015
0003
0001
001b
0032
ffd3
ffd8
fffe
0003
fffa
fff0
0010
ffe9
000c
ffe7
0004
fffd
ffdd
001c
ffcf
fffe
0002
ffe4
0041
003d
0028
fff2
fff4
fff2
001f
0005
000d
000e
001a
0022
000f
0003
0027
0014
0056
ffd6
0006
002e
ffdb
ffea
ffec
ffe7
001e
0031
ffd9
fff2
0021
0004
0017
fff8
fff0
ffd7
0035
0012
0019
ffdf
ffe1
0016
0015
ffcc
0006
ffe1
0007
fff3
ffec
fff5
001d
ffd9
0010
0021
0047
ffe8
003d
ffc7
ffeb
ffe2
0005
ffe1
0018
fff0
ffe1
fff7
ffde
0011
0009
ffeb
ffb4
fffc
ffdb
0039
ffc6
ffcb
0041
0024
0006
ffe6
0007
0013
0059
ffe1
ffe5
ffe2
fffb
001e
ffff
0007
0048
003b
ffd0
fffa
0054
ffe5
0039
fff7
ffab
003f
0005
ffd8
ffb2
002a
ffd9
0017
ffff
fff9
ffd1
000f
002e
ffff
ffde
0002
0029
0011
001b
ffe7
0011
001d
ffe8
ffbd
0026
0044
000d
0034
fffb
ffe4
fff9
0030
0015
ffe6
002b
001c
0047
0033
001f
003f
0042
0004
0028
0012
0016
006b
ffe6
fff8
000c
ffe5
0004
0029
fffa
ffb9
ffe4
0008
001a
fff6
001a
ffdc
0041
fff9
ffbd
0018
0048
fff3
0041
0001
ffea
ffef
000c
000e
ffe3
000d
ffdb
fff0
ffff
0001
ffcf
fffb
ffec
0005
005d
0018
0018
001b
001a
0014
0026
0009
ffd1
0003
ffea
fff5
000c
000c
fff8
ffec
ffd5
0005
ffd3
003a
0011
fffb
ffd7
ffee
000d
ffcd
fff9
fff3
000e
fff7
0047
0001
0008
ffcd
ffff
ffd0
fff2
000d
ffe0
002f
002a
0018
001e
000c
fff5
000c
ffec
0007
fff4
0015
fff1
ffd5
0028
0010
0006
000b
fff1
0003
ffe5
ffd4
001b
0006
0033
0006
0010
0017
ffe7
000e
fff9
0005
001d
0004
002b
0006
0021
ffdb
ffe0
003f
0006
0003
ffd0
002a
000e
0062
fffd
ffe5
0039
fff9
ffec
ffe1
ffe1
0008
0014
ffbb
ffcf
0021
0019
0015
fff8
fffe
0023
ffe0
0015
ffe5
fff4
0022
fff9
000d
ffee
0013
0027
000f
0017
ffa5
ffaa
000c
004a
0036
ffb5
0018
0000
fff8
ffe0
ffc1
ffdb
003f
ffe2
0009
0059
0008
0038
0033
ffe4
ffec
001d
001e
ffd1
fff2
ffe1
000d
fff4
fff7
000d
ffc9
0018
000f
002b
0025
002d
0003
fffe
fff7
000b
ffd7
001b
001d
0023
0015
0045
0037
0002
ffc1
0014
ffb0
000c
0015
fffa
000d
0047
0010
0010
0023
ffe7
fff5
0010
ffec
0031
0023
fff1
ffe7
ffeb
000e
000a
ffef
ffd5
0016
fff9
fff1
fff8
fff4
fff1
ffe3
003f
0017
001f
ffee
0014
fff3
ffff
ffd4
ffea
fffc
ffdd
0006
000b
0000
0011
ffff
ffdd
000e
ffbb
001d
ffe6
001d
ffaa
ffde
0037
fff8
000b
ffd4
0008
0005
0042
ffea
fff8
ffe6
fffb
0013
ffe7
0012
0015
002d
0017
000a
0037
fff8
0039
0009
ffc9
ffe7
000a
ffe9
0044
002a
000c
0000
fff5
0003
fff7
fff3
fffa
0047
0008
001e
ffd4
ffe8
ffec
ffe0
fff7
000e
0000
001f
ffdc
0003
ffea
ffee
ffe9
001e
0023
ffc8
ffda
0009
0002
ffe3
fff6
ffb5
0016
ffff
ffd8
0003
ffca
ffed
0002
fff8
fffb
0030
fffa
000a
ffdf
ffe0
fff7
0035
0002
0015
ffe5
0004
0028
ffed
ffb8
0011
fff9
0002
fffe
0063
ff87
ffcd
ff6a
000c
0014
fffc
ffe0
0054
005b
002f
000f
ffb6
ffed
fff3
0019
002e
ffed
fff7
ffff
001b
ffe9
ffd5
0027
0028
ffea
0033
ffe9
0014
ffbb
0019
008b
0001
0067
0025
0077
0049
001e
ffd6
0060
0023
0022
0029
000b
0015
0034
0004
0034
fff2
0055
002b
0000
ff91
0003
ffce
0025
ffdc
ffc0
fffb
0045
0006
ffe3
ffda
0025
ffdf
0020
000f
0057
0008
ffe5
0002
0019
fff5
ffb6
fff1
fff3
0067
fffa
0001
ffea
ffe2
0006
ffee
fff8
fff5
0002
001c
ffe3
ffd7
0001
fffc
ffde
fff3
003f
ffcb
ffe5
002d
ffce
ffed
ffcd
ffca
001e
0001
ffd4
000d
ffe2
fff1
fff9
fff2
fff0
000a
fffb
0002
ffdb
000f
ffe7
004c
0013
000f
ffeb
0030
0018
0000
ffad
0024
001e
ffff
fff2
fff7
0019
fff0
002b
fff4
000e
0023
000f
ffeb
ff9c
fff8
ffdc
002a
ffda
002f
0019
ffff
0015
ffda
000e
0005
ffe8
fffb
fffe
ffe8
003c
fffb
fffe
fff1
0036
ffe9
fff3
002c
ffe5
fff9
fff8
0005
0038
fff5
002b
000b
ffe5
ffe5
ffef
001c
fff5
ffec
fffc
0029
ffd9
0019
ffe0
0018
0048
0009
0016
0031
0022
0001
ffb8
0040
0027
0005
0028
0027
ffe2
fff9
fff8
0019
001b
fff2
fff3
002a
fff7
0003
000b
0005
0018
000d
ffee
0028
ffe7
ffe2
ffcd
000f
ffcf
002b
0017
0025
000a
0022
fffc
0003
0012
001b
000c
ffe5
fffa
0018
0049
0009
001f
ffd7
003c
001f
ffc2
ffe0
fff9
0020
ffe0
fff8
ffaa
001f
0023
0013
0001
ffeb
000c
fffc
ffc0
ffcd
002f
0005
ffc2
0023
ffbf
0009
003f
0022
0032
ffe9
ffe0
000a
ffb4
0007
fffb
ffce
ffd6
ffdf
0020
0017
ffc2
ffdc
0001
fffe
0026
000b
0020
fff9
0012
ffb8
0019
0017
ffed
0015
ffeb
fff6
0016
000a
000a
0002
002a
0002
0005
fff9
0003
003c
000f
fff8
0030
002f
000e
001a
0001
000a
0035
ffd1
ffe5
0017
fffb
ffcc
ffe2
0001
0032
0024
ffff
ffe5
005b
ffef
fff5
0006
fffd
0008
ffc8
ffe3
ffe5
fff9
0012
fffe
ffe1
0000
004d
fff7
fffa
ffd9
0014
0007
ffef
000c
ffce
fffa
000d
fff0
0001
ffea
ffe1
fff4
fff0
ffef
0010
0016
ffe0
ffdf
0008
ffe1
0030
ffdd
0021
ffdb
ffe5
fffc
000b
0001
000d
003a
000c
ffe6
0008
001c
0001
0004
0017
ffec
0001
fff5
000d
ffff
0020
ffe5
ffed
ffef
0026
fff5
0018
ffdb
ffe1
0034
ff89
0038
ffc2
001a
0003
ffcb
0002
005a
0052
005f
0026
ffc3
0048
ffd8
0009
001e
ffbd
ffef
ffc9
000c
ffee
0017
0029
0026
fffc
004d
0003
001b
ffa2
0043
0067
ffff
0029
0045
0043
0035
ffe0
ffeb
0031
fffc
0003
0012
ffea
fff0
000f
0014
ffd7
ffe0
005d
001e
000a
fff2
ffc7
ffd2
fff7
ffa2
ffcf
fff0
003a
ffe8
ffc2
fff0
0025
0031
ffce
fffe
ffc3
000d
ffd8
000f
001d
000c
000e
0026
0038
fff2
fffd
ffea
003d
ffea
ffee
fff1
0036
0006
0026
ff86
001e
0020
fff6
0035
0001
fff6
ffa6
0024
0048
002c
0060
000b
001c
003a
fff1
0050
0019
ffdc
0048
003b
0005
0029
000c
0046
0074
ffb1
001e
001c
ffe2
0007
ffd6
fffc
0075
0006
ffbe
ffba
0090
ffe7
fff4
ffe8
ffff
ffe0
0036
0007
0046
ffda
fffc
0019
0025
ffcb
ffa8
ffec
ffe2
0027
fff8
0023
0016
fff0
0006
0000
0009
ffe4
0008
fffc
ffe7
ffc9
0034
fff0
0010
ffdb
0029
ffee
ffd8
0024
ffd0
ffef
ffc8
0004
000c
0000
0003
fff4
fff5
fff9
ffea
0006
ffe9
ffeb
ffff
0019
ffd9
0019
ffe6
0036
0039
0006
0022
002e
0004
0011
ffd4
001f
0039
000a
fffa
000b
000c
ffe5
000d
fff1
ffff
fffb
001a
fffe
fff4
ffdc
0004
0011
fffd
ffff
ffe3
0004
ffe1
0012
000c
ffd7
0001
0000
ffe5
ffe6
fffd
ffe0
000a
ffed
0035
ffec
ffd1
ffef
fffc
ffd4
fff9
ffca
fff9
ffee
fff2
000e
0001
000d
000b
fff3
ffe4
fff4
ffe3
000a
ffe8
fff8
fff8
fffc
0019
0004
ffe8
0014
fffb
0019
ffe4
ffea
000a
fffa
ffdc
0019
fff4
ffcf
ffb3
fff2
004b
0023
fff0
002c
0004
fff7
ffdc
ffdd
ffe1
0021
0012
0033
002e
0007
000e
001c
ffe5
0009
0027
0025
fffb
fff1
0004
ffd8
ffef
001a
000b
ffe1
0001
001f
0035
0048
0036
ffcc
0041
0015
fff9
ffd2
ffff
0030
0015
ffcf
fffe
002c
001c
ffff
0003
ff9e
002b
ffea
ffec
ffff
000a
0034
ffe2
0027
ffd8
ffea
002b
ffea
0011
0009
0007
ffb0
0029
0010
fff2
fff1
0020
ffdb
ffc5
ffcc
0012
fff4
001c
fff1
0004
0034
ffc8
ffe9
001a
0015
fff5
ffe9
000a
ffde
0029
ffea
ffeb
0014
ffe0
fff0
ffcc
0012
ffe9
003e
ffe5
ffce
0009
000a
ffe9
ffec
ffe1
ffe7
002f
ffb9
ffcb
001e
0011
000d
0012
fff6
0016
ffc8
001b
ffd5
ffd8
002a
fff6
0000
000d
0019
000a
0026
0004
ffcc
ffc7
ffca
0011
003a
0003
fff7
ffbd
000b
fff7
ffdc
ffb7
002c
0014
0005
004b
fff7
0052
fff7
fff4
ffa9
000f
ffcb
0011
fff8
ffd0
ffeb
0010
fff3
0035
000b
000f
0005
0000
002e
002d
0007
0005
fffe
0046
0012
0004
0003
0006
fff8
0063
0016
ffff
fff9
ffdf
ffdb
003d
0007
0040
0066
000f
000a
002d
0028
005c
ffe9
ffef
ffe8
ffdc
003b
002a
0031
fffa
ffd4
001f
0007
003b
001e
001d
fffe
0031
fffa
fffd
000f
ffc3
fff9
0011
0008
000a
001d
fffa
0025
001b
000f
0035
0013
ffda
0018
ffe9
fff0
001b
fff6
0002
ffd2
ffc7
0019
ffe4
ffd7
0004
0016
000a
fffd
ffc5
002d
ffe5
ffee
0000
ffd5
000f
002b
ffd5
000f
ffd3
ffe5
ffeb
ffec
000a
ffdb
ffda
ffe7
ffea
0067
ffa8
ffdc
ff2e
ffed
ffd7
0021
0002
0024
004c
002e
003a
ff86
ffc2
ffd6
0065
0016
002d
001c
0073
0009
0026
ff40
005a
002f
ffe0
004b
0001
fff1
ff61
0053
00a6
0015
0099
0029
004b
0092
fff9
0045
0054
ffdb
00a5
006d
0016
0028
003a
0028
00db
ff9f
004d
0021
fff2
ff73
ffe0
ffe0
00b0
001f
ff82
ffd1
010b
ffe0
0000
ffc9
ffe9
ffe7
fffb
005c
0001
ffd9
ffdb
ffce
000e
0003
0053
0011
0013
ffcc
002c
ffa6
0007
fffc
ffe7
0038
ffe2
ffdd
0037
0025
0009
ffee
ffeb
fff7
002c
000c
ffcc
002d
000a
fff7
ffe4
0010
ffcf
0017
ffa8
fff9
ffd6
ffdf
001e
001c
fff4
ffb5
0014
ffe5
ffec
ffd2
0028
0000
0019
0003
ffc2
ffe0
fff6
ffd0
ffb9
000d
0050
ffbb
000e
000f
ffc1
0000
0025
fff4
0016
fffb
ffd2
0026
001f
ffca
ffca
ffed
0014
001a
ffd6
0013
0034
ffda
0010
fffa
0052
fff4
001f
ff8b
fff8
fff5
000b
0006
0001
ffe8
fff4
fff3
000e
003f
002a
ffea
ffd7
000a
ffff
0056
0003
ffd8
0036
0029
000a
001f
0002
002b
0085
ffd8
ffdc
0000
ffd5
0020
0003
0012
0075
004b
ffdd
ffd2
005b
fff8
0034
ffee
ffe4
fff7
0025
fffd
0019
000e
ffd4
0014
0011
ffdd
ffc5
ffef
0019
0018
ffeb
0008
001e
ffe7
0012
ffe8
0034
000f
0014
ffcd
0004
0004
fffb
000a
0009
fff8
fff7
0007
fff8
0018
000b
0000
ffec
0004
0004
0049
ffe2
ffd3
001d
000e
0002
001e
ffdd
0032
0040
ffdc
fff2
ffea
fff1
001c
fff7
001a
002f
0035
0014
ffd6
002d
fffb
fffe
fff2
fff5
fff9
0000
ffd3
001b
0015
0028
0026
fff4
0010
ffbc
fffc
ffde
0037
fff2
0043
fffa
fff1
0012
ffd6
fff4
001b
ffdb
0013
ffef
ffff
0004
0000
ffce
fffd
002e
ffd1
fffd
000e
fffa
fffb
0013
fffd
0044
ffe4
000c
0018
ffd2
ffcb
fffe
0024
0006
0005
fffe
0027
ffe9
0001
ffef
001e
0028
0001
fff7
0011
0031
000b
ff93
003e
0000
000d
003f
ffcb
fff9
000f
002e
0006
0004
000c
fffb
0006
fffe
0015
fff0
0024
001e
0003
fffb
ffae
0006
fff6
ffef
0011
0021
fff9
ffe8
ffea
ffcd
fffe
ffd2
001b
fff2
ffdb
0003
0030
fff3
0003
ffc6
0006
0003
000e
ffbe
fff0
fff4
ffe2
fff4
ffe8
0033
0032
0037
ffe4
fff7
ffea
fffb
0059
ffea
ffef
003b
fff7
0000
ffe0
ffea
0000
001a
000b
ffee
0001
0007
ffd3
0023
002f
0029
0006
fff7
0008
ffe4
ffee
fff3
002b
fffd
0039
ffe6
0014
fff2
ffda
0006
001a
ffe0
000c
fff8
0023
000b
fffa
fff2
000a
0025
ffe3
ffdd
ffee
0009
ffe5
0025
ffce
0029
0002
000b
000b
ffcc
ffe7
000c
0027
ffd6
002a
ffea
0023
ffd9
ffdf
fffd
000f
0019
0016
ffdd
0003
003b
fff6
ffb1
001b
ffd6
fff7
0028
0022
fff4
ffed
fffb
ffec
0009
fff9
ffff
0009
ffd9
fff7
fff1
0006
ffec
ffff
fff0
0028
fffc
fffc
ffc5
ffec
ffd2
002e
000c
ffed
0025
fffc
fff3
ffec
003f
ffff
ffff
fff1
ffd6
000b
0023
fff1
0020
ffc6
002b
002f
ffe0
ffee
fff9
0003
ffeb
ffbf
ff9d
002a
0003
002b
fffa
ffe4
002a
fff7
ffbc
fffb
0028
0022
ffc0
0021
0007
0010
0025
ffd4
001a
0024
004f
0023
ffff
ffee
002b
0006
ffe2
fffd
000b
0042
000f
fffa
0008
fff9
ffe5
ffed
fffd
000b
000e
0018
fffe
0013
000c
0016
0016
ffed
0010
0015
ffde
0026
ffee
0001
ffe2
ffea
0009
0002
fffb
ffee
ffdf
ffed
fff2
0010
ffbf
0012
ffdd
fff7
fff1
0006
fff7
003b
fff9
0008
ffd3
000e
000b
0007
ffcb
000a
ffd8
fffd
fffa
ffc9
0025
0030
003c
fffe
ffd9
ffe3
0004
fff1
002d
ffde
0007
002c
0013
ffbf
ffe6
ffe1
fff2
0026
fff1
ffe8
0039
0019
ffea
fff3
ffca
ffe5
000d
000b
0000
ffea
ffce
000b
ffe9
ffe4
ffb0
ffc7
ffd4
0005
ffb2
fff0
fff6
000c
0001
ffd2
000d
000f
fffe
ffd0
ffee
ffeb
0004
0028
ffd3
fffb
ffe9
fffb
ffde
0001
000b
ffdb
ffff
000e
ffba
0014
fffe
ffec
0005
0036
fff5
fffd
ffff
0010
ffc7
fffb
0019
0029
ffe9
000a
ffec
0010
0009
ffc9
0001
0025
ffd8
0002
0019
002b
fff3
0025
ffe7
0000
0015
0008
0008
0003
000b
0013
0024
ffeb
0028
001a
0014
0007
ffe9
ffea
000c
003b
ffd6
0027
0008
fffe
ffff
fff9
fff7
fff7
ffee
0028
ffe2
0000
0042
ffdf
ffe6
0018
ffca
fffc
0036
0007
001b
fff3
ffe8
ffea
0024
0002
fffc
ffe5
ffee
fffa
ffed
ffcb
ffe6
0013
fff3
0027
0027
001a
0006
fff9
ffd3
0026
0012
fff2
0024
ffe2
0008
fff4
002c
000f
ffe5
ffc1
ffdf
0002
000f
fff8
0007
ffe3
fffe
0004
000d
ffed
0011
0005
ffd8
ffc3
ffc6
0046
fff5
fff0
0019
ffcc
0020
0014
ffb9
0012
0037
0029
ffe4
0005
0011
0006
0009
0014
ffe9
ffac
ffcc
0036
003c
0026
ffc5
000d
0019
0008
fff9
ffeb
fff4
0050
0005
0002
0006
ffe1
0027
0037
ffd8
ffd1
fff4
0039
fff8
fffb
ffef
0020
fff2
ffde
0003
ffd8
004a
fff6
004a
fff1
001d
0027
0019
fff9
fff8
fffb
001f
0046
001a
0037
0034
001c
ffe8
ffc6
0016
ffed
0003
002a
001f
fff6
002d
ffdd
0005
001a
ffd5
ffe5
002d
0029
0017
0000
ffe0
0011
ffdc
0007
fff8
fffd
ffc9
0006
001c
000b
ffef
fff9
ffd8
0014
0021
ffee
fffa
0015
ffe4
ffeb
002f
000e
fff3
002a
ffda
fffb
0017
0023
000b
ffea
ffec
0014
000d
0003
0013
001c
ffe9
0005
fffd
fff3
ffff
001c
ffd5
000b
0001
fff1
0013
fffd
fff7
ffe9
ffed
0018
ffd4
000b
003d
ffed
001d
000e
ffdb
0004
0014
000b
0042
ffe4
ffe8
ffd8
ffe4
0017
ffee
ffc2
ffc8
ffda
fff9
ffea
ffef
0002
fffc
fff5
0032
0023
fff9
ffe7
0001
ffe5
0002
fff5
000c
fff3
000a
ffe3
0026
000f
ffcb
ffd1
ffdb
0000
fff5
0011
ffed
0027
fff3
fffe
000f
0002
0001
000a
fff1
ffd6
ffdc
000a
fff0
fffe
000d
ffe2
fff7
000f
0013
0008
0029
0008
0028
fff1
000b
001f
fffa
0031
ffff
ffbc
ffa8
ffc0
0048
003a
fff7
000e
ffdf
0006
ffd0
ffa7
ffdd
0032
002d
001c
0033
0014
0017
fff7
ffdb
ffd4
001b
fff9
0027
fff5
0008
ffc8
fffa
002b
0024
ffe4
0009
0019
0028
005f
002a
ffd6
0043
000d
002d
ffee
000a
001e
0013
ffb6
0010
0043
0016
0017
fffe
ffaf
0054
ffe0
002f
0023
0007
003a
000b
0021
001d
ffe5
001b
0001
0031
ffe1
ffde
ffea
0038
0023
fff6
000b
ffd3
ffe7
ffe0
ffe3
ffed
0024
0001
0016
004a
0017
002b
0016
fff6
fffd
0029
0009
fff9
fff6
000f
ffd5
000d
0029
ffe1
ffd7
ffe1
000c
fffd
0041
001f
fff1
0000
fff3
0000
ffcc
fff9
001d
ffef
ffdc
000f
0024
000b
ffdc
fffd
ffc9
0027
0007
ffe6
0022
002f
0031
fff9
0023
ffec
0009
0004
ffea
0028
0029
fff6
ffd9
ffc8
0014
0024
ffd9
0014
ffea
001a
ffea
ffee
ffce
0039
ffd5
000d
002d
003b
ffe3
0056
ff9c
000e
fff8
fff2
0000
002a
ffda
ffb3
0018
0006
0025
001d
fffc
ffbe
003b
ffcb
004a
ffe8
ffc6
0055
0036
fff7
fff4
001b
0015
0078
ffba
fffd
0002
ffea
0009
ffe7
ffee
0075
0023
ffa2
ffe5
009f
ffd1
0023
fffc
ffb9
0025
ffeb
ffd7
ffb4
002f
000d
0018
ffe4
0026
fffb
0018
0016
fff3
ffe1
0022
0007
0018
0026
ffe0
003b
002d
ffe2
ffd4
002b
0041
ffe7
0021
ffe1
000b
ffe7
0007
0030
ffec
004f
001c
0042
0010
0021
0022
0012
fff1
002d
0004
0021
0047
fff9
002e
0056
fff4
0009
ffe1
0004
ffbe
ffe5
0029
0007
000c
0023
ffe2
0026
000a
ffd6
ffe6
0022
0050
ffda
ffe0
ff6a
fff7
ffdc
000e
fff0
000c
0029
001b
002f
ffa9
ffcb
ffe8
0032
001e
002f
0019
0048
000e
0011
ff8b
0040
001d
ffef
002b
fff3
0001
ffb0
0034
0067
fff6
005b
0021
0035
0050
fffe
0030
002d
ffe8
0071
0041
001c
0022
0019
0013
0088
ffd4
002e
000e
fffc
ff88
ffe5
0001
0050
001e
ffcf
ffe5
00a9
ffef
fffb
ffdf
fffd
fff4
0008
ffb0
0020
fffc
003d
0043
0003
fff6
ffad
ffe6
ffd2
0028
ffe3
0060
0027
ffe6
0015
ffce
0022
001d
ffea
ffc7
ffea
fffc
0025
fff3
fffa
ffe1
000b
ffdd
ffea
0023
0016
ffee
0012
0011
003d
0000
0040
0002
ffe9
ffea
fffb
0035
0000
0015
0036
002c
ffe2
0002
ffe0
0022
0058
0006
0045
002d
0015
fffb
ffc5
0046
000c
ffea
0035
ffea
001e
003a
0020
001d
ffea
ffd9
0015
fff2
ffe7
0022
0012
0016
0014
ffde
ffef
0005
000d
fffd
0001
0000
fff5
003d
0004
fff2
000a
0006
fff8
0000
0024
000c
fff7
fffa
ffcf
000b
ffde
ffe3
ffec
0002
ffd0
ffed
0009
ffe9
0006
ffef
ffdf
fffe
ffd9
0001
fff5
fff6
0004
000e
ffea
0016
ffad
0018
0016
000b
ffec
ffee
0006
0010
ffef
ffcf
0048
ffee
0023
ffe5
0033
0029
fffc
ffde
ffc7
ffd7
ffd3
0011
ffe3
0025
0015
fff4
002f
0012
0007
0011
fffd
0017
fff7
fff6
000f
ffd7
0011
ffed
001d
fffd
ffbf
fffd
ffd0
fff8
ffd4
001a
0011
fff7
0002
fffc
ffe4
ffca
fff6
0017
0006
ffd8
fffa
0034
ffe8
ffef
0000
0007
002e
0006
0004
0013
001d
001d
ffbf
0023
000d
0017
0013
ffe6
ffeb
0046
0016
ffe0
000c
ffc2
fff8
0026
0043
000a
ffef
ffe1
0045
ffc0
ffe3
000a
ffda
002a
ff9c
ffed
0009
0071
fffb
fff2
fff4
fff7
0017
000f
fff8
001c
fff3
ffe9
ffad
001b
ffee
000d
ffcf
ffb0
fff0
0016
ffce
ffdf
ffe2
ffb3
0014
ffbd
ff85
000d
0032
0014
001e
0008
ffe4
ffcf
ffaa
ffaa
ffea
0036
ffc8
ffea
fff2
001b
fff1
000d
ffdd
fff4
ffd2
fffc
ffe6
0014
0011
0014
0028
0004
001e
fffa
fff2
ffee
001f
ffe8
fffe
0002
003f
0001
0033
ff9a
000e
000f
ffd9
0017
0006
fffa
ffa8
0014
0041
0036
005c
fffb
fffd
0029
ffee
0034
0017
ffdd
0041
0040
0008
0005
001b
0042
008d
ffbf
001b
fff6
ffd9
fff1
fff0
ffe7
0074
0018
ffab
ffd3
0088
ffef
0001
ffdb
ffd7
ffdc
ffef
0021
fff6
ffe1
002e
0004
0000
0008
000a
0022
ffd6
ffdf
0000
fffa
0023
fff3
0016
0014
ffe6
000d
000b
0021
0005
ffe2
0024
0004
ffee
000c
fff0
fffc
0037
001c
ffd2
002d
ffe7
003f
fffb
ffd3
0001
fffe
0007
ffe7
ffe5
ffcf
002b
ffd4
0005
001c
000f
0015
000a
0003
0019
ffe5
0010
0002
ffd8
0017
ffe7
001a
0030
0003
0017
0010
ffe4
0013
fff7
0028
fffc
ffe7
fffc
0024
0020
0012
fffa
0029
fff7
ffe0
fffc
0005
fff9
fff7
ffdb
001b
ffff
0028
ffff
0018
ffd8
0018
ffc5
000d
ffff
ffe4
0030
0024
000f
0007
0005
0003
0026
ffe7
0004
001e
fff2
ffeb
0008
0005
003d
0009
000d
ffe1
0012
0023
ffff
fff4
ffe3
ffe6
ffe6
fffc
ffed
fffc
ffde
000f
ffe5
fffd
0003
0022
fff5
ffd0
ffce
001c
ffd2
000b
ffcc
fff2
ffff
ffff
001d
0016
ffb7
fff9
ffea
0006
0013
ffea
0011
000c
0004
ffe6
0017
000e
ffd4
001f
ffcf
0032
000b
ffcf
0029
000c
0024
0006
0026
fff0
0013
002c
0007
0003
000f
001e
0014
fffd
001b
001b
0053
ffd7
fff1
0017
fff8
ffdc
ffdb
0017
0027
0006
0014
ffc9
0037
001c
000c
0000
0014
0023
ffb0
fff4
fff2
0059
ffeb
ffe8
fffe
0032
002e
0016
0043
0028
000e
fff7
0015
0003
ffb9
ffc6
0016
0018
000b
ffc5
0005
004f
ffe7
003a
0001
001d
ffbc
0000
0035
002b
006b
0005
0039
fff5
000a
002f
0035
0001
fff2
0023
0004
003b
0009
0066
003e
ffb3
0016
0010
ffee
0015
ffcc
000b
0026
ffd6
ffc9
ffb5
002f
fff3
ffb6
ffe5
0023
fff8
ffe0
ffe0
0026
001d
ffff
0017
fffe
0001
ffea
fffe
0006
003c
ffec
0020
0015
ffe8
ffe6
ffc2
0025
0025
0005
ffd6
ffeb
0002
0001
0007
fff5
0013
fff7
ffc7
001b
003f
0032
fffc
0007
ffe6
0019
0025
0010
fff5
fff6
001a
fff7
0012
0006
0059
0053
ffee
fff2
fff4
ffe4
002b
000a
0010
0052
001c
fff4
ffca
fffb
0024
0002
ffe9
000f
0025
ffc1
ffde
0004
0019
fff8
0001
0005
0023
0019
fff0
0006
002d
0003
fffa
0005
0008
ffca
ffd5
fff2
0006
0006
ffe2
0005
0019
fffa
0013
0008
fff7
ffe4
ffec
0028
0021
003f
fff6
002f
fffe
0028
fff3
004a
001f
ffe2
0015
fff9
0020
0008
0020
000f
ffef
0025
002c
ffef
ffff
0017
ffdf
0025
ffe7
ffd7
ffe4
fffb
0016
ffdb
fff0
001e
ffe2
0004
0018
003f
fff4
fffb
fff9
000f
fffe
fff6
fff7
ffee
0019
0027
0001
fff0
ffef
ffe2
fffb
ffd8
ffef
000b
0022
ffe5
ffe5
000a
ffe9
000f
0001
0018
fff9
ffe0
0005
ffd7
fff5
ffe6
ffe3
ffef
ffed
ffec
0006
ffd7
ffec
ffee
ffe6
ffef
fff5
ffc5
000b
0000
0008
fffb
003e
000e
fff3
ffe9
ffea
ffff
000f
ffcc
fffd
000a
0013
fff9
0028
ffeb
fff9
ffba
fffb
fff4
0014
000f
001d
fffe
fffc
0007
0006
ffe3
ffd6
003e
fffa
001c
0006
0023
0014
002a
ffb9
0026
0026
ffda
0020
fffb
ffdb
ffc1
0018
0041
0030
0032
0018
0005
0066
001c
001c
0039
0005
002d
0010
fff3
0020
0036
0001
0070
ffcb
0019
0034
ffe6
ffcd
fffa
ffd8
0048
0016
ffab
fff9
005a
0005
ffec
fffa
0000
ffe2
ffec
0011
0024
0041
fffa
fffe
0000
000e
ffee
001c
0003
003b
000f
0002
0006
ffe6
fffa
ffe7
fff6
0018
000a
0006
fffc
0021
ffea
0020
ffdd
0015
ffea
fff6
0002
0029
0013
0001
fff0
0008
001e
001a
ffe9
fffd
ffdc
ffdd
fffe
0019
000f
003d
0011
ffde
fff2
fffe
fffe
0046
ffdc
ffff
0003
ffe9
fff7
ffe2
ffcc
000b
ffdc
0003
001c
ffbd
0001
0076
000c
ffd5
ffe9
ffc0
000b
000a
0079
000a
0003
ffd6
003a
ff96
fff2
ffe9
ffe7
0050
ffd9
ffd9
004e
003d
fff4
ffe5
ffce
ffe9
0023
0011
ffc3
0015
fff6
fff9
ffd7
000a
ffa4
0010
ff94
fff2
ffa4
ffd6
0023
000d
ffeb
ff91
002b
ffe9
fff9
ffc4
0025
ffea
0022
0014
ffb6
ffd3
ffe3
ffd0
ffa5
001e
004f
ffab
001d
000b
ff92
ffef
fff3
fff2
fff2
ffea
0035
002a
0018
002f
0003
fffb
ffde
ffef
0000
001b
0026
fff0
0018
000d
0018
0010
000d
fff0
fffc
0007
ffff
fff3
0013
ffd0
ffd4
0014
0006
0016
0008
0009
ffee
004a
0018
ffe4
001b
fff2
0004
ffdf
fff8
0010
0018
ffe8
002a
0011
000d
fff5
fff4
fff9
0034
ffe5
001a
0017
ffc7
0035
fffe
0015
fffc
fff0
0001
fff4
fff4
fffa
003c
0038
fff6
ffed
fffa
0021
ffea
fff0
0007
005f
0007
0005
ffe1
fff9
ffda
ffc8
ffcb
0017
fffc
002b
fff0
0018
ffe5
0015
ffe6
000a
0021
ffdc
fff3
0028
0009
0001
000a
ffd7
0029
ffef
0015
0023
ffab
ffe7
fff1
001b
0007
0022
ffe1
fff6
fff4
0016
fff5
003e
fff7
fff7
ffda
ffe1
0015
ffec
ffa4
001f
ffcb
000b
002a
ffe6
000d
ffea
ffeb
ffee
0027
0007
ffd6
0009
001b
ffef
ffde
fffb
fff7
000a
fff2
ffe4
0019
0016
ffde
000f
fff5
0021
fff9
0001
ffec
ffdc
ffed
0010
0010
ffe1
ffe4
ffeb
ffe6
0001
fff2
0011
000c
ffda
fffa
001a
ffdf
ffd8
0002
ffff
003e
ffe1
ffe0
0012
fff8
fffa
0026
fff3
0004
ffe4
fffa
ffe1
000f
0022
ffd2
0006
fffd
0017
0015
ffdb
0000
005a
0013
ffe5
fffa
ffbd
0007
0024
004f
0012
0000
ffe4
003e
ffac
ffdf
0008
ffe7
0033
ffc5
ffeb
0021
0055
0004
fff4
ffdc
fff7
001c
000b
ffe3
0026
fffa
ffed
ffc4
0014
ffcd
000c
ffbb
ffca
ffcb
fff9
fff5
fff1
ffee
ffad
000e
ffd1
ffbd
ffe8
0027
0001
0018
0003
ffcc
ffdf
ffaa
ffc5
ffda
0030
0003
ffd2
fff9
0011
ffcb
ffe9
0013
fff0
ffe4
ffa4
004d
0021
0000
0002
000e
ffe5
ffb9
ffae
000a
000e
0031
0001
0015
003e
ffdd
fff6
0003
001a
0008
fffc
0021
ffda
003e
ffd1
ffe4
0038
ffd4
ffd9
ffc2
001b
ffff
006f
fff0
ffb9
002e
000a
ffeb
ffd7
ffe3
0002
001d
ff8f
ffb0
003f
001e
0009
001b
ffd7
003b
ffcb
0012
ffcf
ffe5
004e
ffdf
000a
0000
0011
0023
0031
0021
fffb
ffc8
0020
ffc4
ffff
fffb
ffed
fff7
ffe1
002a
000c
ffe3
ffd3
000d
000d
0018
0005
0006
000c
0010
ffcb
0015
003e
ffec
0028
000e
ffee
fff7
0032
0000
ffe3
0027
0003
001e
000c
0002
0037
0023
fffd
0023
0018
000f
0044
fffb
ffff
0006
ffc9
fff5
0023
0014
ffc6
ffcf
000a
000c
ffec
0005
ffe1
005e
ffdc
ffba
0012
001e
ffe1
001a
000d
0004
ffbb
002f
000c
fff3
0003
0018
ffe4
ffce
ffc4
0014
0000
0011
fff9
0008
0038
ffd2
fff8
0012
0027
0005
fff9
0006
ffdc
0032
ffef
ffea
0020
ffce
ffda
ffc7
000b
fff2
0039
ffd6
ffc9
0003
0008
ffe4
ffe0
ffe2
ffed
001b
ffb9
ffc0
0021
0016
fffe
001b
fff3
0019
ffdc
fff8
ffc5
ffed
0034
ffe2
fff6
fffb
0010
0000
ffcd
ffc8
004d
0054
0003
ffbc
ffd3
fffb
0017
0052
0012
0023
004d
0045
ffb6
ffea
ffb0
ffa7
ffeb
ffcf
ffe9
0054
0001
ffc4
ffe1
ffb6
0007
fff1
003d
ffc9
ffca
0022
0054
0012
fff6
ffb9
ffd5
ffc5
001d
ffb6
ffed
ffeb
002c
ffe0
ff96
0042
005a
0031
ff8e
001c
0006
ffec
0086
ffb7
ffdf
0043
ffce
ffa2
ffb8
0024
ffd5
0017
0002
ffb9
fffa
ffe5
ffd9
0009
0005
001a
0027
0003
001d
ffd2
fff7
ffcd
0034
fff8
0025
001c
fff7
fff7
ffe8
0002
000d
fffc
fff2
fff2
ffef
fffe
fffd
ffdc
ffec
0015
ffd4
0020
0038
0017
fff6
0002
001a
0046
ffeb
0030
0011
ffe2
ffe7
fffa
0019
0022
0005
0027
0010
fff6
001f
ffda
0018
0040
ffde
0030
001b
ffec
0003
ffba
002e
0017
fffb
0020
000f
0006
ffce
ffe0
ffff
002a
fffe
ffe0
ffff
0022
ffdc
ffee
ffe6
0004
000a
000a
0024
0002
0017
ffe1
000a
ffe4
0018
0008
001c
000a
ffe4
001e
fff9
0002
0009
ffd2
ffd2
0003
ffff
002b
0005
0003
ffe6
002c
0014
ffda
ffec
0004
0020
0004
ffd3
ffb2
0025
ffff
ffff
0016
ffd3
0003
fff6
ffe7
ffc9
000a
0019
ffe3
fffc
ffc8
0014
0031
0006
0028
fff5
ffeb
0001
0002
001b
0008
ffe0
ffb3
0012
fffa
fff5
ffeb
0022
0009
fffd
0033
fffe
002b
000b
ffe4
ffdd
000b
fff9
0018
0002
ffef
fff3
0016
000f
fff9
fff0
ffef
0004
fffe
0017
000b
0021
fff1
ffed
0022
ffef
0012
0022
ffe1
fffe
001d
0013
ffe9
ffed
fffc
fffd
000a
0020
0009
002b
002d
ffff
000b
0008
0011
0001
0011
003f
fffe
ffc7
ffc2
ffc2
fff5
0025
ffe8
ffe5
ffd2
ffef
000c
ffc4
ffd0
0017
fff7
0011
0021
ffff
002f
ffe1
ffec
ffb3
000b
ffdb
0000
fffb
ffe5
ffef
001f
0001
0022
ffe8
000a
ffff
0024
0005
0012
0009
000c
0010
003c
002b
0001
fff4
fff4
ffed
0029
0010
0016
0003
ffe9
ffc6
002f
fffb
0031
0035
0020
fffe
0049
0005
003f
fff5
ffed
0014
ffd8
0013
fff6
0001
001f
ffde
fffa
003b
000a
0011
fff3
0004
001a
fff6
ffe7
002d
ffef
fff8
ffaa
000d
ffda
0057
0015
0013
fffd
0017
fff7
0002
0012
0014
001b
0003
ffcd
0027
002c
0020
0014
ffa9
002f
002a
ffc7
ffd1
ffec
fff8
0003
ffd7
ff9c
0024
0028
002b
000c
ffe7
0008
ffde
ffb2
ffca
0015
0035
ffb3
0019
ffdc
000c
003b
ffeb
0012
0029
0008
0003
0014
ffeb
0005
ffff
0025
fff5
fff6
fffc
0019
ffe8
0022
000d
fffd
002d
ffcb
0015
000c
002d
000d
002b
0008
000b
0026
fff3
ffde
0034
ffec
0001
ffe6
0023
0000
003a
fff5
ffef
002a
0003
ffd0
ffd4
ffee
001a
001d
ffcf
ffc6
0004
0010
0011
0014
ffee
ffe3
ffdb
fff3
ffc0
ffe4
000f
ffef
fff4
ffc5
001c
0031
0010
0017
0018
ffe4
fff6
0017
fff2
000b
0000
ffed
0013
ffeb
ffdb
0002
fffe
0006
0027
0026
001e
ffe5
000d
ffde
0034
0025
0005
0025
000b
0012
ffe8
000d
003c
ffff
ffe2
ffc6
0026
0013
002b
0002
ffca
0024
0005
fff7
ffd4
fffb
000f
ffdf
ffb0
ffb2
002b
000b
0014
0011
ffc5
0013
fff6
ffba
fff8
0020
0035
ffe0
000e
ffec
0010
0026
000b
000d
ffc2
001e
ffff
000e
0034
0001
ffe6
ffa2
fff1
ffea
002a
ffdb
0043
000a
fff3
0012
ffd4
0013
0003
ffdc
ffe0
ffe9
ffe9
002c
fff9
ffe2
fff5
0041
ffd8
fff6
0020
0005
ffec
0010
ffe5
003d
000b
0025
0018
ffe5
fffd
fffb
0025
fff6
0005
0003
002d
ffd4
000e
ffe0
0017
004c
000c
0026
0032
0030
fff0
ffba
003e
001f
fffe
0026
0007
002f
ffea
0000
ffda
0002
000d
0006
fff8
ffc8
ffe3
ffe6
fffb
ffea
0005
fff0
0009
0024
000e
fffa
ffed
fff3
0009
000b
ffe7
0011
ffea
0004
ffd7
002f
000a
ffda
ffe1
ffd2
fffc
ffec
0004
000f
ffe4
fffd
0012
0003
fff5
0000
fff9
ffea
ffd0
ffd1
0027
fffc
000d
ffff
fff1
0030
fff2
ffe1
0021
001f
0026
ffda
000c
0016
0015
fff3
0017
ffb1
002f
ffe9
ffeb
ffea
ffd5
0009
001a
0027
0029
0019
ffea
000a
ffdc
ffef
0028
ffdc
ffe6
ffeb
ffde
fff7
001a
0001
ffd6
0018
000a
ffec
0023
0000
0002
0045
001b
fffb
000f
0009
ffea
fff0
ffd7
000e
0016
0017
0026
ffe6
ffbf
fff9
fff3
ffe2
fffe
0023
002b
ffff
fffb
0005
ffee
ffe1
fffd
ffe0
fff5
001a
fffc
0039
ffee
ffe4
ffee
0048
000e
ffff
fff2
ffe0
0020
000d
ffd0
ffd2
fffc
0013
0005
ffe8
fffb
001c
ffd1
0033
0019
0030
0005
0027
ffb8
0002
fff3
fff1
0005
fff3
fff1
ffe5
0003
fffd
0011
fffa
0002
ffca
0024
ffe9
004c
ffce
ffc7
0034
0006
fffe
000a
fffe
0015
0065
ffda
ffea
ffe1
fff2
0015
ffe7
0020
0049
0030
0000
ffe8
0059
fffa
0019
000b
ffd7
001a
ffc8
0010
ffad
fff7
0006
ffe5
ffdf
0015
0029
0047
0017
ffa6
0020
000a
fff5
001b
0001
000b
0002
000e
fff2
fffe
001d
fff8
000b
0022
fff5
0032
ffd2
001b
0048
ffd1
0014
0020
0038
001a
ffd0
001e
fff0
ffe8
0033
0018
000b
ffd5
fffc
001a
fffb
0002
002d
ffe1
0018
ffe5
ffda
0014
0003
ffde
0011
ffed
0055
ffe8
000c
ffeb
fffc
0002
ffab
0002
fff0
0002
0024
fffd
0003
003b
0032
0038
fff8
fff5
0031
0006
ffec
ffe0
ffe1
ffe6
ffe2
ffe9
fff9
0007
ffe4
ffe4
ffe6
0003
ffcf
0005
fff1
fff0
0041
000e
0013
0011
0015
000a
0005
ffc4
ffed
0018
fff7
0001
fffb
ffd9
002e
000d
0007
fffb
001c
000e
0007
001d
0015
ffcd
0003
ffe8
ffe1
0012
ffe1
fffb
001b
fff3
ffe7
000f
0009
fffd
0014
ffd3
000d
000e
002c
0005
ffbd
fff8
fff1
0004
0012
0019
0015
0016
fff6
fffd
ffea
ffe3
ffe5
000a
000f
ffe7
0045
0002
0021
ffc9
002d
002d
ffe4
fff9
ffcf
0008
000b
0019
0016
ffd1
003c
001e
ffe6
ffee
ffe6
000e
ffd1
ffbb
ffa3
002f
0005
002d
fff5
000d
004d
ffea
ffe5
0003
0010
002d
ffbe
0016
0004
0014
0019
ffc1
ffe6
0045
003f
fffc
ffd1
ffd1
fff1
000a
005a
000c
0011
0021
003a
ffbb
ffe2
ffbe
ffc0
0005
ffd7
ffe3
0045
0017
ffd1
ffde
ffb3
fffb
ffeb
003d
ffcf
ffd8
000d
0035
fffc
fff8
ffbc
ffd7
ffc4
0015
ffac
ffdd
fffc
0021
fff3
ff95
0037
0047
002a
ffb3
0018
ffef
0003
0057
ffb7
ffdf
0025
ffcd
ffbb
ffca
0026
ffcc
0019
0006
ffae
0036
ffbd
ffbe
ffcc
002e
000e
0016
fff5
0007
001d
0001
0023
ffe5
ffe1
0031
0024
0028
ffe0
ffcc
005d
0021
fff1
ff9c
001f
0046
0010
002c
0010
000e
ffc9
0004
0036
fffb
0074
0002
0051
fffb
0014
0032
0047
fff1
002b
002b
000d
0041
ffe6
0062
0058
fff0
000f
ffed
ffe6
ffd8
ffff
0026
0048
000b
ffed
ffbd
0042
0017
ffca
ffc8
002f
0004
ffce
ffbb
ffec
0041
0039
000a
ffc5
000d
0021
000d
ffef
fffc
fff0
0049
fff8
0010
fff4
ffd2
0014
0030
ffd8
fffa
ffed
001e
fff4
fffa
ffde
0033
0004
ffc4
0012
fff6
0039
fff6
0043
ffdb
001f
0007
001e
000d
ffe4
ffff
0017
0021
0012
003c
0024
001c
fff7
ffd8
0004
fffc
000a
0021
0015
fffa
0021
ffd7
ffd1
0025
fff1
ffe8
0031
fff5
fff0
fffe
0040
0004
ffef
000d
0019
fff6
ffd5
fffd
0004
0037
fffd
001d
000e
ffe0
ffe3
ffd5
0021
fff9
000c
ffdc
ffde
ffe4
0015
fffb
fffd
0008
0007
ffd3
0005
0045
0013
fff0
ffe3
ffd9
0015
001e
fffb
fff3
fffb
0015
fff3
fff7
fffc
0035
003e
ffee
ffe6
0006
ffdb
0049
001c
000e
003a
002b
ffee
ffd0
fff9
001e
0029
fff2
fff1
fffd
fff1
ffe6
ffda
0035
003b
fff8
ffc8
002b
002e
0012
fff4
fff0
0003
0013
ffd5
0013
0017
0007
fff4
0035
ffe6
0035
ffff
0035
ffd4
0001
ffe3
001d
fff4
fff2
0008
ffd2
0013
0005
002f
0002
000e
ffe9
fffa
000a
ffe6
ffd3
0014
0016
001c
0014
ffff
0014
0004
ffd2
0020
ffe0
ffec
0006
ffca
ffcb
0020
0004
ffd7
fffe
ffc0
fffd
001d
fff3
fffb
0017
000c
ffcb
fffa
ffe6
fffa
000a
0006
ffea
fff4
ffeb
0013
ffe9
ffd2
fffb
fff6
000f
ffdd
ffd5
0005
0025
ffea
ffcf
ffe3
ffd9
0002
000a
001d
fff3
ffef
ffe9
ffd0
fff8
ffe8
ffdd
ffe6
ffde
ffde
000b
fffe
000e
fff5
ffb6
fff6
ffed
ffce
0009
0015
fff7
0002
000f
0004
fff2
ffe1
fff7
000f
0022
ffee
fff3
0028
000a
ffd3
ffe4
fff0
0038
fffb
ffea
0011
ffd1
0012
000f
005c
0006
fff4
ffcc
0031
ffd4
ffeb
0015
ffe5
0030
fff0
ffe7
0018
003f
fff7
0007
fffb
ffe1
0033
fff9
ffe9
0023
ffde
ffe0
ffeb
fff1
ffea
fff1
ffbd
ffd2
ffe9
ffed
fffe
0006
0001
ffd5
fff6
ffe2
ffc5
fffc
0009
ffe8
0023
fff4
fff5
ffea
ffbe
ffe1
ffca
0033
000a
ffcf
fffa
ffec
ffc4
ffc4
0039
fff4
003c
ffe9
0016
001d
fff3
ffea
ffce
ffec
ffd7
0030
ffe4
001f
fffa
ffd1
0032
0000
0020
fffe
0010
000c
ffe7
ffc3
ffea
ffd9
ffe0
0000
0034
ffbf
ffe2
0025
ffd5
ffe6
ffba
ffed
000a
0003
ffbe
ffe3
0000
ffe5
fff9
ffe1
000a
000c
0035
0012
ffd4
ffe3
ffef
0033
001b
000f
000c
0044
0015
0011
ffd4
001d
0041
0000
ffd5
000f
ffff
ffb7
ffd3
ffe7
0042
003d
ffe0
ffe9
ffe8
fffb
ffce
ffcd
ffd0
0042
0004
ffed
0031
0007
001c
0003
ffda
ffe5
fff7
ffe8
000d
ffe2
ffe3
fff0
001f
ffd9
0001
ffe9
000b
fff2
001a
0027
002c
ffe2
0012
000b
0011
fff0
0013
0009
001c
ffe3
0017
003c
ffed
fff5
fffe
ffd2
0038
fffa
0032
001f
0017
0020
ffe0
002c
002a
fff5
0012
fff5
fff4
0043
fffb
fff6
001b
ffd3
0013
0023
002b
0018
fffb
ffd9
0029
ffe4
fff7
0028
0000
0021
ffce
000b
ffed
0060
001d
0009
000d
fffe
0018
fff5
fff9
003a
fff9
ffe1
ffc1
0025
fffd
0012
ffdc
ffba
fffd
0004
fff1
ffe5
fff2
ffe2
ffeb
ffcc
ffa0
001a
0020
fffd
001a
ffe1
fff0
fff2
ff9a
ffd8
0003
0033
ffe0
fff3
ffea
000c
0005
ffeb
001b
ffe7
ffdd
fffe
002a
000d
ffe8
0026
001e
fff9
ffe8
fff6
000d
0007
fffd
ffe4
002e
0021
fff0
001d
0009
ffff
0006
0021
ffca
000b
fff0
0004
ffd4
0010
ffe3
ffe6
0003
0008
fffb
0041
0000
fffe
fff3
fff9
ffe9
ffd3
0001
000c
0035
0006
0012
fffb
000d
ffd4
001e
ffff
ffe9
ffe6
0006
ffd8
fffc
0013
fffa
fff6
ffd1
000d
0015
0016
0007
ffa3
0018
fff3
0038
003b
0004
ffe6
ffa9
ffe3
ffd8
0013
ffdf
0061
0014
fffa
0006
ffda
0011
0008
ffcd
ffd4
ffe8
ffef
0034
ffe9
ffee
ffe0
0043
ffd9
ffe2
0003
0002
ffeb
0022
ffee
0041
fff4
003a
001b
ffe5
fff1
000a
0030
ffea
fff3
fff1
0049
ffdb
000d
ffe5
0013
0064
0007
002c
002c
0042
0003
ffa6
0043
001c
fff8
0037
fffa
ffde
ffe3
001c
002a
0025
ffef
ffdb
001c
004b
ffd6
fffb
001c
001d
000b
fff5
000c
ffcc
ffec
ffd7
0022
000d
000a
0007
0044
ffe2
0002
001f
001e
ffdd
fff2
ffe5
fff3
0028
fff6
0033
ffe4
fffa
0003
0035
0007
ffb3
fffb
fff2
0016
0009
0027
ffe2
fff6
0018
ffec
0017
0002
fff2
ffee
fff8
ffac
ffe8
ffea
ffe6
fffc
ffaa
fffc
0023
0031
ffd9
ffa6
ffbb
0041
0005
0009
ffbe
fffb
002c
fff9
001e
ffeb
ffe9
002a
fffa
0015
fff9
ffe0
001c
002b
fff0
ffcb
0006
0057
ffdd
0018
ffeb
0022
ffdd
ffed
0014
ffd6
005b
fffc
005e
ffe8
0014
0031
002c
000c
fffe
001d
001a
0040
0013
0046
0026
ffef
0004
ffe5
0011
ffc6
ffdb
0019
0028
ffd9
001b
ffc0
002f
0005
ffb8
ffe8
0031
003d
ffd9
ffd7
ffc8
fff9
fffb
fff0
ffd3
0027
0048
ffe1
0002
ffdc
ffee
ffdd
ffd5
0038
fff2
fffd
ffdf
fffb
fff7
0016
0022
0025
ffd7
fffb
fffd
000c
0004
0010
001b
ffdc
001e
fffd
0044
fff8
0018
ffc7
0044
0031
fff3
001b
000d
0004
0009
fff2
ffd5
0003
0039
0018
0008
ffa6
0006
ffe6
ffd0
ffde
fff2
0017
000e
ffff
ffd0
fff5
000e
0004
fffa
003a
ffd4
ffc6
ffeb
ffd0
fff6
0006
002b
0017
ffff
ffb9
0022
ffc2
ffed
0018
000a
002d
ffd5
ffe1
0006
0032
001d
ffe4
fff9
0002
0016
0001
fff2
0039
000d
ffd4
ffc4
001b
fff8
0022
ffc7
ffd9
ffee
fff5
001c
0001
ffef
ffbe
fff7
ffc0
ffb7
fff7
0035
0006
001d
ffdc
ffe1
ffe4
ffd1
ffd6
fff3
002d
0022
ffd9
000d
0012
ffdd
0025
ffee
0000
ffd4
ffd9
fff5
000e
0010
fff5
0015
0010
0021
ffc2
0011
0008
0022
0000
fff0
000f
0020
ffe8
0008
ffb4
000d
fffa
0027
000d
0021
fff0
ffd2
0034
0013
fff1
0022
0007
0017
0028
ffd7
0026
0010
ffe5
0042
003c
0003
000e
fff3
fff8
0010
ffee
001a
0007
fff8
ffee
0001
fff6
0046
fffd
ffdc
ffec
0066
ffd5
0019
fff0
ffed
000c
0009
fffe
ffdd
ffd3
0021
000d
fff6
0021
ffe7
0015
ffea
ffd6
fffe
fff3
ffef
0010
0042
0017
0001
fff7
fff2
0010
0020
ffe4
fffe
0000
ffe6
ffef
0003
0028
0016
ffe3
ffcc
0021
fffa
0043
0009
ffda
ffea
ffff
0007
ffcf
fff5
ffe7
fffe
ffd0
fff6
0019
0020
fff9
fffa
ffde
0016
fff7
ffeb
000d
001d
0039
0004
000a
001d
0012
fff1
0029
0033
0007
ffb9
0000
ffd2
000d
ffff
ffd6
ffef
fff8
001b
ffe0
ffc6
ffd7
0014
0026
003f
0014
0026
0022
0001
ffd8
003c
0021
fff7
0028
000e
ffe7
ffe9
003f
0007
ffe2
0005
001a
001c
002e
fffe
0037
0019
ffee
0045
0014
000d
002e
ffe8
fff7
0028
ffe1
0001
0010
000f
ffa4
ffce
001e
0007
000e
0014
fff0
006f
ffee
ffd4
000e
001a
0022
fff4
ffde
fffc
001b
0008
000e
0003
fffd
fff3
fff1
fffd
ffff
000c
0022
001f
000d
ffdd
ffd8
fff0
0012
ffeb
ffe0
ffff
002b
0027
000b
001e
fff8
fff0
001e
fff1
0003
0028
0001
003c
0004
0016
0018
0049
0004
ffdf
0002
fff0
0057
ffe7
0008
ffd9
0014
0001
0017
fff9
fffe
0013
0007
0012
ffdc
000a
ffed
fff2
000c
ffc8
0003
003b
ffd8
0021
0021
0013
ffff
0029
fffd
0002
0011
fff6
000e
ffe4
fff6
0015
0017
fff3
fff8
0020
0017
fff6
0014
fff4
003d
0006
fffd
0004
fff1
000a
fff8
0000
0012
ffe9
fff4
ffcc
000d
ffea
0011
fff9
ffe6
ffdf
ffe6
fff5
ffd4
fffe
fff8
fff4
ffe6
ffe3
0023
fff9
ffdf
0012
ffff
fffb
0010
ffc6
fff9
0018
0024
ffd5
0002
fffb
0013
0011
ffe7
0013
0005
0059
ffdf
0001
000f
001f
ffe3
ffbb
ffee
ffdc
003a
0007
001e
fffd
ffe2
fff5
fff0
ffe2
ffdf
fff6
001e
ffcf
ffb3
0030
ffdf
fff4
fff8
004d
ffcc
ffec
002c
ffc3
ffea
ffd2
ffdb
0013
ffdc
ffed
0016
ffdb
fff7
ffef
ffd0
fff6
ffdc
ffd4
0023
ffda
0021
ffef
004e
0040
fff4
fffb
0025
0015
0014
ff90
0025
004b
000e
fff7
fff1
0047
0009
0035
0006
ffe7
000b
000c
ffca
ffb7
fff4
0010
0021
0002
000e
0001
ffe7
000b
fff8
fff8
fffb
0001
fff0
fffb
fff0
0015
0003
000c
ffec
001e
000d
ffc4
0001
ffd5
fffb
ffe1
ffef
fff2
0034
ffda
ffea
fff5
ffed
ffed
0019
ffd1
0001
ffec
0005
ffde
fff3
fffd
002e
ffed
0026
0002
0004
0033
ffee
fffa
0000
fffb
001c
0002
ffff
0039
ffd6
ffee
001b
001b
002e
fffc
ffef
ffb6
000c
fff7
0006
ffd9
0036
000e
fffd
004f
fff3
0032
0026
ffe2
ffe9
0016
000f
fff9
0000
ffdb
ffef
001d
fff8
fffb
fff2
0004
000a
fffe
001b
0037
001f
fffb
ffed
000f
ffd4
0020
003b
fffe
0005
0040
001c
ffe2
ffeb
fff9
ffed
0019
0022
0004
0035
0049
0003
ffeb
0022
0002
fffd
001f
fff4
001d
ffe6
fff0
ffaa
0042
0024
fffc
fff2
fffd
ffd3
ffc0
ffb7
0001
0014
002f
0006
0015
0034
ffdb
fffd
0001
000e
000a
fffb
0024
ffdd
003a
ffd4
ffee
0031
ffce
ffdb
ffce
000d
0005
005a
fff9
ffca
0031
0009
ffe1
ffd2
ffde
0014
001c
ff9e
ffb0
0040
0011
0007
0019
ffd7
0037
ffd5
0015
ffd4
fffb
0045
ffd9
000c
fffa
0014
002e
ffce
0036
0030
0032
fff3
ffe1
ffe0
fff8
ffda
0006
ffe1
fff9
0026
fff2
ffc5
0001
ffef
0013
001a
ffe0
000a
0031
002f
0003
ffff
ffe6
0002
0005
0001
000a
0002
ffdd
0010
ffd2
000d
ffbf
fffd
ffef
0004
ffe9
fff7
ffef
fff6
fff2
ffea
0019
ffeb
fff8
ffe8
ffed
0009
000d
0001
ffdd
fff9
fff4
fff0
fff1
0005
0002
fff1
0001
001f
fff8
fff9
ffc4
0016
0026
0026
ffe8
ffe3
001e
0035
002a
0007
0029
0039
001e
ffea
0012
fffc
ffb9
ffd4
0011
0004
0029
ffe0
fffe
0025
ffdf
002b
000f
000f
ffbe
fff7
002a
0042
0047
0000
0005
fff5
fff5
001a
0020
ffed
fff6
0020
ffe9
0006
fff6
005c
003c
ffb1
001c
0007
ffd8
003a
ffde
fff6
002f
fff7
ffb8
ffc9
002c
fffb
ffda
ffe3
fffe
007a
ff91
ffd9
ff13
ffec
ffdd
001e
ffff
0035
005a
0039
003d
ff79
ffc1
ffd1
0068
0023
0029
001e
006f
000f
0023
ff3a
0062
0038
ffe2
0051
fffd
fff3
ff53
0057
00b8
0013
00a8
0036
0061
009e
0001
003a
0069
ffe2
00a8
0070
0015
002e
003e
0028
00d8
ff9f
005d
0028
ffee
ff69
ffda
ffd0
00ae
0014
ff73
ffd6
010f
ffde
fff5
ffc4
fff3
002d
0008
ffe1
ffbc
002b
ffd7
0010
ffef
0007
ffe5
001d
002b
0005
000d
fff8
000e
ffeb
0022
fff6
0008
0015
fff6
ffcc
000f
002b
ffef
0027
ffd8
ffeb
ffeb
0016
001d
fff2
0029
0005
002e
0022
0015
0039
fffc
fff2
0013
fffd
0019
003d
0007
0016
0021
ffe0
0009
000a
000a
ffe3
ffd8
0007
0015
ffe5
0021
ffe2
0038
fff0
ffd0
0001
0020
ffec
fff3
fffd
ffec
ffda
0020
fffa
ffdc
0020
0055
ffe2
ffd5
ffeb
fffe
ffe4
0004
fff5
fff8
002f
ffc4
ffff
001c
0029
0000
fff7
ffdc
ffdf
ffff
0013
ffd8
fffd
ffff
fff3
0001
0017
fff2
0023
fff2
ffd4
fffa
000c
fff7
fffc
ffe0
ffd7
0047
ffdb
ffec
fff5
0026
fff6
0018
ffd7
fffc
ffca
0008
ffbc
ffcd
0023
000b
fff7
ffef
fffe
fff7
ffbc
0008
0037
0037
fff3
0019
fffb
0008
000e
0001
0014
ffde
002a
0022
fff3
0001
ffd2
0007
000d
ffe5
0004
001f
0031
ffe9
ffe6
ffe7
ffef
fff4
0001
fffe
fff2
ffef
0025
ffca
0007
ffc5
000f
fffa
ffdf
ffca
fff0
ffd8
ffd5
ffe2
ffd2
002b
fffd
ffff
fffd
fffd
fffd
0000
004d
fffb
ffe8
fff3
fffd
ffe3
001f
ffc6
0005
0016
0013
ffe7
fffd
0019
0008
ffeb
fffb
0019
0015
002d
ffef
ffe6
000c
fff9
ffec
ffd4
0015
0027
001a
002a
000d
002e
0001
fffb
0001
0007
ffeb
0014
ffef
fffc
ffe7
000f
000f
001c
0013
fff5
0002
ffee
001b
001b
ffed
000b
fff6
0026
ffff
000d
0009
ffed
ffde
0023
0021
ffe6
000d
0003
ffda
0028
0003
ffe6
0048
ffed
001b
fffb
0017
0022
ffd9
fff0
0040
002b
ffdb
ffc5
0010
ffd1
0027
0012
ffdd
ffba
ffef
0016
000e
ffbc
0004
0029
0005
0035
fff4
002a
0017
fff8
ffa8
0027
0027
0008
0027
fff7
ffd2
fffc
001b
0016
0008
0025
0006
001f
0027
0038
0040
0035
0000
0025
000d
0019
005c
ffed
0002
003f
ffe5
fff1
0021
ffec
ffcb
fffb
0012
003a
002c
0016
ffd5
004f
000d
ffdb
0008
0028
0026
0005
ffd5
ffa6
ffe7
0012
0016
ffe6
0020
0011
fff2
0009
ffcc
ffd3
0002
001a
0025
0041
0008
0041
0023
000f
ffd3
0040
0030
ffd9
0015
000a
ffe6
ffc1
002c
002b
fff3
0024
0007
0027
004c
0022
0009
003f
ffef
0031
fffc
0003
002e
000b
000b
005b
fffd
0034
fff0
fffd
ff94
0009
0002
0015
0022
fff5
0011
0057
0005
ffd2
fff0
0006
fff6
fffe
fff1
000c
0011
0035
0008
0030
0040
fffb
fff3
0005
0016
0003
0003
000f
0027
ffff
0000
0027
0017
fff7
001e
0013
0022
0008
fffc
0020
ffdd
fffa
000e
fff8
000e
0009
fff6
0007
0008
001c
ffd0
001a
fffc
fff4
ffe9
fffb
0020
ffdc
fff3
0004
0019
0001
0002
ffeb
fff4
003b
0000
ffbd
0025
ffee
0039
ffcf
0008
ffdc
ffdc
0005
ffe1
0012
0002
0005
0025
0004
fffc
0002
fff4
ffed
0013
0019
0008
0004
001a
000e
ffee
001a
ffea
000e
0029
0004
ffec
0015
0028
fffb
0023
0000
0007
ffe5
000d
0003
0007
0009
001b
fffd
0014
ffed
003f
ffed
ffce
0011
ffea
fff2
001d
ffe1
0037
0020
fff4
fffe
ffd4
ffff
001e
ffcf
0031
0015
fff6
001f
ffda
001c
0002
ffdb
ffff
0019
0025
ffbd
ffdc
0006
004c
ffff
fffe
0005
001b
001b
0002
002f
0022
fffa
0023
001e
000f
ffc1
ffba
0036
0029
0009
ffb2
0004
0054
fff5
0028
0011
0013
ffc1
fffa
0021
002b
007b
fffa
0041
ffe9
000e
0041
0042
ffef
0000
0028
000a
0049
ffea
006d
0047
ffd5
0007
fffc
ffe1
000c
fff1
0016
0036
fff1
ffe5
ffbb
002b
000c
ffb4
ffd9
002e
0015
0016
000a
fff3
ffff
ffc1
ffed
ffe3
fff6
fff5
fffa
001a
002c
ffd7
ffd7
ffdc
fff6
000d
ffec
ffdd
0006
0012
001d
000c
ffff
ffca
0018
ffc9
001a
001a
ffd8
0013
0014
ffec
0000
fffa
fff4
000e
0019
fff3
000b
0001
000f
0003
ffe7
0011
000b
0022
ffd2
0007
001a
fff4
ffec
ffd1
0001
fff6
0001
0009
ffee
001b
000e
0003
0020
0001
0006
ffeb
fffb
fff3
0018
0029
ffe9
ffeb
ffe8
001e
000c
ffee
ffd4
ffef
0025
fffe
0034
fff4
fff5
0002
001b
ffd4
002c
0007
000b
0039
fffa
000b
0027
0007
fffe
fffb
ffd4
000a
0005
002c
ffd5
fff9
fff8
0018
0005
0004
fffc
0012
0010
ffdf
fff9
ffc6
0037
ffe3
ffef
0020
ffdf
fff8
0021
ffde
fff7
0023
fffc
ffef
000d
0002
fff2
0031
001e
fff4
ffad
0000
ffed
0034
004f
000e
ffef
ffb3
fff8
ffe6
fffa
ffda
0066
0040
fff3
0003
ffd1
0045
0006
ffe6
ff96
fff3
fff7
004c
fffa
fffd
ffd7
fffa
fff1
000d
001e
0030
fff8
002a
0020
003b
0011
004c
fff7
0014
0007
fffd
003f
ffee
000c
0038
002a
fff0
000b
ffd7
0009
0064
0004
006d
003d
0005
ffed
fff9
0044
0026
ffe4
0026
0057
ffb8
ffcc
ff5f
fffc
fff0
0020
0006
0025
0034
001a
0027
ffb5
ffce
fff8
0050
0017
0020
0008
0057
0010
0013
ff69
003d
0030
ffed
0037
fffd
ffee
ff8d
0039
007e
0015
0082
001e
0050
006f
0013
0029
005e
fff5
0070
0049
0014
0037
002b
001e
00a2
ffc3
0034
001f
ffef
ff92
fff6
ffe8
0083
001b
ffa4
ffe1
00b1
fff8
ffed
ffce
0007
004e
ffa4
0006
ff5a
ffe7
ffeb
ffff
000d
003e
006e
0032
0023
ff95
fff0
ffbb
0047
001e
000b
002d
0027
0004
0026
ff9c
0046
0029
ffe1
0035
0010
0003
ff6c
0055
008a
000c
0064
0030
0037
007d
ffe4
000a
0047
ffe8
0069
004a
0005
0008
0034
0004
0070
ffb6
0056
0025
0000
ff95
ffd0
ffc9
005a
ffe9
ff81
fff2
00bc
ffd4
ffef
ffe0
ffeb
ffd4
fffe
0008
0057
0004
0021
fffd
0014
0011
0014
ffdf
ffdb
0039
001c
0010
000d
0002
ffd2
fff5
ffe3
000a
001d
0019
ffdd
000d
0001
fff3
002b
ffef
fff4
fff6
ffd1
001f
fff7
ffe4
fff1
fff6
0013
ffd9
001e
000a
ffb8
ffed
ffe0
0002
fffc
000a
ffe0
0008
fff5
fffc
fffa
0032
001e
fff2
fff8
ffdf
ffe8
0018
ffb3
0016
ffe7
0004
0007
fff1
0017
ffe1
0027
ffdf
0015
0020
0004
ffe1
ffbd
ffeb
ffd3
0018
ffec
0030
0000
ffef
000c
fffa
fff9
fff0
ffe7
0013
ffe3
ffc4
002b
ffdc
ffef
fff2
004f
ffd6
ffe8
0011
ffd4
fff2
ffe7
ffe8
0029
ffd8
ffff
0017
ffe6
ffe6
fffd
fff3
fffa
ffd5
ffd9
003b
ffdf
000f
fff2
0022
0045
fffb
ffff
002f
0024
001a
ffa6
0038
003f
0008
0005
ffd6
fffd
0012
0012
0009
0010
ffef
fffc
003b
001a
000f
fffd
0020
000a
ffe8
ffcf
ffed
0011
0002
0003
000e
001a
0013
0002
0000
ffb5
0001
ffdd
000d
fff4
fff7
0015
0014
fff7
0004
ffe1
fffd
0000
fff4
ffbc
ffef
fff7
ffe3
0000
ffd5
0017
0028
0036
ffe0
000e
ffd7
0002
001a
ffeb
0006
ffe9
0008
fff9
000e
ffff
fff1
ffff
fff5
ffd4
000b
fffe
ffaf
0019
0033
0034
0028
fff5
0006
ffbd
fff8
ffe7
0032
ffef
005f
ffed
0001
000b
ffc9
0010
0022
ffc3
0008
ffe7
000f
0012
fffc
ffd4
ffff
0041
ffc8
ffea
fffb
0018
ffeb
0032
ffd8
004f
fff3
0025
0029
ffc4
ffdb
0012
0047
ffe8
0018
fff5
0039
ffd7
fff5
fff3
000e
0033
001a
ffec
0018
0050
0005
ff8a
003d
fff1
fffd
0047
ffd0
fff2
0078
000e
ffd3
fff9
ffa9
0002
0027
0070
001c
0001
ffcb
0053
ff91
ffdd
0005
ffdf
0047
ffa3
ffe0
0026
007a
0002
ffe7
ffdc
fff1
001d
001a
ffda
0030
fff8
ffdf
ffab
001a
ffc8
0008
ffa1
ffbf
ffb7
fff9
fff4
ffef
ffe9
ff8b
0015
ffc2
ff92
ffeb
0036
fffb
002d
0007
ffc1
ffd3
ff9d
ffaa
ffca
0039
0004
ffb9
0001
0012
ffbe
0005
fffc
ffd5
0033
0011
fff4
0017
0003
ffef
ffd7
ffd9
fffd
0055
ffe9
001a
fff1
ffeb
ffe1
ffdb
fff4
fff3
fffa
ffe6
ffd4
ffee
fff8
fff0
ffea
fffd
0036
ffb9
ffec
0024
001e
ffd3
fffe
ffca
002b
0007
0006
001c
ffe4
0016
0002
000f
0001
001c
0012
fff6
ffde
001e
ffe1
002f
0020
fff6
0021
0019
0008
ffe9
ffc6
0025
0012
000a
0008
fff9
fff4
fff8
fffb
001e
001d
000a
000c
0013
000b
0016
fff0
fffa
ffff
001a
0003
fff7
fffc
0008
002f
fff6
fffc
fffe
ffeb
fff8
0002
fff5
fff2
fff9
fff5
ffee
0007
0003
0029
fff0
fffc
fff7
000f
fff3
ffe9
fff7
001a
0000
0012
0007
0006
0013
002b
000a
fff2
ffed
fffe
0007
0010
0012
fff9
0015
fff9
000f
ffea
ffff
0019
ffec
fff8
ffeb
ffef
ffed
0038
002c
0008
0013
0002
fff4
ffdf
0019
000a
001d
000d
0033
0002
ffd8
ffea
ffcd
0016
0008
fff2
ffe0
ffe3
fffc
000f
0000
ffec
001d
0011
ffdd
fffb
0014
0023
ffe8
0006
ffd3
0011
0028
ffe1
fff0
fffb
0004
0006
0012
ffef
004c
0026
0003
ffe0
ffe3
ffef
003c
ffff
0024
001c
001f
0022
ffd1
ffdf
0018
001e
fff5
fffb
ffd6
004b
fff3
0036
fff4
fff9
0010
ffea
ffd5
ffd4
ffcc
ffe6
002a
ffec
0008
ffef
ffe7
0029
000d
0004
0007
0010
0012
fff3
ffe9
ffef
ffeb
0003
0006
002b
ffe6
ffca
fffc
ffd2
fffc
ffc8
ffec
0005
0012
ffdc
fff1
ffe9
ffef
fff6
fffb
fffe
0002
0009
0008
ffd6
ffe8
0001
0014
0005
0016
000b
0019
001f
0005
ffec
0011
000c
001e
fff3
0031
0011
0014
ff96
fff4
ffb2
000c
000c
ffef
0009
0012
0037
ffca
ffc6
ffbe
0032
0006
0042
0026
004b
0001
0034
ff91
003e
0016
ffdc
0025
fff5
fff8
ffb8
0038
004d
0009
0031
0019
fffa
004c
ffe8
004d
fffc
ffd4
0077
0038
0014
000f
0010
0014
0094
ffad
0018
000c
fff5
ffb0
ffc7
000b
005d
002f
ffcb
ffdb
00c0
ffdb
0004
fff6
ffdf
ffea
0021
0044
0011
ffe5
ffde
fff3
001d
ffde
fff7
0003
0014
ffed
0026
ffd8
0020
ffef
fffa
0026
ffef
ffee
001c
ffff
000b
0001
0012
000f
0022
ffe9
ffd7
003f
ffee
fffb
ffd6
0017
ffe1
0030
ffd6
001a
ffed
ffea
0011
fffe
ffe5
fff2
fff1
ffe2
ffdc
ffe6
000f
000c
0007
0021
ffdf
ffff
000f
ffdf
ffec
0002
002b
ffd3
fff2
0023
fff9
ffbb
0033
0013
0019
ffcb
0014
0005
ffe1
ffea
0031
ffd9
ffd5
0007
0008
ffe1
0005
ffcb
0018
0029
fffa
0002
004b
ffff
fff4
ffe6
ffca
ffd3
000b
0008
ffe8
ffe7
ffcf
0013
ffe4
fff4
ffae
001c
ffd0
0003
ffd2
ffe2
fffe
fff8
ffd9
ffc9
0041
fffe
0032
ffe8
0005
ffd8
000e
001e
fff1
ffeb
0028
fff9
ffcf
0011
001b
fff8
0014
0012
ffc5
002e
0008
fffe
ffe3
ffe7
ffce
ffed
0013
ffff
000f
ffe3
0019
0009
0000
ffd2
000b
001b
ffec
000f
ffd3
ffe6
0007
ffee
0019
0017
fffe
0019
001d
ffd9
000e
003b
ffef
ffe3
fff4
0005
0020
000a
fffb
fff7
0025
000e
fffd
0011
fff6
0014
ffea
ffd9
ffc4
ffe6
001f
0025
fffb
ffd5
ffed
ffe6
ffe7
ffdb
fff7
0007
001e
ffe8
ffcd
001c
0001
fff1
fff4
fffb
0057
000a
ffeb
0003
0010
ffec
ffbd
fffb
fffd
0037
000d
0026
ffff
ffef
ffd4
ffca
ffec
fffe
fff6
0008
ffdd
ffda
002c
ffff
fff3
0011
0024
ffdb
fff1
0022
fff3
fff2
fffa
ffbe
0008
000d
fffd
0008
ffd8
fffd
ffef
ffed
ffdf
001a
ffde
0018
fff4
0006
ffe4
0055
001b
0010
000c
000b
001d
ffd4
ffba
0026
0024
000a
000e
fffb
0013
0005
fff0
ffe6
fffd
0008
ffef
fff4
ffde
0008
fff6
fff6
ffe6
0002
ffea
fff4
001f
0008
0002
fff6
fff8
0002
000a
ffdd
fff9
fff7
ffe2
000a
001f
ffee
0006
fffc
ffe1
0008
ffed
000e
0006
0002
ffe0
0002
0014
fff8
0001
ffe2
000c
fff1
0012
0006
fff8
0002
fffb
fff7
fffd
0003
0004
001b
001a
0000
0011
000e
002d
000f
ffee
ffff
ffcc
0044
fff2
ffce
0006
ffda
0025
0027
0032
0031
0014
ffaa
0052
ffdf
0011
000d
ffd4
0008
fffd
ffe5
000e
000c
001b
ffff
001d
000c
0035
fff4
ffbf
004a
001b
ffe9
fff8
0022
0011
002f
ffb3
ffee
000c
ffe2
0020
0027
ffed
ffd9
ffe6
ffed
ffe1
fff8
003f
fffe
0007
000d
fff5
ffe0
fffc
ffe0
ffc6
0018
0033
ffd0
0006
ffea
ffe5
0001
ffd8
0020
fff9
ffd7
0014
ffeb
0001
0017
0031
0012
fff8
ffc5
003d
ffed
000b
0007
ffd5
0015
ffc3
ffe6
ffff
001d
0002
fff4
001c
fffb
0023
fffc
ffd2
0032
0007
ffe9
ffe0
001a
000f
002b
ffd1
ffdb
0019
fffa
fff3
0007
ffea
ffdd
0007
ffcb
ffad
000f
0030
0017
000f
0001
fffd
ffd5
fff8
ffb3
ffe2
0021
0005
ffdf
fff3
0009
0006
0007
0001
ffb0
ffe1
0019
003a
0031
ffef
fff9
0014
ffd7
ffd8
0007
ffcf
0028
0014
0007
0009
fffd
002e
0021
ffeb
ffdb
ffdc
0024
ffef
ffdc
fff6
fffa
001b
ffc3
ffeb
0004
0034
ffe0
0016
ffeb
0031
fff9
0028
001c
ffef
fffa
001b
0036
002b
ffff
001b
001f
ffd8
fffb
0004
ffd6
0032
fffd
0013
0019
fffd
0003
ffcf
001e
fff1
ffe8
0012
ffe5
0034
0009
0001
0028
ffe9
fff9
fff3
ffe8
fff6
0001
0016
0007
fffa
0000
ffd7
fff3
002c
0011
002c
000e
0005
000e
0002
0007
ffd7
fff6
ffe8
0022
0010
ffea
ffdd
ffdd
0001
fff5
ffe6
ffd2
fff3
0033
ffab
ffe2
0011
fffc
001b
0001
fff2
0024
002c
fff5
ffdb
ffc0
000e
0002
ffd4
003a
ffda
0015
0046
fff5
0012
ffeb
fffa
0009
ffe5
ffc3
0001
0079
0017
ffde
fff1
ffb0
0005
001e
0068
0018
0006
ffde
004b
ff97
ffd9
fffc
ffde
0043
ffb7
ffe1
003e
006b
fffb
ffe3
ffd0
ffe9
0020
0013
ffd8
0023
fff3
ffea
ffbb
0010
ffb5
0003
ffa0
ffcc
ffa8
ffea
0005
fffb
ffed
ff8f
0016
ffd5
ffbe
ffde
002e
fff5
0027
0010
ffb4
ffd8
ffa9
ffbb
ffc4
0031
0012
ffb3
0006
0013
ffa8
0020
ffe3
ffc2
fffc
ffcc
0008
0021
ffd2
0017
0000
ffd1
fff6
001b
ffd9
000d
fff0
fffd
fffb
ffdf
fffe
fff1
0010
ffdd
0000
fff7
ffec
ffff
fffa
0000
fffb
ffdd
0018
0014
0021
ffea
0019
ffef
0025
ffeb
0035
0024
ffef
002c
ffdf
ffeb
0016
001c
0021
0000
0020
0007
ffd3
fff5
0027
ffe1
0039
0003
ffe1
0002
0007
002a
000c
ffef
fffe
ffe4
ffda
0047
0036
0029
ffd8
ffdd
0026
0024
002b
0021
0025
0036
0026
ffd2
000c
ffe7
ffbf
ffe5
fffc
ffff
002d
0005
fff4
0010
ffe7
0025
000d
0017
ffc9
0000
001a
0041
0028
0004
ffe1
ffec
ffe2
001c
ffeb
ffe5
fff9
001b
fff7
ffe7
000a
0048
0029
ffb1
0016
0001
ffea
0047
ffd2
fff4
0011
ffef
ffbe
ffd6
0015
ffed
fff4
ffed
ffdf
0026
ffa9
ffe0
ffe5
0008
fffb
000b
ffdf
0008
fff8
002d
0023
ffe6
000b
0039
0003
fffe
ffcc
ffc3
0000
ffff
ffd9
ffd3
fff2
fff6
0031
0010
ffe4
0030
fff3
ffed
0045
0005
0033
fffe
0045
fff3
0001
0018
0014
001a
000a
0026
0000
0001
0000
001e
fff9
0013
000c
0009
fff3
001a
000d
001c
0037
ffe4
001a
ffc8
0013
0018
0025
fff3
0025
000a
0007
ffe9
ffef
0002
fff2
fff5
ffec
fff7
0052
ffbc
000e
000e
ffda
ffd4
ffef
0014
fff4
0020
0011
fff1
0029
ffec
fff9
001d
ffc8
ffdd
000b
0002
fff8
ffdc
ffdf
0000
002e
ffc3
fffe
ffcb
fff2
fff9
0001
000e
000e
0028
0011
fff7
002b
0014
002f
ffd7
fff4
fffb
0000
ffd0
fff7
fff3
0000
000c
ffcc
fff6
0027
ffe1
fffb
fffb
ffca
ffe2
000c
0038
fff3
ffe1
ffd7
fffd
0015
ffe8
0032
fff8
0015
ffda
ffff
ffc8
0026
ffe1
0004
002f
0028
ffee
004b
ffc0
000c
0000
ffec
0002
002b
fff3
ffb6
001e
ffff
0013
0015
fffc
ffc5
002d
ffbe
003b
ffdc
ffca
0048
002d
fff7
ffe6
0013
0015
0054
ffc2
0009
fff3
ffff
0004
ffd9
fff4
0051
000e
ffae
ffeb
007f
ffcc
001b
fffa
ffc0
0031
000a
ffa1
0002
0034
0006
003f
0003
ffdf
ff8f
ffeb
fffd
002e
ffcd
005b
000e
0004
0013
ffbc
0038
001f
ffc4
ffb5
0006
001a
0033
0019
ffe3
fff6
0034
ffdf
ffff
000f
0035
ffec
003a
ffe2
0050
002f
0037
0016
ffee
0000
0012
005e
ffd6
002a
0023
0025
ffce
0005
ffdc
fffd
0038
002b
002c
003a
004f
ffcf
ffda
003a
fff2
fff8
004b
0018
fffe
ffe7
002b
0021
0001
001b
001a
fff8
ffc9
0007
0016
0024
0007
0030
0015
fffd
ffd8
ffc1
0017
000e
ffe6
ffd4
fff7
001c
0036
0018
000d
ffea
0009
0008
fff5
000d
0022
fff8
0023
fff3
001f
0022
002f
fffe
ffe3
0001
fff5
0038
ffc7
0022
fff8
0001
fff8
0008
ffdb
0029
0017
001a
0014
0007
0024
ffd9
fff7
001d
ffed
fffb
0030
002a
0012
ffd0
ffda
000d
ffe6
0026
000d
ffe2
ffd0
fff4
0013
000e
ffd9
0012
001b
fff8
0013
ffe9
0024
fffe
fffe
ffa1
0006
0019
000d
0015
ffff
ffe2
fffc
000e
000a
0008
0038
fff7
0021
000c
001d
003c
0028
fffb
001f
0020
000e
0045
fff7
0013
0026
fff0
fff2
0014
fff0
ffe9
0008
0004
0055
000b
0007
ffde
003e
0004
ffe9
0003
0016
0012
ffe9
001a
000c
ffe6
fff4
0008
0026
0002
ffd7
0025
000d
0007
0007
0001
0015
000e
fffc
ffee
fffb
fff4
fff3
fff7
000c
ffdb
002e
0018
fffe
fff3
000f
0014
0032
002a
ffe9
0013
0005
001b
000a
fff6
002b
0003
0010
0006
ffe4
fffd
ffe7
ffe4
fff1
0009
000a
0026
ffe9
0012
0025
fffc
000e
000c
fffc
fffc
fffa
001b
0030
0002
000b
0038
ff94
ffcd
ffc6
0007
002d
0012
fffb
0045
0054
0019
0003
ffd8
0016
001a
001d
0026
ffc0
ffdb
0018
ffff
ffef
ffcd
0004
0031
0013
000f
0016
0002
ffc0
000f
003b
fffa
006f
ffff
0065
001b
0013
ffdd
005e
001e
fffd
0029
0006
002f
0011
0016
000c
0008
0022
000d
fff7
ffe0
0027
ffea
002a
ffe0
ffc7
fff9
0020
fffc
ffd8
ffcb
0026
ffe0
ffd8
003e
002d
ffeb
ffb4
ffde
fffb
0014
0043
0007
0023
0029
0025
ffb2
ffec
ffc1
ffbd
fffa
ffef
ffd5
004e
ffe4
ffdd
ffd3
ffb8
0003
fffb
002f
ffc8
ffde
001e
0041
001a
fff2
ffb9
ffe0
ffc1
0028
ffc0
ffe7
0017
003f
ffe3
ff9f
0036
0050
0049
ff98
001a
0007
ffe9
0050
ffbf
ffe4
0045
fff3
ffa7
ffc9
0055
ffd4
0025
fffb
ffa6
fff6
0000
ffbf
003a
0024
0014
0026
fff1
ffda
ffb9
fff4
ffe6
0038
ffe4
0058
ffee
ffea
fffb
ffbe
000b
0015
ffd3
fffb
ffd4
ffe5
001e
fff7
ffd9
001c
0049
ffa7
ffee
0011
000a
ffe6
0010
ffba
0035
0008
fffd
0013
ffcf
fff5
0007
001c
fff1
0024
0004
002b
ffc2
ffec
fff2
003b
0028
002c
0015
0021
0045
ffe0
ffa4
003b
0021
fffd
002c
0005
ffea
0004
fff8
0027
fff2
0016
ffff
0014
0000
0029
0008
0017
0013
fffa
0002
ffcf
fff6
fff3
ffff
0009
0001
ffe1
fff6
fffb
ffe7
000e
ffd4
0008
fff0
ffea
0029
001e
001a
000e
0002
0016
001c
0017
ffea
fffd
fffc
0002
0014
001b
002a
0016
0042
ffdf
ffff
0008
fffd
001a
fff0
fff3
002a
fffe
fff6
ffe4
0007
0002
0005
0003
0003
001f
ffd3
ffff
ffe5
ffca
0017
0002
0016
002f
0003
fffc
ffe5
fff8
0008
fff0
0023
0025
ffed
0003
ffe5
ffee
fffb
0006
000e
fff9
000c
000b
001a
ffc4
fff6
002f
0017
0011
ffff
0007
0018
003a
001b
ffbd
0048
0027
ffe6
fffe
ffe4
0001
0001
ffc2
ffe1
0005
0032
003a
ffee
ffe7
0038
ffc8
0004
fff4
ffcb
0034
ffee
0008
fff0
fffa
000f
ffed
fffd
0001
000f
ffe2
0033
0000
ffff
0006
0024
ffe4
ffde
ffd6
0030
000c
0022
000a
ffcf
0023
ffba
0008
fff9
002a
0007
0011
0023
ffea
003f
ffef
ffe5
002b
ffc6
ffe4
ffe7
0008
0019
0022
ffe8
ffce
0031
000c
ffba
ffe0
ffe9
000b
0008
ffc2
ff8a
0031
0013
0012
001b
fffd
0015
ffdb
ffeb
ffb3
ffe9
0029
ffc0
ffff
ffd3
000c
002a
0035
fff8
ffc1
ffac
ffc5
0013
002d
fff6
0003
ffe7
fff9
ffec
ffbf
ffd3
001e
0025
0014
0036
0007
0029
fff9
fff9
ffb3
0017
fff5
001c
0004
0000
ffd7
fff6
001f
0030
fff7
0016
0013
0029
0051
001e
fffd
0042
0009
003a
0017
0001
0015
000c
ffd5
0032
001c
0017
000c
fff1
ffb6
003a
ffe8
004f
0027
fff8
0015
0040
0014
001e
ffef
000c
0005
ffd9
0026
0007
ffeb
ffe1
000b
0029
000d
001e
001a
001d
fffe
0026
ffda
0039
ffd7
ffdb
fffe
0001
ffeb
0030
ffb1
0002
0003
000b
0012
0019
ffea
ffb3
0025
0028
003e
0027
000d
ffee
0040
ffda
0022
001a
ffe7
0020
0023
ffe5
fffa
0021
001c
0036
ffc7
001b
0028
ffe3
0033
ffee
ffd7
006b
ffe9
ff99
ffd7
0054
ffda
0005
0002
fff7
0038
ffca
ffdb
ff86
ffed
0003
001e
0007
001a
0028
0016
0018
ffb4
ffe3
fffa
0046
0008
001b
0014
0044
000c
0015
ff8b
002f
001c
fffb
0028
0006
ffeb
ffa0
0036
005f
000d
0057
001d
0038
0065
0009
0021
0045
ffe9
0059
0037
0008
0029
0019
0014
0080
ffdb
002c
0011
fff3
ffb4
fffe
ffe5
006b
0013
ffb5
ffe4
008e
fff5
fff8
ffd8
ffff
0017
000c
0000
0024
ffff
ffc6
fff9
0013
ffd2
ffce
ffed
001e
0010
fff6
0003
fff8
0014
ffe5
ffea
0004
ffe4
ffed
ffee
ffff
ffe4
003d
0004
0018
ffff
002d
fffe
fff8
0005
fffb
fff2
fffd
ffc3
0001
001b
0010
000e
000f
0028
0007
0006
ffd0
fff7
ffde
0006
fff0
0019
fff2
0014
0015
0010
0004
0015
001a
ffe3
0007
0003
0018
0007
ffff
ffe1
001d
ffce
fffd
ffe7
0022
003e
fff5
ffeb
fff5
ffe6
ffe4
0000
ffdb
0027
0029
ffdf
002a
0004
0052
0008
0027
ffa8
fff2
fff2
ffeb
ffe1
0000
ffe4
ffe1
ffd5
fff4
0027
0032
ffe7
ffd9
0030
0013
0021
fff7
ffd8
002a
0014
fffe
000f
0023
0025
0087
ffff
ffe6
ffd2
ffea
0014
0026
0008
0071
0041
ffda
fffe
0029
000d
0024
ffe5
ffd8
ffd1
ffe8
000b
003f
000f
fffa
ffe1
ffe7
0028
0021
0001
fff5
0047
001f
ffe8
ffcc
ffdb
ffd0
ffe9
ffc1
0007
0013
003a
ffd5
fff8
ffb9
fff5
ffd2
0038
0011
ffb2
fff6
0020
fff7
ffeb
ffe1
ffc5
0002
ffea
ffcb
000c
ffc0
fff5
fff3
ffc8
0036
002b
fffa
ffdf
0005
fffa
fffe
0048
ffe2
ffef
ffe9
ffdb
fffb
fff3
ffc0
0006
fff8
000c
ffeb
fffe
ffe2
0016
fff9
fff2
002c
ffef
fffb
003f
001a
001d
fff6
ffe6
0026
fff3
ffd8
000b
0000
0004
ffdd
ffff
ffeb
0047
0005
fff8
ffef
fffd
fff9
fffe
fffa
0019
0009
ffe3
ffd6
000d
000c
000f
fffc
ffbb
fff8
0011
ffe9
ffde
fff8
ffe0
0002
ffe4
ffbf
001d
0022
fffb
000c
fffb
000e
ffee
ffb6
ffde
000d
0034
ffca
fffc
ffea
0005
0005
000c
fff2
ffe0
ffd9
ffcb
004c
001a
ffe8
001a
0021
ffec
ffc1
ffc8
ffea
0015
0018
0012
0000
002a
ffe8
fff8
ffec
0016
0001
0008
0012
ffe0
0024
ffee
ffff
0006
ffef
ffe0
fff4
fffe
001f
0032
000f
ffaf
003c
0021
fff2
ffe9
0004
000d
0028
ffb9
ffc8
0030
0013
0017
0019
ffc5
003d
ffcb
0001
ffe6
ffec
003e
ffd3
000f
fffc
fffe
0026
0004
ffe5
ffda
0019
0018
0025
0028
0000
0027
ffea
0016
fff9
001f
0005
002a
0003
ffef
0002
ffdb
000d
0017
fff4
ffee
fffa
0018
fffa
000c
ffe7
ffee
fff1
fff6
0014
001f
001d
fff7
000e
000b
002f
0005
001a
0007
ffe4
fff2
fff6
002e
0013
0031
0021
000c
fff3
0000
ffe6
002f
0021
fff3
0023
0001
0007
fff1
ffc9
0017
ffe9
fff9
0023
ffff
ffe1
fffc
0012
ffdb
0001
0022
002a
000d
fffa
0012
fffd
0003
0011
000a
0043
ffd8
ffe4
ffea
0026
ffee
002f
ffa1
fffb
ffe9
0015
0006
000e
ffe1
ffba
000a
0024
0049
0031
fff6
fff3
003d
0001
0024
0026
ffe8
001d
0028
ffe5
000a
000f
002f
0058
ffd7
0015
0017
ffd0
0034
0014
ffe6
007d
0015
ffb5
ffe3
003c
0003
0025
ffe9
ffef
ffed
0009
ffd2
003f
ffee
0024
0022
0004
fffa
ffd1
ffd3
ffce
0041
ffef
002d
fffc
fff3
ffec
ffe9
ffe5
fffe
fff7
0016
ffe0
ffed
000c
ffe3
fffc
ffe1
0044
ffc8
ffd7
001e
fff2
ffdf
fff2
ffde
0035
ffd6
001f
0023
ffc5
ffe8
fff3
0007
000a
fff5
ffdf
002e
ffe6
0017
fff6
002a
004b
ffea
fffe
0014
000d
0020
ff89
0034
000b
0008
001a
0065
ff99
ffbe
ff48
ffef
0005
0026
fff6
0039
004d
0019
0012
ff99
ffcd
fffb
004b
0022
000f
000b
004d
0012
0008
ff6e
003b
0035
ffeb
0037
fffd
fff4
ff88
0036
008c
000c
0089
0021
0066
0074
0012
000e
006d
0002
006b
0053
000f
002f
003a
001b
0096
ffd1
004a
0021
fff0
ff80
000c
ffcf
007d
000f
ff99
ffed
00a4
fffe
ffed
ffcb
000a
002c
ffda
0022
ffd4
001a
ffd2
ffe2
0004
0022
fffd
0034
0034
fff0
000f
ffd2
0015
000b
fff5
ffe7
fff4
001f
000c
ffe4
0032
0028
fff1
0048
fff5
000a
ffc8
0042
0052
0016
001d
002d
001f
0033
ffeb
0029
0020
fff4
0021
0017
fff4
0013
ffec
0021
0025
ffbf
0032
0025
fff2
fff4
ffc8
fff7
0018
ffe2
fff3
ffd4
005d
fff5
ffdd
0000
001e
003c
fffd
ffae
ffbe
0041
000b
0024
ffe4
0007
ffe0
0006
001b
0009
ffd1
0031
0005
0017
001f
ffd2
0039
0034
ffe2
ffb8
001a
004b
fff4
002e
ffe3
fffd
ffeb
0006
001a
ffed
004c
000a
004f
0007
0035
003e
0039
fffc
000a
0007
001b
0066
fff5
0041
004a
fff8
fff5
ffe9
fff2
ffc8
ffed
002f
0028
0010
0031
ffc8
0025
001a
ffbb
ffea
0043
0030
ffbb
0002
ffbd
fff1
0019
ffef
fffe
003b
0029
0022
000d
ffc0
002e
ffed
0008
001f
ffeb
0005
ffce
fffd
ffe6
001b
002a
0015
0010
001c
000e
fffe
ffda
0043
0034
ffdd
0007
0028
004a
003f
fffc
ffd0
003d
0017
fff5
fffd
ffed
0004
fffd
ffd2
ffb9
000e
0037
001f
0016
ffd4
ffff
ffd8
fff0
ffc4
fff5
001d
0002
ffe8
ffd5
fffe
002d
ffdc
0010
0015
001a
0001
ffda
0009
000b
ffe3
0010
fff1
0000
0029
ffed
ffe5
0013
ffd4
0001
0013
0020
fff5
0036
ffdd
ffec
fff4
ffdf
fff6
fff8
0009
ffe7
ffdb
0000
002e
0017
ffeb
ffb8
ffed
fffa
0024
ffd9
ffe1
0010
0016
0009
ffee
002d
001e
0053
ffcc
ffe4
fffa
fff9
0027
ffeb
fff9
0039
001b
ffc6
ffe9
0034
ffe5
001c
0001
ffd0
fff4
000d
ffe6
fffc
ffc1
0034
0019
fff6
ffff
001f
ffd6
ffcd
ffcc
0007
fffe
0031
0001
fff2
002d
ffdc
0000
0012
fff7
fffb
0000
0017
ffe2
0034
ffd5
ffde
001b
ffde
fff1
fff0
000f
0001
0044
fff4
ffd0
003e
000f
ffe4
fff6
ffed
0011
002d
ffc0
ffd9
0028
000c
0017
000d
ffe3
002f
ffca
002c
ffd8
ffd3
0031
ffeb
fffe
fffa
0003
0019
001a
ffde
ffce
0020
0017
0017
0020
0012
fff7
ffd1
ffff
fff1
001b
ffff
0046
001c
000c
ffe4
ffc9
0029
0002
ffe8
ffc9
ffed
0009
0038
0004
0003
fff9
0006
ffdf
0008
0021
002d
fff2
0023
ffe0
002d
0005
002a
000e
ffee
0014
fffe
0031
ffd7
0019
000c
0020
ffee
0010
ffe2
0021
0041
000b
0027
0021
0009
ffe7
ffe2
0027
0009
ffdc
0022
ffda
0001
003e
002d
ffde
0017
fff3
0033
000c
ffe6
0018
ffe8
0005
0019
ffee
0013
0015
ffed
000a
ffe7
fff0
fff6
003e
0004
ffdb
0030
fffb
001b
ffe8
0014
001a
ffff
0026
ffbb
000b
ffdb
0015
fff4
ffbc
0006
0003
fff3
ffe5
ffe2
ffe2
fff1
ffc0
ffbc
001e
000d
001d
fffa
001c
002d
ffe9
ffcf
000e
ffe7
0039
ffc7
0012
0029
0002
fff8
001d
ffdd
ffde
001f
ffec
000c
001a
000e
fff7
ffd0
0003
fff3
0005
0000
0036
0010
000c
ffd6
ffc8
0010
ffef
ffed
ffe1
0000
ffef
0040
0004
000b
ffec
0002
fff9
0005
0017
0000
fff1
0021
fff7
0016
fff4
003b
0010
ffe8
000b
ffe4
0006
ffd6
0007
ffeb
0022
0006
0011
ffe4
001e
004e
fff5
0021
000e
000c
fff1
ffdd
002b
001c
ffe5
0023
002a
0015
0011
ffdc
ffe0
ffdc
ffff
0018
ffe4
fff7
0001
0015
ffd5
ffe5
ffde
0034
0015
0014
000b
0019
0002
001a
ffbc
003f
001e
0015
0020
0034
ffe0
ffcf
004a
0019
0007
000d
0016
0002
004d
ffed
002a
0032
ffde
0033
0028
ffeb
001c
ffe6
ffee
002b
ffd9
0020
001d
ffff
ffc9
fff5
ffff
0032
0016
ffd9
fffd
006f
ffeb
fff0
fffa
fffc
fffe
ffc4
0023
001c
0025
fffb
ffd2
ffff
0023
002a
002c
0010
0006
002d
fffc
ffdd
000d
ffc2
fff0
ffde
fff7
ffec
0040
ffee
0002
0007
000d
fffa
002a
0004
fff0
000f
fff5
0000
0005
0014
ffce
ffe3
ffe6
ffde
0008
ffed
0000
0005
ffdf
fff5
0017
ffc8
fffd
0009
fff4
000c
0022
ffe7
0002
ffb8
ffdd
0002
fff7
ffe0
ffec
fffa
fff3
fffb
