0069
ff91
0049
ffa6
ff83
ffb6
ffe5
fffc
0008
ffb6
001f
0035
ff97
ffa4
0057
005c
ffaf
0025
ff8a
ffab
0077
ffa6
ffc5
007d
ffb6
ffbc
0045
003e
fffc
005d
ffb5
fff5
0049
004f
ffa6
0057
003c
0006
0048
ffce
0047
fff8
ffd3
0016
001e
001f
0070
ffe3
0028
004f
fff6
ffe2
ffba
007e
0048
0079
0034
fff2
ffb9
004a
007d
fff8
001a
ff8c
ffbb
005f
ffcd
ffd2
007b
ff8a
0037
ffd6
fff1
002e
0033
ff90
ffe6
ff8c
ffac
0006
ff9c
ffec
001e
005b
002b
fff7
0009
ffb0
ff84
ffb2
ffae
ff8f
006f
ff8e
0010
0077
ffeb
ff98
fff3
ffe6
000d
ffa1
fff4
0018
ffc2
004c
ffe9
ffb0
000f
fffa
ffb4
0009
ff95
ffc8
fff4
ffc7
ffa7
0079
ff97
004d
0058
0040
0050
ffef
0026
ff89
0023
fff3
004f
0052
ffde
003b
ff88
ffd0
ff8e
0001
0063
ffaf
0030
ffad
0068
0046
0069
001d
005b
fffd
ff8f
ffb9
ffc2
ff91
0004
ffd2
0032
ffbc
000c
fff3
ffa2
0039
ff8c
ffee
006e
ffb3
007a
0008
004d
ffb3
007c
0035
001c
0011
0033
ff83
0000
ff88
ffcc
006c
ff8f
002b
001f
ffad
0006
fff0
0028
ff85
ffb6
ffc7
ffea
ffce
ffb8
ffd8
0052
ffd3
ff9a
0014
ffcb
fffa
ffd4
0063
000f
fff0
fffb
ffb4
ff97
ff9a
ffe8
007f
004d
ffcb
ffcb
fff4
ffba
0036
ffac
0055
0051
002c
ffe6
0060
003d
0054
ff95
ffce
005f
ff9b
fff8
0054
0035
0073
000b
ffc3
0036
ffdf
ff8f
0017
0050
0042
0058
005a
ffb7
0000
000e
fff2
ff97
fffe
0067
ff93
0065
ffe3
fff9
ff99
005e
007f
000f
0043
ffc3
fffc
