fecd
ff2d
ff72
ffc1
ff8a
ff8e
feff
ff1e
ff65
ff96
feb9
ff56
ff12
feaf
ffc0
ffac
ff31
fe81
feff
fff6
ffdb
ff8d
000e
ffff
ff2d
ffda
ffa1
ff57
ffe3
ff29
fe9f
ffe8
ff3b
ff24
ff64
ff25
ffd2
ff40
ff3b
ffa6
ff37
feef
ffd8
ff8a
ff58
fed8
feff
ff5e
ff5d
0066
fffe
fefc
ff47
002d
ff70
ff0d
ff62
ff1b
ff0d
ff31
ff7c
ff7c
ff61
ffc1
ffdc
ff12
ffd2
ff54
ff7d
ffe1
0046
ff3f
0031
0003
006b
ff32
ff41
ffae
ff66
0006
ff54
febf
fed5
ff24
ffec
fffc
fe83
ff51
ff1b
fedc
feff
ff5e
ff00
ff95
ff2a
ff6c
ff74
ff2a
ff2b
ffc0
fef0
0090
feeb
ff83
ff42
ff4f
ff48
ff70
ff2e
ffa7
ff03
002a
feff
ff1c
ff66
fee7
fef2
ff13
ffa2
ffcf
ff31
ffaa
ff0f
ff4d
ff7b
ff78
ff73
ff7c
ffe6
ff18
ff2e
0028
ff48
ff2f
0045
ff57
ff18
ff6c
0023
fec7
ff8b
ff08
ff7f
ff19
ffc1
0042
ff99
ff06
ff12
ffc3
ff64
ffee
ffd4
ff5a
ffab
ff97
ff75
fed8
ff3d
ff4c
ffda
ff4b
ff31
ffa3
fecc
feff
ff77
ff5f
ff02
ff0f
ffa9
ff46
ffd3
ffbb
ff3f
ffb1
ff69
ffc5
ff76
ff88
ff4d
fee7
ff60
ff99
fe85
ff99
ff10
ff5d
ff87
ff39
ff71
ff7a
ff6a
ff1d
ff5e
ff83
ffb4
ff5c
ff71
ff3e
ff74
ffc2
ff8e
ffe5
ff1f
ffd1
ff1a
ff91
ff5c
ffac
fefe
ff86
ff5a
ffda
ff3d
ffdb
ff53
ffa7
0052
ff90
ffa3
ff89
ff73
0002
ffd2
ff39
ff9f
ff3a
ffc7
ff23
ff2b
ff6d
ff18
feb1
ff03
ff90
ffc5
ffe2
ff03
fec6
ff0e
ff11
fef6
ff2f
ff00
feb4
ff90
ffde
ffb5
ff98
fed1
ff2a
ff66
ff19
ff8f
ffde
