ffde
003d
003d
0022
ffd8
ffcf
001d
ffd5
ffda
0024
0048
ffd6
ffd9
ffd2
0036
0020
0037
ffd8
ffd9
ffe7
ffcb
ffe3
ffc1
002c
0036
ffd5
003a
0039
001b
0031
ffdb
0023
ffdf
002e
ffd9
ffdc
ffd7
ffda
001d
0037
0025
ffc8
003f
002a
0030
ffc8
ffce
ffce
0013
0038
0039
0028
ffdc
0020
002c
ffcf
ffd8
0031
ffd5
0030
0029
ffcf
0023
0035
0029
ffcf
002c
0036
ffb0
0021
0025
ffc1
003f
0025
002c
ffd5
002b
0034
0020
0028
ffda
ffd8
0030
ffc7
ffe0
0015
0024
ffc6
003f
0034
0028
ffda
ffde
0029
ffc4
002e
ffd4
0036
ffe1
ffc8
ffd4
001d
0025
ffcd
001f
002a
ffcf
ffc2
0034
002d
0032
0029
0039
0039
ffd3
0025
0022
002a
ffd8
0019
0046
ffba
0033
002b
0036
ffd9
ffd1
003c
002d
0020
ffcb
0026
ffcd
ffcb
0024
ffd5
0027
ffd3
ffd7
0029
ffdd
0028
002c
ffd1
0028
ffe2
0033
ffd4
001b
0019
ffe9
002d
0034
0021
0045
ffd7
ffde
ffde
003a
002a
0025
0033
0026
ffdc
ffd9
ffd4
0035
ffcf
ffcf
0023
0028
0023
ffcf
0038
ffcc
ffbb
ffca
ffd8
0031
0025
0033
002b
ffca
001c
0031
0024
0025
001e
ffd4
002c
ffd9
ffbd
002c
0023
002e
002d
003f
0033
ffdd
ffde
ffd1
ffca
0031
ffde
0030
001f
0032
ffd6
ffdf
0027
ffc6
ffc9
002c
0033
002f
ffdf
0036
ffd8
0029
ffc8
0027
0036
ffd2
0033
0025
ffd6
0038
ffda
ffd9
001c
0022
001f
002f
ffcf
ffbf
0025
0023
001e
0035
ffe1
001e
003c
ffd3
0020
0023
0031
ffc4
0033
0035
002c
ffd4
ffcc
001e
ffd2
0032
ffd6
