0052
fff7
000b
ffeb
0006
0031
0002
0016
ffeb
fffc
0043
ffd5
0017
003e
002d
ffd4
0018
0017
0015
0005
0054
0061
003d
000c
004d
ffe0
0006
0028
006a
0025
ffbd
0013
fff7
0048
0011
005a
ffaf
0006
ffd8
fffa
fff6
0042
ffea
0005
000d
ffee
0012
0034
fff8
0010
ffd4
0040
002c
ffd7
0042
ffdc
ffc1
ffbc
ffcb
0016
ffd4
000e
fff9
0029
0019
0047
0010
ffc9
ffd8
002c
fff7
0035
0060
0027
003d
0024
002b
0003
0027
0029
ffee
005e
fff5
0016
0035
ffda
001a
fff8
0062
001f
0012
fff8
fffb
0029
0001
0053
0033
002d
009d
0012
0008
000e
0016
fff4
0027
ffc3
004a
001f
0016
ffe7
000c
002e
0017
ffb9
ffcd
fff5
0031
0044
ffd2
fff8
001a
000d
ffd1
0037
002d
0015
ffc5
003a
0052
fff7
000b
ffeb
0006
0031
0002
0016
ffeb
fffc
0043
ffd5
0017
003e
002d
ffd4
0018
0017
0015
0005
0054
0061
003d
000c
004d
ffe0
0006
0028
006a
0025
ffbd
0013
fff7
0048
0011
005a
ffaf
0006
ffd8
fffa
fff6
0042
ffea
0005
000d
ffee
0012
0034
fff8
0010
ffd4
0040
002c
ffd7
0042
ffdc
ffc1
ffbc
ffcb
0016
ffd4
000e
fff9
0029
0019
0047
0010
ffc9
ffd8
002c
fff7
0035
0060
0027
003d
0024
002b
0003
0027
0029
ffee
005e
fff5
0016
0035
ffda
001a
fff8
0062
001f
0012
fff8
fffb
0029
0001
0053
0033
002d
009d
0012
0008
000e
0016
fff4
0027
ffc3
004a
001f
0016
ffe7
000c
002e
0017
ffb9
ffcd
fff5
0031
0044
ffd2
fff8
001a
000d
ffd1
0037
002d
0015
ffc5
003a
0052
fff7
000b
ffeb
0006
0031
0002
0016
ffeb
fffc
0043
ffd5
0017
003e
002d
ffd4
0018
0017
0015
0005
0054
0061
003d
000c
004d
ffe0
0006
0028
006a
0025
ffbd
0013
fff7
0048
0011
005a
ffaf
0006
ffd8
fffa
fff6
0042
ffea
0005
000d
ffee
0012
0034
fff8
0010
ffd4
0040
002c
ffd7
0042
ffdc
ffc1
ffbc
ffcb
0016
ffd4
000e
fff9
0029
0019
0047
0010
ffc9
ffd8
002c
fff7
0035
0060
0027
003d
0024
002b
0003
0027
0029
ffee
005e
fff5
0016
0035
ffda
001a
fff8
0062
001f
0012
fff8
fffb
0029
0001
0053
0033
002d
009d
0012
0008
000e
0016
fff4
0027
ffc3
004a
001f
0016
ffe7
000c
002e
0017
ffb9
ffcd
fff5
0031
0044
ffd2
fff8
001a
000d
ffd1
0037
002d
0015
ffc5
003a
0052
fff7
000b
ffeb
0006
0031
0002
0016
ffeb
fffc
0043
ffd5
0017
003e
002d
ffd4
0018
0017
0015
0005
0054
0061
003d
000c
004d
ffe0
0006
0028
006a
0025
ffbd
0013
fff7
0048
0011
005a
ffaf
0006
ffd8
fffa
fff6
0042
ffea
0005
000d
ffee
0012
0034
fff8
0010
ffd4
0040
002c
ffd7
0042
ffdc
ffc1
ffbc
ffcb
0016
ffd4
000e
fff9
0029
0019
0047
0010
ffc9
ffd8
002c
fff7
0035
0060
0027
003d
0024
002b
0003
0027
0029
ffee
005e
fff5
0016
0035
ffda
001a
fff8
0062
001f
0012
fff8
fffb
0029
0001
0053
0033
002d
009d
0012
0008
000e
0016
fff4
0027
ffc3
004a
001f
0016
ffe7
000c
002e
0017
ffb9
ffcd
fff5
0031
0044
ffd2
fff8
001a
000d
ffd1
0037
002d
0015
ffc5
003a
0052
fff7
000b
ffeb
0006
0031
0002
0016
ffeb
fffc
0043
ffd5
0017
003e
002d
ffd4
0018
0017
0015
0005
0054
0061
003d
000c
004d
ffe0
0006
0028
006a
0025
ffbd
0013
fff7
0048
0011
005a
ffaf
0006
ffd8
fffa
fff6
0042
ffea
0005
000d
ffee
0012
0034
fff8
0010
ffd4
0040
002c
ffd7
0042
ffdc
ffc1
ffbc
ffcb
0016
ffd4
000e
fff9
0029
0019
0047
0010
ffc9
ffd8
002c
fff7
0035
0060
0027
003d
0024
002b
0003
0027
0029
ffee
005e
fff5
0016
0035
ffda
001a
fff8
0062
001f
0012
fff8
fffb
0029
0001
0053
0033
002d
009d
0012
0008
000e
0016
fff4
0027
ffc3
004a
001f
0016
ffe7
000c
002e
0017
ffb9
ffcd
fff5
0031
0044
ffd2
fff8
001a
000d
ffd1
0037
002d
0015
ffc5
003a
0052
fff7
000b
ffeb
0006
0031
0002
0016
ffeb
fffc
0043
ffd5
0017
003e
002d
ffd4
0018
0017
0015
0005
0054
0061
003d
000c
004d
ffe0
0006
0028
006a
0025
ffbd
0013
fff7
0048
0011
005a
ffaf
0006
ffd8
fffa
fff6
0042
ffea
0005
000d
ffee
0012
0034
fff8
0010
ffd4
0040
002c
ffd7
0042
ffdc
ffc1
ffbc
ffcb
0016
ffd4
000e
fff9
0029
0019
0047
0010
ffc9
ffd8
002c
fff7
0035
0060
0027
003d
0024
002b
0003
0027
0029
ffee
005e
fff5
0016
0035
ffda
001a
fff8
0062
001f
0012
fff8
fffb
0029
0001
0053
0033
002d
009d
0012
0008
000e
0016
fff4
0027
ffc3
004a
001f
0016
ffe7
000c
002e
0017
ffb9
ffcd
fff5
0031
0044
ffd2
fff8
001a
000d
ffd1
0037
002d
0015
ffc5
003a
0052
fff7
000b
ffeb
0006
0031
0002
0016
ffeb
fffc
0043
ffd5
0017
003e
002d
ffd4
0018
0017
0015
0005
0054
0061
003d
000c
004d
ffe0
0006
0028
006a
0025
ffbd
0013
fff7
0048
0011
005a
ffaf
0006
ffd8
fffa
fff6
0042
ffea
0005
000d
ffee
0012
0034
fff8
0010
ffd4
0040
002c
ffd7
0042
ffdc
ffc1
ffbc
ffcb
0016
ffd4
000e
fff9
0029
0019
0047
0010
ffc9
ffd8
002c
fff7
0035
0060
0027
003d
0024
002b
0003
0027
0029
ffee
005e
fff5
0016
0035
ffda
001a
fff8
0062
001f
0012
fff8
fffb
0029
0001
0053
0033
002d
009d
0012
0008
000e
0016
fff4
0027
ffc3
004a
001f
0016
ffe7
000c
002e
0017
ffb9
ffcd
fff5
0031
0044
ffd2
fff8
001a
000d
ffd1
0037
002d
0015
ffc5
003a
0052
fff7
000b
ffeb
0006
0031
0002
0016
ffeb
fffc
0043
ffd5
0017
003e
002d
ffd4
0018
0017
0015
0005
0054
0061
003d
000c
004d
ffe0
0006
0028
006a
0025
ffbd
0013
fff7
0048
0011
005a
ffaf
0006
ffd8
fffa
fff6
0042
ffea
0005
000d
ffee
0012
0034
fff8
0010
ffd4
0040
002c
ffd7
0042
ffdc
ffc1
ffbc
ffcb
0016
ffd4
000e
fff9
0029
0019
0047
0010
ffc9
ffd8
002c
fff7
0035
0060
0027
003d
0024
002b
0003
0027
0029
ffee
005e
fff5
0016
0035
ffda
001a
fff8
0062
001f
0012
fff8
fffb
0029
0001
0053
0033
002d
009d
0012
0008
000e
0016
fff4
0027
ffc3
004a
001f
0016
ffe7
000c
002e
0017
ffb9
ffcd
fff5
0031
0044
ffd2
fff8
001a
000d
ffd1
0037
002d
0015
ffc5
003a
0052
fff7
000b
ffeb
0006
0031
0002
0016
ffeb
fffc
0043
ffd5
0017
003e
002d
ffd4
0018
0017
0015
0005
0054
0061
003d
000c
004d
ffe0
0006
0028
006a
0025
ffbd
0013
fff7
0048
0011
005a
ffaf
0006
ffd8
fffa
fff6
0042
ffea
0005
000d
ffee
0012
0034
fff8
0010
ffd4
0040
002c
ffd7
0042
ffdc
ffc1
ffbc
ffcb
0016
ffd4
000e
fff9
0029
0019
0047
0010
ffc9
ffd8
002c
fff7
0035
0060
0027
003d
0024
002b
0003
0027
0029
ffee
005e
fff5
0016
0035
ffda
001a
fff8
0062
001f
0012
fff8
fffb
0029
0001
0053
0033
002d
009d
0012
0008
000e
0016
fff4
0027
ffc3
004a
001f
0016
ffe7
000c
002e
0017
ffb9
ffcd
fff5
0031
0044
ffd2
fff8
001a
000d
ffd1
0037
002d
0015
ffc5
003a
0052
fff7
000b
ffeb
0006
0031
0002
0016
ffeb
fffc
0043
ffd5
0017
003e
002d
ffd4
0018
0017
0015
0005
0054
0061
003d
000c
004d
ffe0
0006
0028
006a
0025
ffbd
0013
fff7
0048
0011
005a
ffaf
0006
ffd8
fffa
fff6
0042
ffea
0005
000d
ffee
0012
0034
fff8
0010
ffd4
0040
002c
ffd7
0042
ffdc
ffc1
ffbc
ffcb
0016
ffd4
000e
fff9
0029
0019
0047
0010
ffc9
ffd8
002c
fff7
0035
0060
0027
003d
0024
002b
0003
0027
0029
ffee
005e
fff5
0016
0035
ffda
001a
fff8
0062
001f
0012
fff8
fffb
0029
0001
0053
0033
002d
009d
0012
0008
000e
0016
fff4
0027
ffc3
004a
001f
0016
ffe7
000c
002e
0017
ffb9
ffcd
fff5
0031
0044
ffd2
fff8
001a
000d
ffd1
0037
002d
0015
ffc5
003a
0052
fff7
000b
ffeb
0006
0031
0002
0016
ffeb
fffc
0043
ffd5
0017
003e
002d
ffd4
0018
0017
0015
0005
0054
0061
003d
000c
004d
ffe0
0006
0028
006a
0025
ffbd
0013
fff7
0048
0011
005a
ffaf
0006
ffd8
fffa
fff6
0042
ffea
0005
000d
ffee
0012
0034
fff8
0010
ffd4
0040
002c
ffd7
0042
ffdc
ffc1
ffbc
ffcb
0016
ffd4
000e
fff9
0029
0019
0047
0010
ffc9
ffd8
002c
fff7
0035
0060
0027
003d
0024
002b
0003
0027
0029
ffee
005e
fff5
0016
0035
ffda
001a
fff8
0062
001f
0012
fff8
fffb
0029
0001
0053
0033
002d
009d
0012
0008
000e
0016
fff4
0027
ffc3
004a
001f
0016
ffe7
000c
002e
0017
ffb9
ffcd
fff5
0031
0044
ffd2
fff8
001a
000d
ffd1
0037
002d
0015
ffc5
003a
0052
fff7
000b
ffeb
0006
0031
0002
0016
ffeb
fffc
0043
ffd5
0017
003e
002d
ffd4
0018
0017
0015
0005
0054
0061
003d
000c
004d
ffe0
0006
0028
006a
0025
ffbd
0013
fff7
0048
0011
005a
ffaf
0006
ffd8
fffa
fff6
0042
ffea
0005
000d
ffee
0012
0034
fff8
0010
ffd4
0040
002c
ffd7
0042
ffdc
ffc1
ffbc
ffcb
0016
ffd4
000e
fff9
0029
0019
0047
0010
ffc9
ffd8
002c
fff7
0035
0060
0027
003d
0024
002b
0003
0027
0029
ffee
005e
fff5
0016
0035
ffda
001a
fff8
0062
001f
0012
fff8
fffb
0029
0001
0053
0033
002d
009d
0012
0008
000e
0016
fff4
0027
ffc3
004a
001f
0016
ffe7
000c
002e
0017
ffb9
ffcd
fff5
0031
0044
ffd2
fff8
001a
000d
ffd1
0037
002d
0015
ffc5
003a
0052
fff7
000b
ffeb
0006
0031
0002
0016
ffeb
fffc
0043
ffd5
0017
003e
002d
ffd4
0018
0017
0015
0005
0054
0061
003d
000c
004d
ffe0
0006
0028
006a
0025
ffbd
0013
fff7
0048
0011
005a
ffaf
0006
ffd8
fffa
fff6
0042
ffea
0005
000d
ffee
0012
0034
fff8
0010
ffd4
0040
002c
ffd7
0042
ffdc
ffc1
ffbc
ffcb
0016
ffd4
000e
fff9
0029
0019
0047
0010
ffc9
ffd8
002c
fff7
0035
0060
0027
003d
0024
002b
0003
0027
0029
ffee
005e
fff5
0016
0035
ffda
001a
fff8
0062
001f
0012
fff8
fffb
0029
0001
0053
0033
002d
009d
0012
0008
000e
0016
fff4
0027
ffc3
004a
001f
0016
ffe7
000c
002e
0017
ffb9
ffcd
fff5
0031
0044
ffd2
fff8
001a
000d
ffd1
0037
002d
0015
ffc5
003a
0052
fff7
000b
ffeb
0006
0031
0002
0016
ffeb
fffc
0043
ffd5
0017
003e
002d
ffd4
0018
0017
0015
0005
0054
0061
003d
000c
004d
ffe0
0006
0028
006a
0025
ffbd
0013
fff7
0048
0011
005a
ffaf
0006
ffd8
fffa
fff6
0042
ffea
0005
000d
ffee
0012
0034
fff8
0010
ffd4
0040
002c
ffd7
0042
ffdc
ffc1
ffbc
ffcb
0016
ffd4
000e
fff9
0029
0019
0047
0010
ffc9
ffd8
002c
fff7
0035
0060
0027
003d
0024
002b
0003
0027
0029
ffee
005e
fff5
0016
0035
ffda
001a
fff8
0062
001f
0012
fff8
fffb
0029
0001
0053
0033
002d
009d
0012
0008
000e
0016
fff4
0027
ffc3
004a
001f
0016
ffe7
000c
002e
0017
ffb9
ffcd
fff5
0031
0044
ffd2
fff8
001a
000d
ffd1
0037
002d
0015
ffc5
003a
0052
fff7
000b
ffeb
0006
0031
0002
0016
ffeb
fffc
0043
ffd5
0017
003e
002d
ffd4
0018
0017
0015
0005
0054
0061
003d
000c
004d
ffe0
0006
0028
006a
0025
ffbd
0013
fff7
0048
0011
005a
ffaf
0006
ffd8
fffa
fff6
0042
ffea
0005
000d
ffee
0012
0034
fff8
0010
ffd4
0040
002c
ffd7
0042
ffdc
ffc1
ffbc
ffcb
0016
ffd4
000e
fff9
0029
0019
0047
0010
ffc9
ffd8
002c
fff7
0035
0060
0027
003d
0024
002b
0003
0027
0029
ffee
005e
fff5
0016
0035
ffda
001a
fff8
0062
001f
0012
fff8
fffb
0029
0001
0053
0033
002d
009d
0012
0008
000e
0016
fff4
0027
ffc3
004a
001f
0016
ffe7
000c
002e
0017
ffb9
ffcd
fff5
0031
0044
ffd2
fff8
001a
000d
ffd1
0037
002d
0015
ffc5
003a
0052
fff7
000b
ffeb
0006
0031
0002
0016
ffeb
fffc
0043
ffd5
0017
003e
002d
ffd4
0018
0017
0015
0005
0054
0061
003d
000c
004d
ffe0
0006
0028
006a
0025
ffbd
0013
fff7
0048
0011
005a
ffaf
0006
ffd8
fffa
fff6
0042
ffea
0005
000d
ffee
0012
0034
fff8
0010
ffd4
0040
002c
ffd7
0042
ffdc
ffc1
ffbc
ffcb
0016
ffd4
000e
fff9
0029
0019
0047
0010
ffc9
ffd8
002c
fff7
0035
0060
0027
003d
0024
002b
0003
0027
0029
ffee
005e
fff5
0016
0035
ffda
001a
fff8
0062
001f
0012
fff8
fffb
0029
0001
0053
0033
002d
009d
0012
0008
000e
0016
fff4
0027
ffc3
004a
001f
0016
ffe7
000c
002e
0017
ffb9
ffcd
fff5
0031
0044
ffd2
fff8
001a
000d
ffd1
0037
002d
0015
ffc5
003a
0052
fff7
000b
ffeb
0006
0031
0002
0016
ffeb
fffc
0043
ffd5
0017
003e
002d
ffd4
0018
0017
0015
0005
0054
0061
003d
000c
004d
ffe0
0006
0028
006a
0025
ffbd
0013
fff7
0048
0011
005a
ffaf
0006
ffd8
fffa
fff6
0042
ffea
0005
000d
ffee
0012
0034
fff8
0010
ffd4
0040
002c
ffd7
0042
ffdc
ffc1
ffbc
ffcb
0016
ffd4
000e
fff9
0029
0019
0047
0010
ffc9
ffd8
002c
fff7
0035
0060
0027
003d
0024
002b
0003
0027
0029
ffee
005e
fff5
0016
0035
ffda
001a
fff8
0062
001f
0012
fff8
fffb
0029
0001
0053
0033
002d
009d
0012
0008
000e
0016
fff4
0027
ffc3
004a
001f
0016
ffe7
000c
002e
0017
ffb9
ffcd
fff5
0031
0044
ffd2
fff8
001a
000d
ffd1
0037
002d
0015
ffc5
003a
0052
fff7
000b
ffeb
0006
0031
0002
0016
ffeb
fffc
0043
ffd5
0017
003e
002d
ffd4
0018
0017
0015
0005
0054
0061
003d
000c
004d
ffe0
0006
0028
006a
0025
ffbd
0013
fff7
0048
0011
005a
ffaf
0006
ffd8
fffa
fff6
0042
ffea
0005
000d
ffee
0012
0034
fff8
0010
ffd4
0040
002c
ffd7
0042
ffdc
ffc1
ffbc
ffcb
0016
ffd4
000e
fff9
0029
0019
0047
0010
ffc9
ffd8
002c
fff7
0035
0060
0027
003d
0024
002b
0003
0027
0029
ffee
005e
fff5
0016
0035
ffda
001a
fff8
0062
001f
0012
fff8
fffb
0029
0001
0053
0033
002d
009d
0012
0008
000e
0016
fff4
0027
ffc3
004a
001f
0016
ffe7
000c
002e
0017
ffb9
ffcd
fff5
0031
0044
ffd2
fff8
001a
000d
ffd1
0037
002d
0015
ffc5
003a
0052
fff7
000b
ffeb
0006
0031
0002
0016
ffeb
fffc
0043
ffd5
0017
003e
002d
ffd4
0018
0017
0015
0005
0054
0061
003d
000c
004d
ffe0
0006
0028
006a
0025
ffbd
0013
fff7
0048
0011
005a
ffaf
0006
ffd8
fffa
fff6
0042
ffea
0005
000d
ffee
0012
0034
fff8
0010
ffd4
0040
002c
ffd7
0042
ffdc
ffc1
ffbc
ffcb
0016
ffd4
000e
fff9
0029
0019
0047
0010
ffc9
ffd8
002c
fff7
0035
0060
0027
003d
0024
002b
0003
0027
0029
ffee
005e
fff5
0016
0035
ffda
001a
fff8
0062
001f
0012
fff8
fffb
0029
0001
0053
0033
002d
009d
0012
0008
000e
0016
fff4
0027
ffc3
004a
001f
0016
ffe7
000c
002e
0017
ffb9
ffcd
fff5
0031
0044
ffd2
fff8
001a
000d
ffd1
0037
002d
0015
ffc5
003a
0052
fff7
000b
ffeb
0006
0031
0002
0016
ffeb
fffc
0043
ffd5
0017
003e
002d
ffd4
0018
0017
0015
0005
0054
0061
003d
000c
004d
ffe0
0006
0028
006a
0025
ffbd
0013
fff7
0048
0011
005a
ffaf
0006
ffd8
fffa
fff6
0042
ffea
0005
000d
ffee
0012
0034
fff8
0010
ffd4
0040
002c
ffd7
0042
ffdc
ffc1
ffbc
ffcb
0016
ffd4
000e
fff9
0029
0019
0047
0010
ffc9
ffd8
002c
fff7
0035
0060
0027
003d
0024
002b
0003
0027
0029
ffee
005e
fff5
0016
0035
ffda
001a
fff8
0062
001f
0012
fff8
fffb
0029
0001
0053
0033
002d
009d
0012
0008
000e
0016
fff4
0027
ffc3
004a
001f
0016
ffe7
000c
002e
0017
ffb9
ffcd
fff5
0031
0044
ffd2
fff8
001a
000d
ffd1
0037
002d
0015
ffc5
003a
0052
fff7
000b
ffeb
0006
0031
0002
0016
ffeb
fffc
0043
ffd5
0017
003e
002d
ffd4
0018
0017
0015
0005
0054
0061
003d
000c
004d
ffe0
0006
0028
006a
0025
ffbd
0013
fff7
0048
0011
005a
ffaf
0006
ffd8
fffa
fff6
0042
ffea
0005
000d
ffee
0012
0034
fff8
0010
ffd4
0040
002c
ffd7
0042
ffdc
ffc1
ffbc
ffcb
0016
ffd4
000e
fff9
0029
0019
0047
0010
ffc9
ffd8
002c
fff7
0035
0060
0027
003d
0024
002b
0003
0027
0029
ffee
005e
fff5
0016
0035
ffda
001a
fff8
0062
001f
0012
fff8
fffb
0029
0001
0053
0033
002d
009d
0012
0008
000e
0016
fff4
0027
ffc3
004a
001f
0016
ffe7
000c
002e
0017
ffb9
ffcd
fff5
0031
0044
ffd2
fff8
001a
000d
ffd1
0037
002d
0015
ffc5
003a
0052
fff7
000b
ffeb
0006
0031
0002
0016
ffeb
fffc
0043
ffd5
0017
003e
002d
ffd4
0018
0017
0015
0005
0054
0061
003d
000c
004d
ffe0
0006
0028
006a
0025
ffbd
0013
fff7
0048
0011
005a
ffaf
0006
ffd8
fffa
fff6
0042
ffea
0005
000d
ffee
0012
0034
fff8
0010
ffd4
0040
002c
ffd7
0042
ffdc
ffc1
ffbc
ffcb
0016
ffd4
000e
fff9
0029
0019
0047
0010
ffc9
ffd8
002c
fff7
0035
0060
0027
003d
0024
002b
0003
0027
0029
ffee
005e
fff5
0016
0035
ffda
001a
fff8
0062
001f
0012
fff8
fffb
0029
0001
0053
0033
002d
009d
0012
0008
000e
0016
fff4
0027
ffc3
004a
001f
0016
ffe7
000c
002e
0017
ffb9
ffcd
fff5
0031
0044
ffd2
fff8
001a
000d
ffd1
0037
002d
0015
ffc5
003a
0052
fff7
000b
ffeb
0006
0031
0002
0016
ffeb
fffc
0043
ffd5
0017
003e
002d
ffd4
0018
0017
0015
0005
0054
0061
003d
000c
004d
ffe0
0006
0028
006a
0025
ffbd
0013
fff7
0048
0011
005a
ffaf
0006
ffd8
fffa
fff6
0042
ffea
0005
000d
ffee
0012
0034
fff8
0010
ffd4
0040
002c
ffd7
0042
ffdc
ffc1
ffbc
ffcb
0016
ffd4
000e
fff9
0029
0019
0047
0010
ffc9
ffd8
002c
fff7
0035
0060
0027
003d
0024
002b
0003
0027
0029
ffee
005e
fff5
0016
0035
ffda
001a
fff8
0062
001f
0012
fff8
fffb
0029
0001
0053
0033
002d
009d
0012
0008
000e
0016
fff4
0027
ffc3
004a
001f
0016
ffe7
000c
002e
0017
ffb9
ffcd
fff5
0031
0044
ffd2
fff8
001a
000d
ffd1
0037
002d
0015
ffc5
003a
0052
fff7
000b
ffeb
0006
0031
0002
0016
ffeb
fffc
0043
ffd5
0017
003e
002d
ffd4
0018
0017
0015
0005
0054
0061
003d
000c
004d
ffe0
0006
0028
006a
0025
ffbd
0013
fff7
0048
0011
005a
ffaf
0006
ffd8
fffa
fff6
0042
ffea
0005
000d
ffee
0012
0034
fff8
0010
ffd4
0040
002c
ffd7
0042
ffdc
ffc1
ffbc
ffcb
0016
ffd4
000e
fff9
0029
0019
0047
0010
ffc9
ffd8
002c
fff7
0035
0060
0027
003d
0024
002b
0003
0027
0029
ffee
005e
fff5
0016
0035
ffda
001a
fff8
0062
001f
0012
fff8
fffb
0029
0001
0053
0033
002d
009d
0012
0008
000e
0016
fff4
0027
ffc3
004a
001f
0016
ffe7
000c
002e
0017
ffb9
ffcd
fff5
0031
0044
ffd2
fff8
001a
000d
ffd1
0037
002d
0015
ffc5
003a
0052
fff7
000b
ffeb
0006
0031
0002
0016
ffeb
fffc
0043
ffd5
0017
003e
002d
ffd4
0018
0017
0015
0005
0054
0061
003d
000c
004d
ffe0
0006
0028
006a
0025
ffbd
0013
fff7
0048
0011
005a
ffaf
0006
ffd8
fffa
fff6
0042
ffea
0005
000d
ffee
0012
0034
fff8
0010
ffd4
0040
002c
ffd7
0042
ffdc
ffc1
ffbc
ffcb
0016
ffd4
000e
fff9
0029
0019
0047
0010
ffc9
ffd8
002c
fff7
0035
0060
0027
003d
0024
002b
0003
0027
0029
ffee
005e
fff5
0016
0035
ffda
001a
fff8
0062
001f
0012
fff8
fffb
0029
0001
0053
0033
002d
009d
0012
0008
000e
0016
fff4
0027
ffc3
004a
001f
0016
ffe7
000c
002e
0017
ffb9
ffcd
fff5
0031
0044
ffd2
fff8
001a
000d
ffd1
0037
002d
0015
ffc5
003a
0052
fff7
000b
ffeb
0006
0031
0002
0016
ffeb
fffc
0043
ffd5
0017
003e
002d
ffd4
0018
0017
0015
0005
0054
0061
003d
000c
004d
ffe0
0006
0028
006a
0025
ffbd
0013
fff7
0048
0011
005a
ffaf
0006
ffd8
fffa
fff6
0042
ffea
0005
000d
ffee
0012
0034
fff8
0010
ffd4
0040
002c
ffd7
0042
ffdc
ffc1
ffbc
ffcb
0016
ffd4
000e
fff9
0029
0019
0047
0010
ffc9
ffd8
002c
fff7
0035
0060
0027
003d
0024
002b
0003
0027
0029
ffee
005e
fff5
0016
0035
ffda
001a
fff8
0062
001f
0012
fff8
fffb
0029
0001
0053
0033
002d
009d
0012
0008
000e
0016
fff4
0027
ffc3
004a
001f
0016
ffe7
000c
002e
0017
ffb9
ffcd
fff5
0031
0044
ffd2
fff8
001a
000d
ffd1
0037
002d
0015
ffc5
003a
0052
fff7
000b
ffeb
0006
0031
0002
0016
ffeb
fffc
0043
ffd5
0017
003e
002d
ffd4
0018
0017
0015
0005
0054
0061
003d
000c
004d
ffe0
0006
0028
006a
0025
ffbd
0013
fff7
0048
0011
005a
ffaf
0006
ffd8
fffa
fff6
0042
ffea
0005
000d
ffee
0012
0034
fff8
0010
ffd4
0040
002c
ffd7
0042
ffdc
ffc1
ffbc
ffcb
0016
ffd4
000e
fff9
0029
0019
0047
0010
ffc9
ffd8
002c
fff7
0035
0060
0027
003d
0024
002b
0003
0027
0029
ffee
005e
fff5
0016
0035
ffda
001a
fff8
0062
001f
0012
fff8
fffb
0029
0001
0053
0033
002d
009d
0012
0008
000e
0016
fff4
0027
ffc3
004a
001f
0016
ffe7
000c
002e
0017
ffb9
ffcd
fff5
0031
0044
ffd2
fff8
001a
000d
ffd1
0037
002d
0015
ffc5
003a
0052
fff7
000b
ffeb
0006
0031
0002
0016
ffeb
fffc
0043
ffd5
0017
003e
002d
ffd4
0018
0017
0015
0005
0054
0061
003d
000c
004d
ffe0
0006
0028
006a
0025
ffbd
0013
fff7
0048
0011
005a
ffaf
0006
ffd8
fffa
fff6
0042
ffea
0005
000d
ffee
0012
0034
fff8
0010
ffd4
0040
002c
ffd7
0042
ffdc
ffc1
ffbc
ffcb
0016
ffd4
000e
fff9
0029
0019
0047
0010
ffc9
ffd8
002c
fff7
0035
0060
0027
003d
0024
002b
0003
0027
0029
ffee
005e
fff5
0016
0035
ffda
001a
fff8
0062
001f
0012
fff8
fffb
0029
0001
0053
0033
002d
009d
0012
0008
000e
0016
fff4
0027
ffc3
004a
001f
0016
ffe7
000c
002e
0017
ffb9
ffcd
fff5
0031
0044
ffd2
fff8
001a
000d
ffd1
0037
002d
0015
ffc5
003a
0052
fff7
000b
ffeb
0006
0031
0002
0016
ffeb
fffc
0043
ffd5
0017
003e
002d
ffd4
0018
0017
0015
0005
0054
0061
003d
000c
004d
ffe0
0006
0028
006a
0025
ffbd
0013
fff7
0048
0011
005a
ffaf
0006
ffd8
fffa
fff6
0042
ffea
0005
000d
ffee
0012
0034
fff8
0010
ffd4
0040
002c
ffd7
0042
ffdc
ffc1
ffbc
ffcb
0016
ffd4
000e
fff9
0029
0019
0047
0010
ffc9
ffd8
002c
fff7
0035
0060
0027
003d
0024
002b
0003
0027
0029
ffee
005e
fff5
0016
0035
ffda
001a
fff8
0062
001f
0012
fff8
fffb
0029
0001
0053
0033
002d
009d
0012
0008
000e
0016
fff4
0027
ffc3
004a
001f
0016
ffe7
000c
002e
0017
ffb9
ffcd
fff5
0031
0044
ffd2
fff8
001a
000d
ffd1
0037
002d
0015
ffc5
003a
0052
fff7
000b
ffeb
0006
0031
0002
0016
ffeb
fffc
0043
ffd5
0017
003e
002d
ffd4
0018
0017
0015
0005
0054
0061
003d
000c
004d
ffe0
0006
0028
006a
0025
ffbd
0013
fff7
0048
0011
005a
ffaf
0006
ffd8
fffa
fff6
0042
ffea
0005
000d
ffee
0012
0034
fff8
0010
ffd4
0040
002c
ffd7
0042
ffdc
ffc1
ffbc
ffcb
0016
ffd4
000e
fff9
0029
0019
0047
0010
ffc9
ffd8
002c
fff7
0035
0060
0027
003d
0024
002b
0003
0027
0029
ffee
005e
fff5
0016
0035
ffda
001a
fff8
0062
001f
0012
fff8
fffb
0029
0001
0053
0033
002d
009d
0012
0008
000e
0016
fff4
0027
ffc3
004a
001f
0016
ffe7
000c
002e
0017
ffb9
ffcd
fff5
0031
0044
ffd2
fff8
001a
000d
ffd1
0037
002d
0015
ffc5
003a
0052
fff7
000b
ffeb
0006
0031
0002
0016
ffeb
fffc
0043
ffd5
0017
003e
002d
ffd4
0018
0017
0015
0005
0054
0061
003d
000c
004d
ffe0
0006
0028
006a
0025
ffbd
0013
fff7
0048
0011
005a
ffaf
0006
ffd8
fffa
fff6
0042
ffea
0005
000d
ffee
0012
0034
fff8
0010
ffd4
0040
002c
ffd7
0042
ffdc
ffc1
ffbc
ffcb
0016
ffd4
000e
fff9
0029
0019
0047
0010
ffc9
ffd8
002c
fff7
0035
0060
0027
003d
0024
002b
0003
0027
0029
ffee
005e
fff5
0016
0035
ffda
001a
fff8
0062
001f
0012
fff8
fffb
0029
0001
0053
0033
002d
009d
0012
0008
000e
0016
fff4
0027
ffc3
004a
001f
0016
ffe7
000c
002e
0017
ffb9
ffcd
fff5
0031
0044
ffd2
fff8
001a
000d
ffd1
0037
002d
0015
ffc5
003a
0052
fff7
000b
ffeb
0006
0031
0002
0016
ffeb
fffc
0043
ffd5
0017
003e
002d
ffd4
0018
0017
0015
0005
0054
0061
003d
000c
004d
ffe0
0006
0028
006a
0025
ffbd
0013
fff7
0048
0011
005a
ffaf
0006
ffd8
fffa
fff6
0042
ffea
0005
000d
ffee
0012
0034
fff8
0010
ffd4
0040
002c
ffd7
0042
ffdc
ffc1
ffbc
ffcb
0016
ffd4
000e
fff9
0029
0019
0047
0010
ffc9
ffd8
002c
fff7
0035
0060
0027
003d
0024
002b
0003
0027
0029
ffee
005e
fff5
0016
0035
ffda
001a
fff8
0062
001f
0012
fff8
fffb
0029
0001
0053
0033
002d
009d
0012
0008
000e
0016
fff4
0027
ffc3
004a
001f
0016
ffe7
000c
002e
0017
ffb9
ffcd
fff5
0031
0044
ffd2
fff8
001a
000d
ffd1
0037
002d
0015
ffc5
003a
