ffff
0010
0013
0010
000e
ffe9
0019
fffb
fff7
0002
0001
000f
fff7
fffe
fffd
fff7
0009
ffff
0005
fffe
0009
000f
0008
0013
fffe
ffff
0013
fff4
fffb
000d
fffd
000d
0003
0016
0007
0006
000f
0001
fffe
0000
001b
000d
fff7
fffb
0004
fff8
ffe7
fff4
0003
fff6
fffd
0003
0008
000c
fff4
0003
fffe
fffb
0006
fffb
0014
fffe
0003
0000
0004
0000
0007
0007
fff0
0004
fff0
ffff
fff2
0006
0027
0002
ffee
fffc
0007
0007
fffd
fffc
0015
0000
fffc
ffff
0018
0006
000c
0029
000f
0000
fffb
0012
0017
0013
fff3
0006
fffa
ffed
0022
0018
0007
ffec
ffff
000b
0005
0010
0013
000b
0008
fff0
fffe
fffc
fffb
0000
fffe
0002
0019
0008
fff2
000d
0007
ffdb
000b
ffd1
ffeb
ffeb
ffb4
ffc6
ffbe
ffa6
ffcb
ffea
0002
0007
fffd
0008
fff8
0013
0003
0004
ffef
0006
0005
000a
fffc
fff6
0009
0018
0003
ffae
ffd4
fff3
ffad
ffe5
ffa6
ffd7
0004
fff5
ffa9
ffd9
ffd7
fff1
0003
0004
fffe
000a
0009
ffff
ffff
0005
0016
0017
000c
0021
000e
003a
ffdc
003b
fff3
004c
0025
0066
0015
0048
000d
0023
ffc9
0009
0013
002b
ffe2
ffff
0003
ffff
fff2
000c
000b
fff5
0018
fff7
fff5
ffe4
002c
003f
ffcf
fff2
ffe5
0024
ffe3
0008
ff9f
ffca
000b
fff2
fff1
0008
fff9
0013
0005
fffb
fff2
000d
fffe
0004
0003
fffa
ffe9
000e
001a
ffef
fff9
0005
fffc
fff0
003a
ffef
ffbd
0014
ff9b
0078
ff6f
0016
ffef
000d
0007
0021
0015
0015
fff1
0001
0004
0007
0012
0015
0003
ffe4
fff2
fff4
003d
0010
ffe5
ffc1
0033
ffaa
00b9
ff87
004b
ff59
005f
ff93
000a
0008
0026
fffe
0004
fff4
fffe
0009
000a
fffc
fff9
000e
ffff
0002
0035
ffc9
fffa
fff2
ffec
ffc9
0053
ffd5
ffea
ff93
ffd7
ffc6
ffd0
0008
fff5
0005
0014
fff3
0018
0003
000e
fffc
0002
fff5
0011
0000
fffd
002f
0010
ffba
0012
fff6
0081
ff71
0075
ffd2
fff3
000d
ffb8
0045
ffb5
fff5
ffe6
fffe
ffee
0012
fffd
fff0
001e
fffc
0007
0009
fffb
000b
fffe
fff6
0011
0009
ffe9
fffc
ffdf
0014
ffb3
001d
000c
ffd8
00a9
003f
0089
fff4
fff6
fff3
001c
0003
001c
fffb
0000
0001
0004
0009
fffb
000c
000b
ffd6
ffe0
ffdb
ffb8
ffdd
ffcf
ffe6
0058
ffe4
ff8f
009c
fffd
004f
003d
ffd5
002a
ffb9
0004
fffd
0024
fff6
0003
fff5
ffed
0018
fffc
0008
0000
ffd3
fff3
ffcb
ffe7
ffaa
ffba
fffe
ffd7
007b
002c
ff8d
ffea
0000
ffea
0007
ffcf
ffc9
fff2
ffdd
0002
fff8
fffe
0002
000d
0015
000c
fff0
0001
ffdd
0022
fff5
fff4
0009
0058
ffbb
0027
002c
00a6
0011
ff64
0037
0004
ffd9
0018
000a
ffe9
ffe2
0000
fffa
fffa
0003
0007
fff1
fffa
0002
fff2
ffe7
ffdf
fff7
0005
ffc5
ffbd
000f
0023
00c9
0016
0059
0023
002a
fff7
0065
0019
0011
ffe6
0006
000a
0010
fff3
0009
0008
fff9
fffc
0010
001d
ffed
0021
0037
0051
001a
0009
ffc7
ffb6
fff2
002d
0050
0053
0005
002b
fffc
0014
0028
ffe9
0008
ffff
0007
0003
0018
fff7
fffb
fffa
fffb
0005
ffdd
ffe5
0015
fff4
fffe
ffc9
ffb5
ff7f
ffe2
ffc1
ffcd
ffec
fff2
ffc3
ffd4
ffe8
001f
0007
0021
fff9
fffe
0015
0008
0003
0008
0004
fffb
000f
ffdf
001a
0012
ffa4
ffcb
ffaf
0010
ff72
ffef
ff3b
0041
ffc3
0013
ffe4
ffc2
ffee
0003
000c
000f
0004
fffb
0001
000b
0009
fff9
0007
000f
000e
000b
0012
fff2
002a
ffca
001d
ffd0
ffd5
ffe3
fff2
ffb1
0007
0046
ffb2
0018
ffec
001b
0027
ffff
0008
fffb
0019
fff7
ffff
0007
0009
fff5
001a
0050
0037
0025
fff2
ffdd
0014
ffd8
0088
ff96
fff2
ffdd
004d
0015
0036
ffc5
ffff
0003
0008
ffe0
0003
fffd
ffec
0003
ffe6
0007
000b
fffc
000f
0028
0020
002d
0007
0031
0024
0063
ffc1
0012
0047
ffd7
ffb1
0011
ffd5
0031
0024
ffe0
0000
0018
000c
000e
001c
0005
000a
0005
fffc
0003
0011
0041
001e
0070
0017
0076
fff5
0072
0012
0062
ff93
ffe9
0020
0025
0024
fffd
fff2
fff2
000e
0007
fff8
0002
001c
fff8
fff6
001b
001c
0007
0008
0001
0009
0000
001c
ff98
ffcd
ff92
ffd1
ffe2
ffd0
ffdc
ff8f
ffef
ffd7
fff9
ffea
fff1
0007
0013
0008
fff9
0003
0014
000d
000d
fffd
001b
fffd
000b
0012
0006
ffe3
ffa7
ffda
ffda
ffe4
ffdc
0013
0019
ffe6
fff2
ffe5
fff3
000e
0000
001d
0017
fff2
0005
fffc
0007
000d
fffa
0002
0005
0006
0000
001f
003b
0034
002c
000b
0017
000f
0035
0034
0052
0037
002a
001d
fff5
0016
0012
0001
0003
0001
0008
fffa
0012
fff9
0004
0010
fffb
0007
000f
fffd
fff3
0009
0002
ffee
0003
ffff
0012
ffea
0007
0003
000b
000e
fff3
fff6
0009
0012
000f
0008
0006
0000
000d
