010e
ffd3
ffb4
fffb
013a
0147
ff8f
0129
ffe9
0139
ffc2
ff7b
ffce
0142
0124
00c2
ff0f
00f1
004e
ff68
012e
0139
0068
013b
00b3
fefa
ff63
ff80
0141
014c
0104
ff19
0121
013f
00a9
0136
ffb9
ffc5
ffef
ffb9
000b
0087
fffb
00c4
0143
00de
0096
ffec
0004
0131
006b
0144
0142
0098
ff12
0135
ff68
fed1
fffc
0127
ff7d
006e
fffd
ffe2
0122
0128
014c
0012
0032
0131
ffb0
0113
0148
0139
0138
ffd0
00ce
ff5a
0013
0131
ff5c
0132
00ad
fffe
ff7c
013a
0079
ff2d
0136
013b
012b
00b7
0119
012f
0148
0141
ffff
000a
0143
fff7
007c
feef
fff3
ff92
ff47
0016
0112
013d
00fc
0014
004b
0126
0123
ffbe
00b6
0005
ff1e
fef3
0123
008a
0127
ff92
0130
001b
009b
00cf
0030
013a
