014b
feaf
ff6a
feb4
0111
0132
feb7
0104
010d
feb2
fe6f
0166
0142
0169
fea8
feaf
fe76
0142
011f
013c
015e
0118
011e
feb0
fff7
0153
fe96
fe90
fe99
fea6
015b
fec2
00ff
fe7b
0178
0162
0104
0143
feb1
fe98
ff79
0135
fe8d
fea6
fe9f
014b
0155
013a
fe97
fe94
fe9d
fe9f
0136
fe98
fe9e
0133
0145
ff7d
0131
fe8f
feab
014a
fedd
fe5f
fec1
010f
fe8d
ff8e
007e
ff43
fe9b
0139
fe9d
fe80
fec6
014e
fea4
ffa2
ff4c
fe8e
00e8
0147
fead
0146
00e9
fefe
feca
013f
fe69
fea5
fe8a
0147
00c8
fece
0101
fe86
014e
fe60
0157
0137
014f
fe5f
fe75
0160
febe
fe69
0135
0142
fe86
fe86
fe84
fe7c
fe80
fe7c
00f0
fe81
fe89
fe87
00e4
fe93
ff7f
012d
fe7c
fea7
fe8d
015c
015d
fe7e
febc
feae
0127
fea0
014d
013e
fed6
0152
fe9a
0159
0146
fe9b
0130
feb0
ff4c
010f
ff9b
0144
fe98
0145
fe7f
fea2
009e
fe7d
fe99
ff26
fe96
0131
014b
015b
fe80
fe88
fe7a
fe8c
fea4
0164
0129
0120
fea5
0121
0133
fe9b
fe98
fe95
0152
fe8e
0132
0124
0139
015b
001f
ff88
ffa9
fe81
013b
ff65
fea2
feb2
fe99
feaf
0147
fe91
0158
0145
feb2
ff84
feab
fe86
fe76
ffe0
016c
0151
0145
016d
fe9e
00fe
fe8f
fe89
fe7c
00c8
0144
febd
00d3
00ff
fe84
fecf
fe70
014a
ff61
0140
feb5
013e
feaf
fea6
013a
fe7e
feca
013f
fe9f
011d
014e
ff83
fe95
febf
ff44
0140
0073
fea2
fed9
fec5
fe66
0127
ff3d
fe77
0131
fe98
fed1
fe81
0141
fe7b
fe9a
fe7f
0137
0167
fe96
0170
fe88
0116
