010e
ffd3
ffb4
fffb
013a
0147
ff8f
0129
ffe9
0139
ffc2
ff7b
ffce
0142
0124
00c2
ff0f
00f1
004e
ff68
012e
0139
0068
013b
00b3
fefa
ff63
ff80
0141
014c
0104
ff19
0121
013f
00a9
0136
ffb9
ffc5
ffef
ffb9
000b
0087
fffb
00c4
0143
00de
0096
ffec
0004
0131
006b
0144
0142
0098
ff12
0135
ff68
fed1
fffc
0127
ff7d
006e
fffd
ffe2
0122
0128
014c
0012
0032
0131
ffb0
0113
0148
0139
0138
ffd0
00ce
ff5a
0013
0131
ff5c
0132
00ad
fffe
ff7c
013a
0079
ff2d
0136
013b
012b
00b7
0119
012f
0148
0141
ffff
000a
0143
fff7
007c
feef
fff3
ff92
ff47
0016
0112
013d
00fc
0014
004b
0126
0123
ffbe
00b6
0005
ff1e
fef3
0123
008a
0127
ff92
0130
001b
009b
00cf
0030
013a
ff99
ffe7
012c
00d2
011a
0122
0059
ffb0
fefa
0047
ff5a
0131
00a8
0148
fef9
0116
007b
ff72
011b
00b2
004e
ff65
fefc
0130
0140
ff87
00f0
0079
0121
ff9e
0139
ff03
0040
013c
0132
00fb
014d
ff0e
fefb
0125
ffa3
ff21
003a
ff9e
0056
0150
0147
00be
ff89
ff21
fee2
002e
0122
ff0b
0135
013f
ff9e
0148
013f
0137
012b
0106
ff78
00e9
fef3
0077
ffb6
0016
ff27
feef
ffe8
fee6
00ee
00c7
ffd1
ffa9
0007
0125
ff8c
012c
ffff
00da
0073
013f
ff38
ff66
0127
0125
ffb1
ff78
0136
011f
012f
fed1
0033
0041
013d
0035
0122
00b5
fe94
00ff
0149
fed6
0158
0124
005c
ff70
0110
0132
0147
ffc3
ffc6
0136
002b
ff88
0079
ff2b
ff05
ff3f
00e7
ff4d
ff49
011f
00e4
0128
fedc
fefc
