0052
fff7
000b
ffeb
0006
0031
0002
0016
ffeb
fffc
0043
ffd5
0017
003e
002d
ffd4
0018
0017
0015
0005
0054
0061
003d
000c
004d
ffe0
0006
0028
006a
0025
ffbd
0013
fff7
0048
0011
005a
ffaf
0006
ffd8
fffa
fff6
0042
ffea
0005
000d
ffee
0012
0034
fff8
0010
ffd4
0040
002c
ffd7
0042
ffdc
ffc1
ffbc
ffcb
0016
ffd4
000e
fff9
0029
0019
0047
0010
ffc9
ffd8
002c
fff7
0035
0060
0027
003d
0024
002b
0003
0027
0029
ffee
005e
fff5
0016
0035
ffda
001a
fff8
0062
001f
0012
fff8
fffb
0029
0001
0053
0033
002d
009d
0012
0008
000e
0016
fff4
0027
ffc3
004a
001f
0016
ffe7
000c
002e
0017
ffb9
ffcd
fff5
0031
0044
ffd2
fff8
001a
000d
ffd1
0037
002d
0015
ffc5
003a
0045
ff66
0016
ffd9
004c
ffea
0058
ffd1
003c
ffa9
fff7
004f
ffdc
0026
ffde
ffef
ffd7
ffee
ffe3
ffcc
ffe5
ffff
fff1
0018
ffd6
fff4
fff4
ffbe
0040
ffc1
0000
ff98
001a
0005
0014
0017
0039
0038
004d
0030
ffe4
0026
001d
fff7
0006
0051
0011
001e
0026
fffd
ffcb
0017
0025
fff8
0019
000d
ffb5
ffeb
0019
002b
fff2
0031
0017
ffbf
ff98
004a
ffe5
ffed
000f
fffa
ff8e
ff95
000c
ff81
0026
0004
005d
fff5
ffdc
000a
0064
0029
ffd0
ffd6
0011
ffe2
003d
001d
ffcb
0026
0001
ffe0
ffde
0073
ffbe
001d
ffe4
0013
0002
ffff
ff85
fff6
002d
ffd6
ffeb
0038
ffe9
ffea
0007
003f
004e
001e
0027
003e
ffe5
fff3
ffd5
ffdd
0004
ffdd
0044
001c
000a
0030
0011
003f
0009
0013
