ffff
0010
0013
0010
000e
ffe9
0019
fffb
fff7
0002
0001
000f
fff7
fffe
fffd
fff7
0009
ffff
0005
fffe
0009
000f
0008
0013
fffe
ffff
0013
fff4
fffb
000d
fffd
000d
0003
0016
0007
0006
000f
0001
fffe
0000
001b
000d
fff7
fffb
0004
fff8
ffe7
fff4
0003
fff6
fffd
0003
0008
000c
fff4
0003
fffe
fffb
0006
fffb
0014
fffe
0003
0000
0004
0000
0007
0007
fff0
0004
fff0
ffff
fff2
0006
0027
0002
ffee
fffc
0007
0007
fffd
fffc
0015
0000
fffc
ffff
0018
0006
000c
0029
000f
0000
fffb
0012
0017
0013
fff3
0006
fffa
ffed
0022
0018
0007
ffec
ffff
000b
0005
0010
0013
000b
0008
fff0
fffe
fffc
fffb
0000
fffe
0002
0019
0008
fff2
000d
0007
ffdb
000b
ffd1
ffeb
ffeb
ffb4
ffc6
ffbe
ffa6
ffcb
ffea
0002
0007
fffd
0008
fff8
0013
0003
0004
ffef
0006
0005
000a
fffc
fff6
0009
0018
0003
ffae
ffd4
fff3
ffad
ffe5
ffa6
ffd7
0004
fff5
ffa9
ffd9
ffd7
fff1
0003
0004
fffe
000a
0009
ffff
ffff
0005
0016
0017
000c
0021
000e
003a
ffdc
003b
fff3
004c
0025
0066
0015
0048
000d
0023
ffc9
0009
0013
002b
ffe2
ffff
0003
ffff
fff2
000c
000b
fff5
0018
fff7
fff5
ffe4
002c
003f
ffcf
fff2
ffe5
0024
ffe3
0008
ff9f
ffca
000b
fff2
fff1
0008
fff9
0013
0005
fffb
fff2
000d
fffe
0004
0003
fffa
ffe9
000e
001a
ffef
fff9
0005
fffc
fff0
003a
ffef
ffbd
0014
ff9b
0078
ff6f
0016
ffef
000d
0007
0021
0015
0015
fff1
0001
0004
0007
0012
0015
ffff
0010
0013
0010
000e
ffe9
0019
fffb
fff7
0002
0001
000f
fff7
fffe
fffd
fff7
0009
ffff
0005
fffe
0009
000f
0008
0013
fffe
ffff
0013
fff4
fffb
000d
fffd
000d
0003
0016
0007
0006
000f
0001
fffe
0000
001b
000d
fff7
fffb
0004
fff8
ffe7
fff4
0003
fff6
fffd
0003
0008
000c
fff4
0003
fffe
fffb
0006
fffb
0014
fffe
0003
0000
0004
0000
0007
0007
fff0
0004
fff0
ffff
fff2
0006
0027
0002
ffee
fffc
0007
0007
fffd
fffc
0015
0000
fffc
ffff
0018
0006
000c
0029
000f
0000
fffb
0012
0017
0013
fff3
0006
fffa
ffed
0022
0018
0007
ffec
ffff
000b
0005
0010
0013
000b
0008
fff0
fffe
fffc
fffb
0000
fffe
0002
0019
0008
fff2
000d
0007
ffdb
000b
ffd1
ffeb
ffeb
ffb4
ffc6
ffbe
ffa6
ffcb
ffea
0002
0007
fffd
0008
fff8
0013
0003
0004
ffef
0006
0005
000a
fffc
fff6
0009
0018
0003
ffae
ffd4
fff3
ffad
ffe5
ffa6
ffd7
0004
fff5
ffa9
ffd9
ffd7
fff1
0003
0004
fffe
000a
0009
ffff
ffff
0005
0016
0017
000c
0021
000e
003a
ffdc
003b
fff3
004c
0025
0066
0015
0048
000d
0023
ffc9
0009
0013
002b
ffe2
ffff
0003
ffff
fff2
000c
000b
fff5
0018
fff7
fff5
ffe4
002c
003f
ffcf
fff2
ffe5
0024
ffe3
0008
ff9f
ffca
000b
fff2
fff1
0008
fff9
0013
0005
fffb
fff2
000d
fffe
0004
0003
fffa
ffe9
000e
001a
ffef
fff9
0005
fffc
fff0
003a
ffef
ffbd
0014
ff9b
0078
ff6f
0016
ffef
000d
0007
0021
0015
0015
fff1
0001
0004
0007
0012
0015
ffff
0010
0013
0010
000e
ffe9
0019
fffb
fff7
0002
0001
000f
fff7
fffe
fffd
fff7
0009
ffff
0005
fffe
0009
000f
0008
0013
fffe
ffff
0013
fff4
fffb
000d
fffd
000d
0003
0016
0007
0006
000f
0001
fffe
0000
001b
000d
fff7
fffb
0004
fff8
ffe7
fff4
0003
fff6
fffd
0003
0008
000c
fff4
0003
fffe
fffb
0006
fffb
0014
fffe
0003
0000
0004
0000
0007
0007
fff0
0004
fff0
ffff
fff2
0006
0027
0002
ffee
fffc
0007
0007
fffd
fffc
0015
0000
fffc
ffff
0018
0006
000c
0029
000f
0000
fffb
0012
0017
0013
fff3
0006
fffa
ffed
0022
0018
0007
ffec
ffff
000b
0005
0010
0013
000b
0008
fff0
fffe
fffc
fffb
0000
fffe
0002
0019
0008
fff2
000d
0007
ffdb
000b
ffd1
ffeb
ffeb
ffb4
ffc6
ffbe
ffa6
ffcb
ffea
0002
0007
fffd
0008
fff8
0013
0003
0004
ffef
0006
0005
000a
fffc
fff6
0009
0018
0003
ffae
ffd4
fff3
ffad
ffe5
ffa6
ffd7
0004
fff5
ffa9
ffd9
ffd7
fff1
0003
0004
fffe
000a
0009
ffff
ffff
0005
0016
0017
000c
0021
000e
003a
ffdc
003b
fff3
004c
0025
0066
0015
0048
000d
0023
ffc9
0009
0013
002b
ffe2
ffff
0003
ffff
fff2
000c
000b
fff5
0018
fff7
fff5
ffe4
002c
003f
ffcf
fff2
ffe5
0024
ffe3
0008
ff9f
ffca
000b
fff2
fff1
0008
fff9
0013
0005
fffb
fff2
000d
fffe
0004
0003
fffa
ffe9
000e
001a
ffef
fff9
0005
fffc
fff0
003a
ffef
ffbd
0014
ff9b
0078
ff6f
0016
ffef
000d
0007
0021
0015
0015
fff1
0001
0004
0007
0012
0015
ffff
0010
0013
0010
000e
ffe9
0019
fffb
fff7
0002
0001
000f
fff7
fffe
fffd
fff7
0009
ffff
0005
fffe
0009
000f
0008
0013
fffe
ffff
0013
fff4
fffb
000d
fffd
000d
0003
0016
0007
0006
000f
0001
fffe
0000
001b
000d
fff7
fffb
0004
fff8
ffe7
fff4
0003
fff6
fffd
0003
0008
000c
fff4
0003
fffe
fffb
0006
fffb
0014
fffe
0003
0000
0004
0000
0007
0007
fff0
0004
fff0
ffff
fff2
0006
0027
0002
ffee
fffc
0007
0007
fffd
fffc
0015
0000
fffc
ffff
0018
0006
000c
0029
000f
0000
fffb
0012
0017
0013
fff3
0006
fffa
ffed
0022
0018
0007
ffec
ffff
000b
0005
0010
0013
000b
0008
fff0
fffe
fffc
fffb
0000
fffe
0002
0019
0008
fff2
000d
0007
ffdb
000b
ffd1
ffeb
ffeb
ffb4
ffc6
ffbe
ffa6
ffcb
ffea
0002
0007
fffd
0008
fff8
0013
0003
0004
ffef
0006
0005
000a
fffc
fff6
0009
0018
0003
ffae
ffd4
fff3
ffad
ffe5
ffa6
ffd7
0004
fff5
ffa9
ffd9
ffd7
fff1
0003
0004
fffe
000a
0009
ffff
ffff
0005
0016
0017
000c
0021
000e
003a
ffdc
003b
fff3
004c
0025
0066
0015
0048
000d
0023
ffc9
0009
0013
002b
ffe2
ffff
0003
ffff
fff2
000c
000b
fff5
0018
fff7
fff5
ffe4
002c
003f
ffcf
fff2
ffe5
0024
ffe3
0008
ff9f
ffca
000b
fff2
fff1
0008
fff9
0013
0005
fffb
fff2
000d
fffe
0004
0003
fffa
ffe9
000e
001a
ffef
fff9
0005
fffc
fff0
003a
ffef
ffbd
0014
ff9b
0078
ff6f
0016
ffef
000d
0007
0021
0015
0015
fff1
0001
0004
0007
0012
0015
ffff
0010
0013
0010
000e
ffe9
0019
fffb
fff7
0002
0001
000f
fff7
fffe
fffd
fff7
0009
ffff
0005
fffe
0009
000f
0008
0013
fffe
ffff
0013
fff4
fffb
000d
fffd
000d
0003
0016
0007
0006
000f
0001
fffe
0000
001b
000d
fff7
fffb
0004
fff8
ffe7
fff4
0003
fff6
fffd
0003
0008
000c
fff4
0003
fffe
fffb
0006
fffb
0014
fffe
0003
0000
0004
0000
0007
0007
fff0
0004
fff0
ffff
fff2
0006
0027
0002
ffee
fffc
0007
0007
fffd
fffc
0015
0000
fffc
ffff
0018
0006
000c
0029
000f
0000
fffb
0012
0017
0013
fff3
0006
fffa
ffed
0022
0018
0007
ffec
ffff
000b
0005
0010
0013
000b
0008
fff0
fffe
fffc
fffb
0000
fffe
0002
0019
0008
fff2
000d
0007
ffdb
000b
ffd1
ffeb
ffeb
ffb4
ffc6
ffbe
ffa6
ffcb
ffea
0002
0007
fffd
0008
fff8
0013
0003
0004
ffef
0006
0005
000a
fffc
fff6
0009
0018
0003
ffae
ffd4
fff3
ffad
ffe5
ffa6
ffd7
0004
fff5
ffa9
ffd9
ffd7
fff1
0003
0004
fffe
000a
0009
ffff
ffff
0005
0016
0017
000c
0021
000e
003a
ffdc
003b
fff3
004c
0025
0066
0015
0048
000d
0023
ffc9
0009
0013
002b
ffe2
ffff
0003
ffff
fff2
000c
000b
fff5
0018
fff7
fff5
ffe4
002c
003f
ffcf
fff2
ffe5
0024
ffe3
0008
ff9f
ffca
000b
fff2
fff1
0008
fff9
0013
0005
fffb
fff2
000d
fffe
0004
0003
fffa
ffe9
000e
001a
ffef
fff9
0005
fffc
fff0
003a
ffef
ffbd
0014
ff9b
0078
ff6f
0016
ffef
000d
0007
0021
0015
0015
fff1
0001
0004
0007
0012
0015
ffff
0010
0013
0010
000e
ffe9
0019
fffb
fff7
0002
0001
000f
fff7
fffe
fffd
fff7
0009
ffff
0005
fffe
0009
000f
0008
0013
fffe
ffff
0013
fff4
fffb
000d
fffd
000d
0003
0016
0007
0006
000f
0001
fffe
0000
001b
000d
fff7
fffb
0004
fff8
ffe7
fff4
0003
fff6
fffd
0003
0008
000c
fff4
0003
fffe
fffb
0006
fffb
0014
fffe
0003
0000
0004
0000
0007
0007
fff0
0004
fff0
ffff
fff2
0006
0027
0002
ffee
fffc
0007
0007
fffd
fffc
0015
0000
fffc
ffff
0018
0006
000c
0029
000f
0000
fffb
0012
0017
0013
fff3
0006
fffa
ffed
0022
0018
0007
ffec
ffff
000b
0005
0010
0013
000b
0008
fff0
fffe
fffc
fffb
0000
fffe
0002
0019
0008
fff2
000d
0007
ffdb
000b
ffd1
ffeb
ffeb
ffb4
ffc6
ffbe
ffa6
ffcb
ffea
0002
0007
fffd
0008
fff8
0013
0003
0004
ffef
0006
0005
000a
fffc
fff6
0009
0018
0003
ffae
ffd4
fff3
ffad
ffe5
ffa6
ffd7
0004
fff5
ffa9
ffd9
ffd7
fff1
0003
0004
fffe
000a
0009
ffff
ffff
0005
0016
0017
000c
0021
000e
003a
ffdc
003b
fff3
004c
0025
0066
0015
0048
000d
0023
ffc9
0009
0013
002b
ffe2
ffff
0003
ffff
fff2
000c
000b
fff5
0018
fff7
fff5
ffe4
002c
003f
ffcf
fff2
ffe5
0024
ffe3
0008
ff9f
ffca
000b
fff2
fff1
0008
fff9
0013
0005
fffb
fff2
000d
fffe
0004
0003
fffa
ffe9
000e
001a
ffef
fff9
0005
fffc
fff0
003a
ffef
ffbd
0014
ff9b
0078
ff6f
0016
ffef
000d
0007
0021
0015
0015
fff1
0001
0004
0007
0012
0015
ffff
0010
0013
0010
000e
ffe9
0019
fffb
fff7
0002
0001
000f
fff7
fffe
fffd
fff7
0009
ffff
0005
fffe
0009
000f
0008
0013
fffe
ffff
0013
fff4
fffb
000d
fffd
000d
0003
0016
0007
0006
000f
0001
fffe
0000
001b
000d
fff7
fffb
0004
fff8
ffe7
fff4
0003
fff6
fffd
0003
0008
000c
fff4
0003
fffe
fffb
0006
fffb
0014
fffe
0003
0000
0004
0000
0007
0007
fff0
0004
fff0
ffff
fff2
0006
0027
0002
ffee
fffc
0007
0007
fffd
fffc
0015
0000
fffc
ffff
0018
0006
000c
0029
000f
0000
fffb
0012
0017
0013
fff3
0006
fffa
ffed
0022
0018
0007
ffec
ffff
000b
0005
0010
0013
000b
0008
fff0
fffe
fffc
fffb
0000
fffe
0002
0019
0008
fff2
000d
0007
ffdb
000b
ffd1
ffeb
ffeb
ffb4
ffc6
ffbe
ffa6
ffcb
ffea
0002
0007
fffd
0008
fff8
0013
0003
0004
ffef
0006
0005
000a
fffc
fff6
0009
0018
0003
ffae
ffd4
fff3
ffad
ffe5
ffa6
ffd7
0004
fff5
ffa9
ffd9
ffd7
fff1
0003
0004
fffe
000a
0009
ffff
ffff
0005
0016
0017
000c
0021
000e
003a
ffdc
003b
fff3
004c
0025
0066
0015
0048
000d
0023
ffc9
0009
0013
002b
ffe2
ffff
0003
ffff
fff2
000c
000b
fff5
0018
fff7
fff5
ffe4
002c
003f
ffcf
fff2
ffe5
0024
ffe3
0008
ff9f
ffca
000b
fff2
fff1
0008
fff9
0013
0005
fffb
fff2
000d
fffe
0004
0003
fffa
ffe9
000e
001a
ffef
fff9
0005
fffc
fff0
003a
ffef
ffbd
0014
ff9b
0078
ff6f
0016
ffef
000d
0007
0021
0015
0015
fff1
0001
0004
0007
0012
0015
ffff
0010
0013
0010
000e
ffe9
0019
fffb
fff7
0002
0001
000f
fff7
fffe
fffd
fff7
0009
ffff
0005
fffe
0009
000f
0008
0013
fffe
ffff
0013
fff4
fffb
000d
fffd
000d
0003
0016
0007
0006
000f
0001
fffe
0000
001b
000d
fff7
fffb
0004
fff8
ffe7
fff4
0003
fff6
fffd
0003
0008
000c
fff4
0003
fffe
fffb
0006
fffb
0014
fffe
0003
0000
0004
0000
0007
0007
fff0
0004
fff0
ffff
fff2
0006
0027
0002
ffee
fffc
0007
0007
fffd
fffc
0015
0000
fffc
ffff
0018
0006
000c
0029
000f
0000
fffb
0012
0017
0013
fff3
0006
fffa
ffed
0022
0018
0007
ffec
ffff
000b
0005
0010
0013
000b
0008
fff0
fffe
fffc
fffb
0000
fffe
0002
0019
0008
fff2
000d
0007
ffdb
000b
ffd1
ffeb
ffeb
ffb4
ffc6
ffbe
ffa6
ffcb
ffea
0002
0007
fffd
0008
fff8
0013
0003
0004
ffef
0006
0005
000a
fffc
fff6
0009
0018
0003
ffae
ffd4
fff3
ffad
ffe5
ffa6
ffd7
0004
fff5
ffa9
ffd9
ffd7
fff1
0003
0004
fffe
000a
0009
ffff
ffff
0005
0016
0017
000c
0021
000e
003a
ffdc
003b
fff3
004c
0025
0066
0015
0048
000d
0023
ffc9
0009
0013
002b
ffe2
ffff
0003
ffff
fff2
000c
000b
fff5
0018
fff7
fff5
ffe4
002c
003f
ffcf
fff2
ffe5
0024
ffe3
0008
ff9f
ffca
000b
fff2
fff1
0008
fff9
0013
0005
fffb
fff2
000d
fffe
0004
0003
fffa
ffe9
000e
001a
ffef
fff9
0005
fffc
fff0
003a
ffef
ffbd
0014
ff9b
0078
ff6f
0016
ffef
000d
0007
0021
0015
0015
fff1
0001
0004
0007
0012
0015
ffff
0010
0013
0010
000e
ffe9
0019
fffb
fff7
0002
0001
000f
fff7
fffe
fffd
fff7
0009
ffff
0005
fffe
0009
000f
0008
0013
fffe
ffff
0013
fff4
fffb
000d
fffd
000d
0003
0016
0007
0006
000f
0001
fffe
0000
001b
000d
fff7
fffb
0004
fff8
ffe7
fff4
0003
fff6
fffd
0003
0008
000c
fff4
0003
fffe
fffb
0006
fffb
0014
fffe
0003
0000
0004
0000
0007
0007
fff0
0004
fff0
ffff
fff2
0006
0027
0002
ffee
fffc
0007
0007
fffd
fffc
0015
0000
fffc
ffff
0018
0006
000c
0029
000f
0000
fffb
0012
0017
0013
fff3
0006
fffa
ffed
0022
0018
0007
ffec
ffff
000b
0005
0010
0013
000b
0008
fff0
fffe
fffc
fffb
0000
fffe
0002
0019
0008
fff2
000d
0007
ffdb
000b
ffd1
ffeb
ffeb
ffb4
ffc6
ffbe
ffa6
ffcb
ffea
0002
0007
fffd
0008
fff8
0013
0003
0004
ffef
0006
0005
000a
fffc
fff6
0009
0018
0003
ffae
ffd4
fff3
ffad
ffe5
ffa6
ffd7
0004
fff5
ffa9
ffd9
ffd7
fff1
0003
0004
fffe
000a
0009
ffff
ffff
0005
0016
0017
000c
0021
000e
003a
ffdc
003b
fff3
004c
0025
0066
0015
0048
000d
0023
ffc9
0009
0013
002b
ffe2
ffff
0003
ffff
fff2
000c
000b
fff5
0018
fff7
fff5
ffe4
002c
003f
ffcf
fff2
ffe5
0024
ffe3
0008
ff9f
ffca
000b
fff2
fff1
0008
fff9
0013
0005
fffb
fff2
000d
fffe
0004
0003
fffa
ffe9
000e
001a
ffef
fff9
0005
fffc
fff0
003a
ffef
ffbd
0014
ff9b
0078
ff6f
0016
ffef
000d
0007
0021
0015
0015
fff1
0001
0004
0007
0012
0015
ffff
0010
0013
0010
000e
ffe9
0019
fffb
fff7
0002
0001
000f
fff7
fffe
fffd
fff7
0009
ffff
0005
fffe
0009
000f
0008
0013
fffe
ffff
0013
fff4
fffb
000d
fffd
000d
0003
0016
0007
0006
000f
0001
fffe
0000
001b
000d
fff7
fffb
0004
fff8
ffe7
fff4
0003
fff6
fffd
0003
0008
000c
fff4
0003
fffe
fffb
0006
fffb
0014
fffe
0003
0000
0004
0000
0007
0007
fff0
0004
fff0
ffff
fff2
0006
0027
0002
ffee
fffc
0007
0007
fffd
fffc
0015
0000
fffc
ffff
0018
0006
000c
0029
000f
0000
fffb
0012
0017
0013
fff3
0006
fffa
ffed
0022
0018
0007
ffec
ffff
000b
0005
0010
0013
000b
0008
fff0
fffe
fffc
fffb
0000
fffe
0002
0019
0008
fff2
000d
0007
ffdb
000b
ffd1
ffeb
ffeb
ffb4
ffc6
ffbe
ffa6
ffcb
ffea
0002
0007
fffd
0008
fff8
0013
0003
0004
ffef
0006
0005
000a
fffc
fff6
0009
0018
0003
ffae
ffd4
fff3
ffad
ffe5
ffa6
ffd7
0004
fff5
ffa9
ffd9
ffd7
fff1
0003
0004
fffe
000a
0009
ffff
ffff
0005
0016
0017
000c
0021
000e
003a
ffdc
003b
fff3
004c
0025
0066
0015
0048
000d
0023
ffc9
0009
0013
002b
ffe2
ffff
0003
ffff
fff2
000c
000b
fff5
0018
fff7
fff5
ffe4
002c
003f
ffcf
fff2
ffe5
0024
ffe3
0008
ff9f
ffca
000b
fff2
fff1
0008
fff9
0013
0005
fffb
fff2
000d
fffe
0004
0003
fffa
ffe9
000e
001a
ffef
fff9
0005
fffc
fff0
003a
ffef
ffbd
0014
ff9b
0078
ff6f
0016
ffef
000d
0007
0021
0015
0015
fff1
0001
0004
0007
0012
0015
ffff
0010
0013
0010
000e
ffe9
0019
fffb
fff7
0002
0001
000f
fff7
fffe
fffd
fff7
0009
ffff
0005
fffe
0009
000f
0008
0013
fffe
ffff
0013
fff4
fffb
000d
fffd
000d
0003
0016
0007
0006
000f
0001
fffe
0000
001b
000d
fff7
fffb
0004
fff8
ffe7
fff4
0003
fff6
fffd
0003
0008
000c
fff4
0003
fffe
fffb
0006
fffb
0014
fffe
0003
0000
0004
0000
0007
0007
fff0
0004
fff0
ffff
fff2
0006
0027
0002
ffee
fffc
0007
0007
fffd
fffc
0015
0000
fffc
ffff
0018
0006
000c
0029
000f
0000
fffb
0012
0017
0013
fff3
0006
fffa
ffed
0022
0018
0007
ffec
ffff
000b
0005
0010
0013
000b
0008
fff0
fffe
fffc
fffb
0000
fffe
0002
0019
0008
fff2
000d
0007
ffdb
000b
ffd1
ffeb
ffeb
ffb4
ffc6
ffbe
ffa6
ffcb
ffea
0002
0007
fffd
0008
fff8
0013
0003
0004
ffef
0006
0005
000a
fffc
fff6
0009
0018
0003
ffae
ffd4
fff3
ffad
ffe5
ffa6
ffd7
0004
fff5
ffa9
ffd9
ffd7
fff1
0003
0004
fffe
000a
0009
ffff
ffff
0005
0016
0017
000c
0021
000e
003a
ffdc
003b
fff3
004c
0025
0066
0015
0048
000d
0023
ffc9
0009
0013
002b
ffe2
ffff
0003
ffff
fff2
000c
000b
fff5
0018
fff7
fff5
ffe4
002c
003f
ffcf
fff2
ffe5
0024
ffe3
0008
ff9f
ffca
000b
fff2
fff1
0008
fff9
0013
0005
fffb
fff2
000d
fffe
0004
0003
fffa
ffe9
000e
001a
ffef
fff9
0005
fffc
fff0
003a
ffef
ffbd
0014
ff9b
0078
ff6f
0016
ffef
000d
0007
0021
0015
0015
fff1
0001
0004
0007
0012
0015
ffff
0010
0013
0010
000e
ffe9
0019
fffb
fff7
0002
0001
000f
fff7
fffe
fffd
fff7
0009
ffff
0005
fffe
0009
000f
0008
0013
fffe
ffff
0013
fff4
fffb
000d
fffd
000d
0003
0016
0007
0006
000f
0001
fffe
0000
001b
000d
fff7
fffb
0004
fff8
ffe7
fff4
0003
fff6
fffd
0003
0008
000c
fff4
0003
fffe
fffb
0006
fffb
0014
fffe
0003
0000
0004
0000
0007
0007
fff0
0004
fff0
ffff
fff2
0006
0027
0002
ffee
fffc
0007
0007
fffd
fffc
0015
0000
fffc
ffff
0018
0006
000c
0029
000f
0000
fffb
0012
0017
0013
fff3
0006
fffa
ffed
0022
0018
0007
ffec
ffff
000b
0005
0010
0013
000b
0008
fff0
fffe
fffc
fffb
0000
fffe
0002
0019
0008
fff2
000d
0007
ffdb
000b
ffd1
ffeb
ffeb
ffb4
ffc6
ffbe
ffa6
ffcb
ffea
0002
0007
fffd
0008
fff8
0013
0003
0004
ffef
0006
0005
000a
fffc
fff6
0009
0018
0003
ffae
ffd4
fff3
ffad
ffe5
ffa6
ffd7
0004
fff5
ffa9
ffd9
ffd7
fff1
0003
0004
fffe
000a
0009
ffff
ffff
0005
0016
0017
000c
0021
000e
003a
ffdc
003b
fff3
004c
0025
0066
0015
0048
000d
0023
ffc9
0009
0013
002b
ffe2
ffff
0003
ffff
fff2
000c
000b
fff5
0018
fff7
fff5
ffe4
002c
003f
ffcf
fff2
ffe5
0024
ffe3
0008
ff9f
ffca
000b
fff2
fff1
0008
fff9
0013
0005
fffb
fff2
000d
fffe
0004
0003
fffa
ffe9
000e
001a
ffef
fff9
0005
fffc
fff0
003a
ffef
ffbd
0014
ff9b
0078
ff6f
0016
ffef
000d
0007
0021
0015
0015
fff1
0001
0004
0007
0012
0015
ffff
0010
0013
0010
000e
ffe9
0019
fffb
fff7
0002
0001
000f
fff7
fffe
fffd
fff7
0009
ffff
0005
fffe
0009
000f
0008
0013
fffe
ffff
0013
fff4
fffb
000d
fffd
000d
0003
0016
0007
0006
000f
0001
fffe
0000
001b
000d
fff7
fffb
0004
fff8
ffe7
fff4
0003
fff6
fffd
0003
0008
000c
fff4
0003
fffe
fffb
0006
fffb
0014
fffe
0003
0000
0004
0000
0007
0007
fff0
0004
fff0
ffff
fff2
0006
0027
0002
ffee
fffc
0007
0007
fffd
fffc
0015
0000
fffc
ffff
0018
0006
000c
0029
000f
0000
fffb
0012
0017
0013
fff3
0006
fffa
ffed
0022
0018
0007
ffec
ffff
000b
0005
0010
0013
000b
0008
fff0
fffe
fffc
fffb
0000
fffe
0002
0019
0008
fff2
000d
0007
ffdb
000b
ffd1
ffeb
ffeb
ffb4
ffc6
ffbe
ffa6
ffcb
ffea
0002
0007
fffd
0008
fff8
0013
0003
0004
ffef
0006
0005
000a
fffc
fff6
0009
0018
0003
ffae
ffd4
fff3
ffad
ffe5
ffa6
ffd7
0004
fff5
ffa9
ffd9
ffd7
fff1
0003
0004
fffe
000a
0009
ffff
ffff
0005
0016
0017
000c
0021
000e
003a
ffdc
003b
fff3
004c
0025
0066
0015
0048
000d
0023
ffc9
0009
0013
002b
ffe2
ffff
0003
ffff
fff2
000c
000b
fff5
0018
fff7
fff5
ffe4
002c
003f
ffcf
fff2
ffe5
0024
ffe3
0008
ff9f
ffca
000b
fff2
fff1
0008
fff9
0013
0005
fffb
fff2
000d
fffe
0004
0003
fffa
ffe9
000e
001a
ffef
fff9
0005
fffc
fff0
003a
ffef
ffbd
0014
ff9b
0078
ff6f
0016
ffef
000d
0007
0021
0015
0015
fff1
0001
0004
0007
0012
0015
ffff
0010
0013
0010
000e
ffe9
0019
fffb
fff7
0002
0001
000f
fff7
fffe
fffd
fff7
0009
ffff
0005
fffe
0009
000f
0008
0013
fffe
ffff
0013
fff4
fffb
000d
fffd
000d
0003
0016
0007
0006
000f
0001
fffe
0000
001b
000d
fff7
fffb
0004
fff8
ffe7
fff4
0003
fff6
fffd
0003
0008
000c
fff4
0003
fffe
fffb
0006
fffb
0014
fffe
0003
0000
0004
0000
0007
0007
fff0
0004
fff0
ffff
fff2
0006
0027
0002
ffee
fffc
0007
0007
fffd
fffc
0015
0000
fffc
ffff
0018
0006
000c
0029
000f
0000
fffb
0012
0017
0013
fff3
0006
fffa
ffed
0022
0018
0007
ffec
ffff
000b
0005
0010
0013
000b
0008
fff0
fffe
fffc
fffb
0000
fffe
0002
0019
0008
fff2
000d
0007
ffdb
000b
ffd1
ffeb
ffeb
ffb4
ffc6
ffbe
ffa6
ffcb
ffea
0002
0007
fffd
0008
fff8
0013
0003
0004
ffef
0006
0005
000a
fffc
fff6
0009
0018
0003
ffae
ffd4
fff3
ffad
ffe5
ffa6
ffd7
0004
fff5
ffa9
ffd9
ffd7
fff1
0003
0004
fffe
000a
0009
ffff
ffff
0005
0016
0017
000c
0021
000e
003a
ffdc
003b
fff3
004c
0025
0066
0015
0048
000d
0023
ffc9
0009
0013
002b
ffe2
ffff
0003
ffff
fff2
000c
000b
fff5
0018
fff7
fff5
ffe4
002c
003f
ffcf
fff2
ffe5
0024
ffe3
0008
ff9f
ffca
000b
fff2
fff1
0008
fff9
0013
0005
fffb
fff2
000d
fffe
0004
0003
fffa
ffe9
000e
001a
ffef
fff9
0005
fffc
fff0
003a
ffef
ffbd
0014
ff9b
0078
ff6f
0016
ffef
000d
0007
0021
0015
0015
fff1
0001
0004
0007
0012
0015
ffff
0010
0013
0010
000e
ffe9
0019
fffb
fff7
0002
0001
000f
fff7
fffe
fffd
fff7
0009
ffff
0005
fffe
0009
000f
0008
0013
fffe
ffff
0013
fff4
fffb
000d
fffd
000d
0003
0016
0007
0006
000f
0001
fffe
0000
001b
000d
fff7
fffb
0004
fff8
ffe7
fff4
0003
fff6
fffd
0003
0008
000c
fff4
0003
fffe
fffb
0006
fffb
0014
fffe
0003
0000
0004
0000
0007
0007
fff0
0004
fff0
ffff
fff2
0006
0027
0002
ffee
fffc
0007
0007
fffd
fffc
0015
0000
fffc
ffff
0018
0006
000c
0029
000f
0000
fffb
0012
0017
0013
fff3
0006
fffa
ffed
0022
0018
0007
ffec
ffff
000b
0005
0010
0013
000b
0008
fff0
fffe
fffc
fffb
0000
fffe
0002
0019
0008
fff2
000d
0007
ffdb
000b
ffd1
ffeb
ffeb
ffb4
ffc6
ffbe
ffa6
ffcb
ffea
0002
0007
fffd
0008
fff8
0013
0003
0004
ffef
0006
0005
000a
fffc
fff6
0009
0018
0003
ffae
ffd4
fff3
ffad
ffe5
ffa6
ffd7
0004
fff5
ffa9
ffd9
ffd7
fff1
0003
0004
fffe
000a
0009
ffff
ffff
0005
0016
0017
000c
0021
000e
003a
ffdc
003b
fff3
004c
0025
0066
0015
0048
000d
0023
ffc9
0009
0013
002b
ffe2
ffff
0003
ffff
fff2
000c
000b
fff5
0018
fff7
fff5
ffe4
002c
003f
ffcf
fff2
ffe5
0024
ffe3
0008
ff9f
ffca
000b
fff2
fff1
0008
fff9
0013
0005
fffb
fff2
000d
fffe
0004
0003
fffa
ffe9
000e
001a
ffef
fff9
0005
fffc
fff0
003a
ffef
ffbd
0014
ff9b
0078
ff6f
0016
ffef
000d
0007
0021
0015
0015
fff1
0001
0004
0007
0012
0015
ffff
0010
0013
0010
000e
ffe9
0019
fffb
fff7
0002
0001
000f
fff7
fffe
fffd
fff7
0009
ffff
0005
fffe
0009
000f
0008
0013
fffe
ffff
0013
fff4
fffb
000d
fffd
000d
0003
0016
0007
0006
000f
0001
fffe
0000
001b
000d
fff7
fffb
0004
fff8
ffe7
fff4
0003
fff6
fffd
0003
0008
000c
fff4
0003
fffe
fffb
0006
fffb
0014
fffe
0003
0000
0004
0000
0007
0007
fff0
0004
fff0
ffff
fff2
0006
0027
0002
ffee
fffc
0007
0007
fffd
fffc
0015
0000
fffc
ffff
0018
0006
000c
0029
000f
0000
fffb
0012
0017
0013
fff3
0006
fffa
ffed
0022
0018
0007
ffec
ffff
000b
0005
0010
0013
000b
0008
fff0
fffe
fffc
fffb
0000
fffe
0002
0019
0008
fff2
000d
0007
ffdb
000b
ffd1
ffeb
ffeb
ffb4
ffc6
ffbe
ffa6
ffcb
ffea
0002
0007
fffd
0008
fff8
0013
0003
0004
ffef
0006
0005
000a
fffc
fff6
0009
0018
0003
ffae
ffd4
fff3
ffad
ffe5
ffa6
ffd7
0004
fff5
ffa9
ffd9
ffd7
fff1
0003
0004
fffe
000a
0009
ffff
ffff
0005
0016
0017
000c
0021
000e
003a
ffdc
003b
fff3
004c
0025
0066
0015
0048
000d
0023
ffc9
0009
0013
002b
ffe2
ffff
0003
ffff
fff2
000c
000b
fff5
0018
fff7
fff5
ffe4
002c
003f
ffcf
fff2
ffe5
0024
ffe3
0008
ff9f
ffca
000b
fff2
fff1
0008
fff9
0013
0005
fffb
fff2
000d
fffe
0004
0003
fffa
ffe9
000e
001a
ffef
fff9
0005
fffc
fff0
003a
ffef
ffbd
0014
ff9b
0078
ff6f
0016
ffef
000d
0007
0021
0015
0015
fff1
0001
0004
0007
0012
0015
ffff
0010
0013
0010
000e
ffe9
0019
fffb
fff7
0002
0001
000f
fff7
fffe
fffd
fff7
0009
ffff
0005
fffe
0009
000f
0008
0013
fffe
ffff
0013
fff4
fffb
000d
fffd
000d
0003
0016
0007
0006
000f
0001
fffe
0000
001b
000d
fff7
fffb
0004
fff8
ffe7
fff4
0003
fff6
fffd
0003
0008
000c
fff4
0003
fffe
fffb
0006
fffb
0014
fffe
0003
0000
0004
0000
0007
0007
fff0
0004
fff0
ffff
fff2
0006
0027
0002
ffee
fffc
0007
0007
fffd
fffc
0015
0000
fffc
ffff
0018
0006
000c
0029
000f
0000
fffb
0012
0017
0013
fff3
0006
fffa
ffed
0022
0018
0007
ffec
ffff
000b
0005
0010
0013
000b
0008
fff0
fffe
fffc
fffb
0000
fffe
0002
0019
0008
fff2
000d
0007
ffdb
000b
ffd1
ffeb
ffeb
ffb4
ffc6
ffbe
ffa6
ffcb
ffea
0002
0007
fffd
0008
fff8
0013
0003
0004
ffef
0006
0005
000a
fffc
fff6
0009
0018
0003
ffae
ffd4
fff3
ffad
ffe5
ffa6
ffd7
0004
fff5
ffa9
ffd9
ffd7
fff1
0003
0004
fffe
000a
0009
ffff
ffff
0005
0016
0017
000c
0021
000e
003a
ffdc
003b
fff3
004c
0025
0066
0015
0048
000d
0023
ffc9
0009
0013
002b
ffe2
ffff
0003
ffff
fff2
000c
000b
fff5
0018
fff7
fff5
ffe4
002c
003f
ffcf
fff2
ffe5
0024
ffe3
0008
ff9f
ffca
000b
fff2
fff1
0008
fff9
0013
0005
fffb
fff2
000d
fffe
0004
0003
fffa
ffe9
000e
001a
ffef
fff9
0005
fffc
fff0
003a
ffef
ffbd
0014
ff9b
0078
ff6f
0016
ffef
000d
0007
0021
0015
0015
fff1
0001
0004
0007
0012
0015
ffff
0010
0013
0010
000e
ffe9
0019
fffb
fff7
0002
0001
000f
fff7
fffe
fffd
fff7
0009
ffff
0005
fffe
0009
000f
0008
0013
fffe
ffff
0013
fff4
fffb
000d
fffd
000d
0003
0016
0007
0006
000f
0001
fffe
0000
001b
000d
fff7
fffb
0004
fff8
ffe7
fff4
0003
fff6
fffd
0003
0008
000c
fff4
0003
fffe
fffb
0006
fffb
0014
fffe
0003
0000
0004
0000
0007
0007
fff0
0004
fff0
ffff
fff2
0006
0027
0002
ffee
fffc
0007
0007
fffd
fffc
0015
0000
fffc
ffff
0018
0006
000c
0029
000f
0000
fffb
0012
0017
0013
fff3
0006
fffa
ffed
0022
0018
0007
ffec
ffff
000b
0005
0010
0013
000b
0008
fff0
fffe
fffc
fffb
0000
fffe
0002
0019
0008
fff2
000d
0007
ffdb
000b
ffd1
ffeb
ffeb
ffb4
ffc6
ffbe
ffa6
ffcb
ffea
0002
0007
fffd
0008
fff8
0013
0003
0004
ffef
0006
0005
000a
fffc
fff6
0009
0018
0003
ffae
ffd4
fff3
ffad
ffe5
ffa6
ffd7
0004
fff5
ffa9
ffd9
ffd7
fff1
0003
0004
fffe
000a
0009
ffff
ffff
0005
0016
0017
000c
0021
000e
003a
ffdc
003b
fff3
004c
0025
0066
0015
0048
000d
0023
ffc9
0009
0013
002b
ffe2
ffff
0003
ffff
fff2
000c
000b
fff5
0018
fff7
fff5
ffe4
002c
003f
ffcf
fff2
ffe5
0024
ffe3
0008
ff9f
ffca
000b
fff2
fff1
0008
fff9
0013
0005
fffb
fff2
000d
fffe
0004
0003
fffa
ffe9
000e
001a
ffef
fff9
0005
fffc
fff0
003a
ffef
ffbd
0014
ff9b
0078
ff6f
0016
ffef
000d
0007
0021
0015
0015
fff1
0001
0004
0007
0012
0015
ffff
0010
0013
0010
000e
ffe9
0019
fffb
fff7
0002
0001
000f
fff7
fffe
fffd
fff7
0009
ffff
0005
fffe
0009
000f
0008
0013
fffe
ffff
0013
fff4
fffb
000d
fffd
000d
0003
0016
0007
0006
000f
0001
fffe
0000
001b
000d
fff7
fffb
0004
fff8
ffe7
fff4
0003
fff6
fffd
0003
0008
000c
fff4
0003
fffe
fffb
0006
fffb
0014
fffe
0003
0000
0004
0000
0007
0007
fff0
0004
fff0
ffff
fff2
0006
0027
0002
ffee
fffc
0007
0007
fffd
fffc
0015
0000
fffc
ffff
0018
0006
000c
0029
000f
0000
fffb
0012
0017
0013
fff3
0006
fffa
ffed
0022
0018
0007
ffec
ffff
000b
0005
0010
0013
000b
0008
fff0
fffe
fffc
fffb
0000
fffe
0002
0019
0008
fff2
000d
0007
ffdb
000b
ffd1
ffeb
ffeb
ffb4
ffc6
ffbe
ffa6
ffcb
ffea
0002
0007
fffd
0008
fff8
0013
0003
0004
ffef
0006
0005
000a
fffc
fff6
0009
0018
0003
ffae
ffd4
fff3
ffad
ffe5
ffa6
ffd7
0004
fff5
ffa9
ffd9
ffd7
fff1
0003
0004
fffe
000a
0009
ffff
ffff
0005
0016
0017
000c
0021
000e
003a
ffdc
003b
fff3
004c
0025
0066
0015
0048
000d
0023
ffc9
0009
0013
002b
ffe2
ffff
0003
ffff
fff2
000c
000b
fff5
0018
fff7
fff5
ffe4
002c
003f
ffcf
fff2
ffe5
0024
ffe3
0008
ff9f
ffca
000b
fff2
fff1
0008
fff9
0013
0005
fffb
fff2
000d
fffe
0004
0003
fffa
ffe9
000e
001a
ffef
fff9
0005
fffc
fff0
003a
ffef
ffbd
0014
ff9b
0078
ff6f
0016
ffef
000d
0007
0021
0015
0015
fff1
0001
0004
0007
0012
0015
ffff
0010
0013
0010
000e
ffe9
0019
fffb
fff7
0002
0001
000f
fff7
fffe
fffd
fff7
0009
ffff
0005
fffe
0009
000f
0008
0013
fffe
ffff
0013
fff4
fffb
000d
fffd
000d
0003
0016
0007
0006
000f
0001
fffe
0000
001b
000d
fff7
fffb
0004
fff8
ffe7
fff4
0003
fff6
fffd
0003
0008
000c
fff4
0003
fffe
fffb
0006
fffb
0014
fffe
0003
0000
0004
0000
0007
0007
fff0
0004
fff0
ffff
fff2
0006
0027
0002
ffee
fffc
0007
0007
fffd
fffc
0015
0000
fffc
ffff
0018
0006
000c
0029
000f
0000
fffb
0012
0017
0013
fff3
0006
fffa
ffed
0022
0018
0007
ffec
ffff
000b
0005
0010
0013
000b
0008
fff0
fffe
fffc
fffb
0000
fffe
0002
0019
0008
fff2
000d
0007
ffdb
000b
ffd1
ffeb
ffeb
ffb4
ffc6
ffbe
ffa6
ffcb
ffea
0002
0007
fffd
0008
fff8
0013
0003
0004
ffef
0006
0005
000a
fffc
fff6
0009
0018
0003
ffae
ffd4
fff3
ffad
ffe5
ffa6
ffd7
0004
fff5
ffa9
ffd9
ffd7
fff1
0003
0004
fffe
000a
0009
ffff
ffff
0005
0016
0017
000c
0021
000e
003a
ffdc
003b
fff3
004c
0025
0066
0015
0048
000d
0023
ffc9
0009
0013
002b
ffe2
ffff
0003
ffff
fff2
000c
000b
fff5
0018
fff7
fff5
ffe4
002c
003f
ffcf
fff2
ffe5
0024
ffe3
0008
ff9f
ffca
000b
fff2
fff1
0008
fff9
0013
0005
fffb
fff2
000d
fffe
0004
0003
fffa
ffe9
000e
001a
ffef
fff9
0005
fffc
fff0
003a
ffef
ffbd
0014
ff9b
0078
ff6f
0016
ffef
000d
0007
0021
0015
0015
fff1
0001
0004
0007
0012
0015
ffff
0010
0013
0010
000e
ffe9
0019
fffb
fff7
0002
0001
000f
fff7
fffe
fffd
fff7
0009
ffff
0005
fffe
0009
000f
0008
0013
fffe
ffff
0013
fff4
fffb
000d
fffd
000d
0003
0016
0007
0006
000f
0001
fffe
0000
001b
000d
fff7
fffb
0004
fff8
ffe7
fff4
0003
fff6
fffd
0003
0008
000c
fff4
0003
fffe
fffb
0006
fffb
0014
fffe
0003
0000
0004
0000
0007
0007
fff0
0004
fff0
ffff
fff2
0006
0027
0002
ffee
fffc
0007
0007
fffd
fffc
0015
0000
fffc
ffff
0018
0006
000c
0029
000f
0000
fffb
0012
0017
0013
fff3
0006
fffa
ffed
0022
0018
0007
ffec
ffff
000b
0005
0010
0013
000b
0008
fff0
fffe
fffc
fffb
0000
fffe
0002
0019
0008
fff2
000d
0007
ffdb
000b
ffd1
ffeb
ffeb
ffb4
ffc6
ffbe
ffa6
ffcb
ffea
0002
0007
fffd
0008
fff8
0013
0003
0004
ffef
0006
0005
000a
fffc
fff6
0009
0018
0003
ffae
ffd4
fff3
ffad
ffe5
ffa6
ffd7
0004
fff5
ffa9
ffd9
ffd7
fff1
0003
0004
fffe
000a
0009
ffff
ffff
0005
0016
0017
000c
0021
000e
003a
ffdc
003b
fff3
004c
0025
0066
0015
0048
000d
0023
ffc9
0009
0013
002b
ffe2
ffff
0003
ffff
fff2
000c
000b
fff5
0018
fff7
fff5
ffe4
002c
003f
ffcf
fff2
ffe5
0024
ffe3
0008
ff9f
ffca
000b
fff2
fff1
0008
fff9
0013
0005
fffb
fff2
000d
fffe
0004
0003
fffa
ffe9
000e
001a
ffef
fff9
0005
fffc
fff0
003a
ffef
ffbd
0014
ff9b
0078
ff6f
0016
ffef
000d
0007
0021
0015
0015
fff1
0001
0004
0007
0012
0015
ffff
0010
0013
0010
000e
ffe9
0019
fffb
fff7
0002
0001
000f
fff7
fffe
fffd
fff7
0009
ffff
0005
fffe
0009
000f
0008
0013
fffe
ffff
0013
fff4
fffb
000d
fffd
000d
0003
0016
0007
0006
000f
0001
fffe
0000
001b
000d
fff7
fffb
0004
fff8
ffe7
fff4
0003
fff6
fffd
0003
0008
000c
fff4
0003
fffe
fffb
0006
fffb
0014
fffe
0003
0000
0004
0000
0007
0007
fff0
0004
fff0
ffff
fff2
0006
0027
0002
ffee
fffc
0007
0007
fffd
fffc
0015
0000
fffc
ffff
0018
0006
000c
0029
000f
0000
fffb
0012
0017
0013
fff3
0006
fffa
ffed
0022
0018
0007
ffec
ffff
000b
0005
0010
0013
000b
0008
fff0
fffe
fffc
fffb
0000
fffe
0002
0019
0008
fff2
000d
0007
ffdb
000b
ffd1
ffeb
ffeb
ffb4
ffc6
ffbe
ffa6
ffcb
ffea
0002
0007
fffd
0008
fff8
0013
0003
0004
ffef
0006
0005
000a
fffc
fff6
0009
0018
0003
ffae
ffd4
fff3
ffad
ffe5
ffa6
ffd7
0004
fff5
ffa9
ffd9
ffd7
fff1
0003
0004
fffe
000a
0009
ffff
ffff
0005
0016
0017
000c
0021
000e
003a
ffdc
003b
fff3
004c
0025
0066
0015
0048
000d
0023
ffc9
0009
0013
002b
ffe2
ffff
0003
ffff
fff2
000c
000b
fff5
0018
fff7
fff5
ffe4
002c
003f
ffcf
fff2
ffe5
0024
ffe3
0008
ff9f
ffca
000b
fff2
fff1
0008
fff9
0013
0005
fffb
fff2
000d
fffe
0004
0003
fffa
ffe9
000e
001a
ffef
fff9
0005
fffc
fff0
003a
ffef
ffbd
0014
ff9b
0078
ff6f
0016
ffef
000d
0007
0021
0015
0015
fff1
0001
0004
0007
0012
0015
ffff
0010
0013
0010
000e
ffe9
0019
fffb
fff7
0002
0001
000f
fff7
fffe
fffd
fff7
0009
ffff
0005
fffe
0009
000f
0008
0013
fffe
ffff
0013
fff4
fffb
000d
fffd
000d
0003
0016
0007
0006
000f
0001
fffe
0000
001b
000d
fff7
fffb
0004
fff8
ffe7
fff4
0003
fff6
fffd
0003
0008
000c
fff4
0003
fffe
fffb
0006
fffb
0014
fffe
0003
0000
0004
0000
0007
0007
fff0
0004
fff0
ffff
fff2
0006
0027
0002
ffee
fffc
0007
0007
fffd
fffc
0015
0000
fffc
ffff
0018
0006
000c
0029
000f
0000
fffb
0012
0017
0013
fff3
0006
fffa
ffed
0022
0018
0007
ffec
ffff
000b
0005
0010
0013
000b
0008
fff0
fffe
fffc
fffb
0000
fffe
0002
0019
0008
fff2
000d
0007
ffdb
000b
ffd1
ffeb
ffeb
ffb4
ffc6
ffbe
ffa6
ffcb
ffea
0002
0007
fffd
0008
fff8
0013
0003
0004
ffef
0006
0005
000a
fffc
fff6
0009
0018
0003
ffae
ffd4
fff3
ffad
ffe5
ffa6
ffd7
0004
fff5
ffa9
ffd9
ffd7
fff1
0003
0004
fffe
000a
0009
ffff
ffff
0005
0016
0017
000c
0021
000e
003a
ffdc
003b
fff3
004c
0025
0066
0015
0048
000d
0023
ffc9
0009
0013
002b
ffe2
ffff
0003
ffff
fff2
000c
000b
fff5
0018
fff7
fff5
ffe4
002c
003f
ffcf
fff2
ffe5
0024
ffe3
0008
ff9f
ffca
000b
fff2
fff1
0008
fff9
0013
0005
fffb
fff2
000d
fffe
0004
0003
fffa
ffe9
000e
001a
ffef
fff9
0005
fffc
fff0
003a
ffef
ffbd
0014
ff9b
0078
ff6f
0016
ffef
000d
0007
0021
0015
0015
fff1
0001
0004
0007
0012
0015
ffff
0010
0013
0010
000e
ffe9
0019
fffb
fff7
0002
0001
000f
fff7
fffe
fffd
fff7
0009
ffff
0005
fffe
0009
000f
0008
0013
fffe
ffff
0013
fff4
fffb
000d
fffd
000d
0003
0016
0007
0006
000f
0001
fffe
0000
001b
000d
fff7
fffb
0004
fff8
ffe7
fff4
0003
fff6
fffd
0003
0008
000c
fff4
0003
fffe
fffb
0006
fffb
0014
fffe
0003
0000
0004
0000
0007
0007
fff0
0004
fff0
ffff
fff2
0006
0027
0002
ffee
fffc
0007
0007
fffd
fffc
0015
0000
fffc
ffff
0018
0006
000c
0029
000f
0000
fffb
0012
0017
0013
fff3
0006
fffa
ffed
0022
0018
0007
ffec
ffff
000b
0005
0010
0013
000b
0008
fff0
fffe
fffc
fffb
0000
fffe
0002
0019
0008
fff2
000d
0007
ffdb
000b
ffd1
ffeb
ffeb
ffb4
ffc6
ffbe
ffa6
ffcb
ffea
0002
0007
fffd
0008
fff8
0013
0003
0004
ffef
0006
0005
000a
fffc
fff6
0009
0018
0003
ffae
ffd4
fff3
ffad
ffe5
ffa6
ffd7
0004
fff5
ffa9
ffd9
ffd7
fff1
0003
0004
fffe
000a
0009
ffff
ffff
0005
0016
0017
000c
0021
000e
003a
ffdc
003b
fff3
004c
0025
0066
0015
0048
000d
0023
ffc9
0009
0013
002b
ffe2
ffff
0003
ffff
fff2
000c
000b
fff5
0018
fff7
fff5
ffe4
002c
003f
ffcf
fff2
ffe5
0024
ffe3
0008
ff9f
ffca
000b
fff2
fff1
0008
fff9
0013
0005
fffb
fff2
000d
fffe
0004
0003
fffa
ffe9
000e
001a
ffef
fff9
0005
fffc
fff0
003a
ffef
ffbd
0014
ff9b
0078
ff6f
0016
ffef
000d
0007
0021
0015
0015
fff1
0001
0004
0007
0012
0015
ffff
0010
0013
0010
000e
ffe9
0019
fffb
fff7
0002
0001
000f
fff7
fffe
fffd
fff7
0009
ffff
0005
fffe
0009
000f
0008
0013
fffe
ffff
0013
fff4
fffb
000d
fffd
000d
0003
0016
0007
0006
000f
0001
fffe
0000
001b
000d
fff7
fffb
0004
fff8
ffe7
fff4
0003
fff6
fffd
0003
0008
000c
fff4
0003
fffe
fffb
0006
fffb
0014
fffe
0003
0000
0004
0000
0007
0007
fff0
0004
fff0
ffff
fff2
0006
0027
0002
ffee
fffc
0007
0007
fffd
fffc
0015
0000
fffc
ffff
0018
0006
000c
0029
000f
0000
fffb
0012
0017
0013
fff3
0006
fffa
ffed
0022
0018
0007
ffec
ffff
000b
0005
0010
0013
000b
0008
fff0
fffe
fffc
fffb
0000
fffe
0002
0019
0008
fff2
000d
0007
ffdb
000b
ffd1
ffeb
ffeb
ffb4
ffc6
ffbe
ffa6
ffcb
ffea
0002
0007
fffd
0008
fff8
0013
0003
0004
ffef
0006
0005
000a
fffc
fff6
0009
0018
0003
ffae
ffd4
fff3
ffad
ffe5
ffa6
ffd7
0004
fff5
ffa9
ffd9
ffd7
fff1
0003
0004
fffe
000a
0009
ffff
ffff
0005
0016
0017
000c
0021
000e
003a
ffdc
003b
fff3
004c
0025
0066
0015
0048
000d
0023
ffc9
0009
0013
002b
ffe2
ffff
0003
ffff
fff2
000c
000b
fff5
0018
fff7
fff5
ffe4
002c
003f
ffcf
fff2
ffe5
0024
ffe3
0008
ff9f
ffca
000b
fff2
fff1
0008
fff9
0013
0005
fffb
fff2
000d
fffe
0004
0003
fffa
ffe9
000e
001a
ffef
fff9
0005
fffc
fff0
003a
ffef
ffbd
0014
ff9b
0078
ff6f
0016
ffef
000d
0007
0021
0015
0015
fff1
0001
0004
0007
0012
0015
ffff
0010
0013
0010
000e
ffe9
0019
fffb
fff7
0002
0001
000f
fff7
fffe
fffd
fff7
0009
ffff
0005
fffe
0009
000f
0008
0013
fffe
ffff
0013
fff4
fffb
000d
fffd
000d
0003
0016
0007
0006
000f
0001
fffe
0000
001b
000d
fff7
fffb
0004
fff8
ffe7
fff4
0003
fff6
fffd
0003
0008
000c
fff4
0003
fffe
fffb
0006
fffb
0014
fffe
0003
0000
0004
0000
0007
0007
fff0
0004
fff0
ffff
fff2
0006
0027
0002
ffee
fffc
0007
0007
fffd
fffc
0015
0000
fffc
ffff
0018
0006
000c
0029
000f
0000
fffb
0012
0017
0013
fff3
0006
fffa
ffed
0022
0018
0007
ffec
ffff
000b
0005
0010
0013
000b
0008
fff0
fffe
fffc
fffb
0000
fffe
0002
0019
0008
fff2
000d
0007
ffdb
000b
ffd1
ffeb
ffeb
ffb4
ffc6
ffbe
ffa6
ffcb
ffea
0002
0007
fffd
0008
fff8
0013
0003
0004
ffef
0006
0005
000a
fffc
fff6
0009
0018
0003
ffae
ffd4
fff3
ffad
ffe5
ffa6
ffd7
0004
fff5
ffa9
ffd9
ffd7
fff1
0003
0004
fffe
000a
0009
ffff
ffff
0005
0016
0017
000c
0021
000e
003a
ffdc
003b
fff3
004c
0025
0066
0015
0048
000d
0023
ffc9
0009
0013
002b
ffe2
ffff
0003
ffff
fff2
000c
000b
fff5
0018
fff7
fff5
ffe4
002c
003f
ffcf
fff2
ffe5
0024
ffe3
0008
ff9f
ffca
000b
fff2
fff1
0008
fff9
0013
0005
fffb
fff2
000d
fffe
0004
0003
fffa
ffe9
000e
001a
ffef
fff9
0005
fffc
fff0
003a
ffef
ffbd
0014
ff9b
0078
ff6f
0016
ffef
000d
0007
0021
0015
0015
fff1
0001
0004
0007
0012
0015
ffff
0010
0013
0010
000e
ffe9
0019
fffb
fff7
0002
0001
000f
fff7
fffe
fffd
fff7
0009
ffff
0005
fffe
0009
000f
0008
0013
fffe
ffff
0013
fff4
fffb
000d
fffd
000d
0003
0016
0007
0006
000f
0001
fffe
0000
001b
000d
fff7
fffb
0004
fff8
ffe7
fff4
0003
fff6
fffd
0003
0008
000c
fff4
0003
fffe
fffb
0006
fffb
0014
fffe
0003
0000
0004
0000
0007
0007
fff0
0004
fff0
ffff
fff2
0006
0027
0002
ffee
fffc
0007
0007
fffd
fffc
0015
0000
fffc
ffff
0018
0006
000c
0029
000f
0000
fffb
0012
0017
0013
fff3
0006
fffa
ffed
0022
0018
0007
ffec
ffff
000b
0005
0010
0013
000b
0008
fff0
fffe
fffc
fffb
0000
fffe
0002
0019
0008
fff2
000d
0007
ffdb
000b
ffd1
ffeb
ffeb
ffb4
ffc6
ffbe
ffa6
ffcb
ffea
0002
0007
fffd
0008
fff8
0013
0003
0004
ffef
0006
0005
000a
fffc
fff6
0009
0018
0003
ffae
ffd4
fff3
ffad
ffe5
ffa6
ffd7
0004
fff5
ffa9
ffd9
ffd7
fff1
0003
0004
fffe
000a
0009
ffff
ffff
0005
0016
0017
000c
0021
000e
003a
ffdc
003b
fff3
004c
0025
0066
0015
0048
000d
0023
ffc9
0009
0013
002b
ffe2
ffff
0003
ffff
fff2
000c
000b
fff5
0018
fff7
fff5
ffe4
002c
003f
ffcf
fff2
ffe5
0024
ffe3
0008
ff9f
ffca
000b
fff2
fff1
0008
fff9
0013
0005
fffb
fff2
000d
fffe
0004
0003
fffa
ffe9
000e
001a
ffef
fff9
0005
fffc
fff0
003a
ffef
ffbd
0014
ff9b
0078
ff6f
0016
ffef
000d
0007
0021
0015
0015
fff1
0001
0004
0007
0012
0015
ffff
0010
0013
0010
000e
ffe9
0019
fffb
fff7
0002
0001
000f
fff7
fffe
fffd
fff7
0009
ffff
0005
fffe
0009
000f
0008
0013
fffe
ffff
0013
fff4
fffb
000d
fffd
000d
0003
0016
0007
0006
000f
0001
fffe
0000
001b
000d
fff7
fffb
0004
fff8
ffe7
fff4
0003
fff6
fffd
0003
0008
000c
fff4
0003
fffe
fffb
0006
fffb
0014
fffe
0003
0000
0004
0000
0007
0007
fff0
0004
fff0
ffff
fff2
0006
0027
0002
ffee
fffc
0007
0007
fffd
fffc
0015
0000
fffc
ffff
0018
0006
000c
0029
000f
0000
fffb
0012
0017
0013
fff3
0006
fffa
ffed
0022
0018
0007
ffec
ffff
000b
0005
0010
0013
000b
0008
fff0
fffe
fffc
fffb
0000
fffe
0002
0019
0008
fff2
000d
0007
ffdb
000b
ffd1
ffeb
ffeb
ffb4
ffc6
ffbe
ffa6
ffcb
ffea
0002
0007
fffd
0008
fff8
0013
0003
0004
ffef
0006
0005
000a
fffc
fff6
0009
0018
0003
ffae
ffd4
fff3
ffad
ffe5
ffa6
ffd7
0004
fff5
ffa9
ffd9
ffd7
fff1
0003
0004
fffe
000a
0009
ffff
ffff
0005
0016
0017
000c
0021
000e
003a
ffdc
003b
fff3
004c
0025
0066
0015
0048
000d
0023
ffc9
0009
0013
002b
ffe2
ffff
0003
ffff
fff2
000c
000b
fff5
0018
fff7
fff5
ffe4
002c
003f
ffcf
fff2
ffe5
0024
ffe3
0008
ff9f
ffca
000b
fff2
fff1
0008
fff9
0013
0005
fffb
fff2
000d
fffe
0004
0003
fffa
ffe9
000e
001a
ffef
fff9
0005
fffc
fff0
003a
ffef
ffbd
0014
ff9b
0078
ff6f
0016
ffef
000d
0007
0021
0015
0015
fff1
0001
0004
0007
0012
0015
ffff
0010
0013
0010
000e
ffe9
0019
fffb
fff7
0002
0001
000f
fff7
fffe
fffd
fff7
0009
ffff
0005
fffe
0009
000f
0008
0013
fffe
ffff
0013
fff4
fffb
000d
fffd
000d
0003
0016
0007
0006
000f
0001
fffe
0000
001b
000d
fff7
fffb
0004
fff8
ffe7
fff4
0003
fff6
fffd
0003
0008
000c
fff4
0003
fffe
fffb
0006
fffb
0014
fffe
0003
0000
0004
0000
0007
0007
fff0
0004
fff0
ffff
fff2
0006
0027
0002
ffee
fffc
0007
0007
fffd
fffc
0015
0000
fffc
ffff
0018
0006
000c
0029
000f
0000
fffb
0012
0017
0013
fff3
0006
fffa
ffed
0022
0018
0007
ffec
ffff
000b
0005
0010
0013
000b
0008
fff0
fffe
fffc
fffb
0000
fffe
0002
0019
0008
fff2
000d
0007
ffdb
000b
ffd1
ffeb
ffeb
ffb4
ffc6
ffbe
ffa6
ffcb
ffea
0002
0007
fffd
0008
fff8
0013
0003
0004
ffef
0006
0005
000a
fffc
fff6
0009
0018
0003
ffae
ffd4
fff3
ffad
ffe5
ffa6
ffd7
0004
fff5
ffa9
ffd9
ffd7
fff1
0003
0004
fffe
000a
0009
ffff
ffff
0005
0016
0017
000c
0021
000e
003a
ffdc
003b
fff3
004c
0025
0066
0015
0048
000d
0023
ffc9
0009
0013
002b
ffe2
ffff
0003
ffff
fff2
000c
000b
fff5
0018
fff7
fff5
ffe4
002c
003f
ffcf
fff2
ffe5
0024
ffe3
0008
ff9f
ffca
000b
fff2
fff1
0008
fff9
0013
0005
fffb
fff2
000d
fffe
0004
0003
fffa
ffe9
000e
001a
ffef
fff9
0005
fffc
fff0
003a
ffef
ffbd
0014
ff9b
0078
ff6f
0016
ffef
000d
0007
0021
0015
0015
fff1
0001
0004
0007
0012
0015
ffff
0010
0013
0010
000e
ffe9
0019
fffb
fff7
0002
0001
000f
fff7
fffe
fffd
fff7
0009
ffff
0005
fffe
0009
000f
0008
0013
fffe
ffff
0013
fff4
fffb
000d
fffd
000d
0003
0016
0007
0006
000f
0001
fffe
0000
001b
000d
fff7
fffb
0004
fff8
ffe7
fff4
0003
fff6
fffd
0003
0008
000c
fff4
0003
fffe
fffb
0006
fffb
0014
fffe
0003
0000
0004
0000
0007
0007
fff0
0004
fff0
ffff
fff2
0006
0027
0002
ffee
fffc
0007
0007
fffd
fffc
0015
0000
fffc
ffff
0018
0006
000c
0029
000f
0000
fffb
0012
0017
0013
fff3
0006
fffa
ffed
0022
0018
0007
ffec
ffff
000b
0005
0010
0013
000b
0008
fff0
fffe
fffc
fffb
0000
fffe
0002
0019
0008
fff2
000d
0007
ffdb
000b
ffd1
ffeb
ffeb
ffb4
ffc6
ffbe
ffa6
ffcb
ffea
0002
0007
fffd
0008
fff8
0013
0003
0004
ffef
0006
0005
000a
fffc
fff6
0009
0018
0003
ffae
ffd4
fff3
ffad
ffe5
ffa6
ffd7
0004
fff5
ffa9
ffd9
ffd7
fff1
0003
0004
fffe
000a
0009
ffff
ffff
0005
0016
0017
000c
0021
000e
003a
ffdc
003b
fff3
004c
0025
0066
0015
0048
000d
0023
ffc9
0009
0013
002b
ffe2
ffff
0003
ffff
fff2
000c
000b
fff5
0018
fff7
fff5
ffe4
002c
003f
ffcf
fff2
ffe5
0024
ffe3
0008
ff9f
ffca
000b
fff2
fff1
0008
fff9
0013
0005
fffb
fff2
000d
fffe
0004
0003
fffa
ffe9
000e
001a
ffef
fff9
0005
fffc
fff0
003a
ffef
ffbd
0014
ff9b
0078
ff6f
0016
ffef
000d
0007
0021
0015
0015
fff1
0001
0004
0007
0012
0015
ffff
0010
0013
0010
000e
ffe9
0019
fffb
fff7
0002
0001
000f
fff7
fffe
fffd
fff7
0009
ffff
0005
fffe
0009
000f
0008
0013
fffe
ffff
0013
fff4
fffb
000d
fffd
000d
0003
0016
0007
0006
000f
0001
fffe
0000
001b
000d
fff7
fffb
0004
fff8
ffe7
fff4
0003
fff6
fffd
0003
0008
000c
fff4
0003
fffe
fffb
0006
fffb
0014
fffe
0003
0000
0004
0000
0007
0007
fff0
0004
fff0
ffff
fff2
0006
0027
0002
ffee
fffc
0007
0007
fffd
fffc
0015
0000
fffc
ffff
0018
0006
000c
0029
000f
0000
fffb
0012
0017
0013
fff3
0006
fffa
ffed
0022
0018
0007
ffec
ffff
000b
0005
0010
0013
000b
0008
fff0
fffe
fffc
fffb
0000
fffe
0002
0019
0008
fff2
000d
0007
ffdb
000b
ffd1
ffeb
ffeb
ffb4
ffc6
ffbe
ffa6
ffcb
ffea
0002
0007
fffd
0008
fff8
0013
0003
0004
ffef
0006
0005
000a
fffc
fff6
0009
0018
0003
ffae
ffd4
fff3
ffad
ffe5
ffa6
ffd7
0004
fff5
ffa9
ffd9
ffd7
fff1
0003
0004
fffe
000a
0009
ffff
ffff
0005
0016
0017
000c
0021
000e
003a
ffdc
003b
fff3
004c
0025
0066
0015
0048
000d
0023
ffc9
0009
0013
002b
ffe2
ffff
0003
ffff
fff2
000c
000b
fff5
0018
fff7
fff5
ffe4
002c
003f
ffcf
fff2
ffe5
0024
ffe3
0008
ff9f
ffca
000b
fff2
fff1
0008
fff9
0013
0005
fffb
fff2
000d
fffe
0004
0003
fffa
ffe9
000e
001a
ffef
fff9
0005
fffc
fff0
003a
ffef
ffbd
0014
ff9b
0078
ff6f
0016
ffef
000d
0007
0021
0015
0015
fff1
0001
0004
0007
0012
0015
ffff
0010
0013
0010
000e
ffe9
0019
fffb
fff7
0002
0001
000f
fff7
fffe
fffd
fff7
0009
ffff
0005
fffe
0009
000f
0008
0013
fffe
ffff
0013
fff4
fffb
000d
fffd
000d
0003
0016
0007
0006
000f
0001
fffe
0000
001b
000d
fff7
fffb
0004
fff8
ffe7
fff4
0003
fff6
fffd
0003
0008
000c
fff4
0003
fffe
fffb
0006
fffb
0014
fffe
0003
0000
0004
0000
0007
0007
fff0
0004
fff0
ffff
fff2
0006
0027
0002
ffee
fffc
0007
0007
fffd
fffc
0015
0000
fffc
ffff
0018
0006
000c
0029
000f
0000
fffb
0012
0017
0013
fff3
0006
fffa
ffed
0022
0018
0007
ffec
ffff
000b
0005
0010
0013
000b
0008
fff0
fffe
fffc
fffb
0000
fffe
0002
0019
0008
fff2
000d
0007
ffdb
000b
ffd1
ffeb
ffeb
ffb4
ffc6
ffbe
ffa6
ffcb
ffea
0002
0007
fffd
0008
fff8
0013
0003
0004
ffef
0006
0005
000a
fffc
fff6
0009
0018
0003
ffae
ffd4
fff3
ffad
ffe5
ffa6
ffd7
0004
fff5
ffa9
ffd9
ffd7
fff1
0003
0004
fffe
000a
0009
ffff
ffff
0005
0016
0017
000c
0021
000e
003a
ffdc
003b
fff3
004c
0025
0066
0015
0048
000d
0023
ffc9
0009
0013
002b
ffe2
ffff
0003
ffff
fff2
000c
000b
fff5
0018
fff7
fff5
ffe4
002c
003f
ffcf
fff2
ffe5
0024
ffe3
0008
ff9f
ffca
000b
fff2
fff1
0008
fff9
0013
0005
fffb
fff2
000d
fffe
0004
0003
fffa
ffe9
000e
001a
ffef
fff9
0005
fffc
fff0
003a
ffef
ffbd
0014
ff9b
0078
ff6f
0016
ffef
000d
0007
0021
0015
0015
fff1
0001
0004
0007
0012
0015
ffff
0010
0013
0010
000e
ffe9
0019
fffb
fff7
0002
0001
000f
fff7
fffe
fffd
fff7
0009
ffff
0005
fffe
0009
000f
0008
0013
fffe
ffff
0013
fff4
fffb
000d
fffd
000d
0003
0016
0007
0006
000f
0001
fffe
0000
001b
000d
fff7
fffb
0004
fff8
ffe7
fff4
0003
fff6
fffd
0003
0008
000c
fff4
0003
fffe
fffb
0006
fffb
0014
fffe
0003
0000
0004
0000
0007
0007
fff0
0004
fff0
ffff
fff2
0006
0027
0002
ffee
fffc
0007
0007
fffd
fffc
0015
0000
fffc
ffff
0018
0006
000c
0029
000f
0000
fffb
0012
0017
0013
fff3
0006
fffa
ffed
0022
0018
0007
ffec
ffff
000b
0005
0010
0013
000b
0008
fff0
fffe
fffc
fffb
0000
fffe
0002
0019
0008
fff2
000d
0007
ffdb
000b
ffd1
ffeb
ffeb
ffb4
ffc6
ffbe
ffa6
ffcb
ffea
0002
0007
fffd
0008
fff8
0013
0003
0004
ffef
0006
0005
000a
fffc
fff6
0009
0018
0003
ffae
ffd4
fff3
ffad
ffe5
ffa6
ffd7
0004
fff5
ffa9
ffd9
ffd7
fff1
0003
0004
fffe
000a
0009
ffff
ffff
0005
0016
0017
000c
0021
000e
003a
ffdc
003b
fff3
004c
0025
0066
0015
0048
000d
0023
ffc9
0009
0013
002b
ffe2
ffff
0003
ffff
fff2
000c
000b
fff5
0018
fff7
fff5
ffe4
002c
003f
ffcf
fff2
ffe5
0024
ffe3
0008
ff9f
ffca
000b
fff2
fff1
0008
fff9
0013
0005
fffb
fff2
000d
fffe
0004
0003
fffa
ffe9
000e
001a
ffef
fff9
0005
fffc
fff0
003a
ffef
ffbd
0014
ff9b
0078
ff6f
0016
ffef
000d
0007
0021
0015
0015
fff1
0001
0004
0007
0012
0015
ffff
0010
0013
0010
000e
ffe9
0019
fffb
fff7
0002
0001
000f
fff7
fffe
fffd
fff7
0009
ffff
0005
fffe
0009
000f
0008
0013
fffe
ffff
0013
fff4
fffb
000d
fffd
000d
0003
0016
0007
0006
000f
0001
fffe
0000
001b
000d
fff7
fffb
0004
fff8
ffe7
fff4
0003
fff6
fffd
0003
0008
000c
fff4
0003
fffe
fffb
0006
fffb
0014
fffe
0003
0000
0004
0000
0007
0007
fff0
0004
fff0
ffff
fff2
0006
0027
0002
ffee
fffc
0007
0007
fffd
fffc
0015
0000
fffc
ffff
0018
0006
000c
0029
000f
0000
fffb
0012
0017
0013
fff3
0006
fffa
ffed
0022
0018
0007
ffec
ffff
000b
0005
0010
0013
000b
0008
fff0
fffe
fffc
fffb
0000
fffe
0002
0019
0008
fff2
000d
0007
ffdb
000b
ffd1
ffeb
ffeb
ffb4
ffc6
ffbe
ffa6
ffcb
ffea
0002
0007
fffd
0008
fff8
0013
0003
0004
ffef
0006
0005
000a
fffc
fff6
0009
0018
0003
ffae
ffd4
fff3
ffad
ffe5
ffa6
ffd7
0004
fff5
ffa9
ffd9
ffd7
fff1
0003
0004
fffe
000a
0009
ffff
ffff
0005
0016
0017
000c
0021
000e
003a
ffdc
003b
fff3
004c
0025
0066
0015
0048
000d
0023
ffc9
0009
0013
002b
ffe2
ffff
0003
ffff
fff2
000c
000b
fff5
0018
fff7
fff5
ffe4
002c
003f
ffcf
fff2
ffe5
0024
ffe3
0008
ff9f
ffca
000b
fff2
fff1
0008
fff9
0013
0005
fffb
fff2
000d
fffe
0004
0003
fffa
ffe9
000e
001a
ffef
fff9
0005
fffc
fff0
003a
ffef
ffbd
0014
ff9b
0078
ff6f
0016
ffef
000d
0007
0021
0015
0015
fff1
0001
0004
0007
0012
0015
ffff
0010
0013
0010
000e
ffe9
0019
fffb
fff7
0002
0001
000f
fff7
fffe
fffd
fff7
0009
ffff
0005
fffe
0009
000f
0008
0013
fffe
ffff
0013
fff4
fffb
000d
fffd
000d
0003
0016
0007
0006
000f
0001
fffe
0000
001b
000d
fff7
fffb
0004
fff8
ffe7
fff4
0003
fff6
fffd
0003
0008
000c
fff4
0003
fffe
fffb
0006
fffb
0014
fffe
0003
0000
0004
0000
0007
0007
fff0
0004
fff0
ffff
fff2
0006
0027
0002
ffee
fffc
0007
0007
fffd
fffc
0015
0000
fffc
ffff
0018
0006
000c
0029
000f
0000
fffb
0012
0017
0013
fff3
0006
fffa
ffed
0022
0018
0007
ffec
ffff
000b
0005
0010
0013
000b
0008
fff0
fffe
fffc
fffb
0000
fffe
0002
0019
0008
fff2
000d
0007
ffdb
000b
ffd1
ffeb
ffeb
ffb4
ffc6
ffbe
ffa6
ffcb
ffea
0002
0007
fffd
0008
fff8
0013
0003
0004
ffef
0006
0005
000a
fffc
fff6
0009
0018
0003
ffae
ffd4
fff3
ffad
ffe5
ffa6
ffd7
0004
fff5
ffa9
ffd9
ffd7
fff1
0003
0004
fffe
000a
0009
ffff
ffff
0005
0016
0017
000c
0021
000e
003a
ffdc
003b
fff3
004c
0025
0066
0015
0048
000d
0023
ffc9
0009
0013
002b
ffe2
ffff
0003
ffff
fff2
000c
000b
fff5
0018
fff7
fff5
ffe4
002c
003f
ffcf
fff2
ffe5
0024
ffe3
0008
ff9f
ffca
000b
fff2
fff1
0008
fff9
0013
0005
fffb
fff2
000d
fffe
0004
0003
fffa
ffe9
000e
001a
ffef
fff9
0005
fffc
fff0
003a
ffef
ffbd
0014
ff9b
0078
ff6f
0016
ffef
000d
0007
0021
0015
0015
fff1
0001
0004
0007
0012
0015
ffff
0010
0013
0010
000e
ffe9
0019
fffb
fff7
0002
0001
000f
fff7
fffe
fffd
fff7
0009
ffff
0005
fffe
0009
000f
0008
0013
fffe
ffff
0013
fff4
fffb
000d
fffd
000d
0003
0016
0007
0006
000f
0001
fffe
0000
001b
000d
fff7
fffb
0004
fff8
ffe7
fff4
0003
fff6
fffd
0003
0008
000c
fff4
0003
fffe
fffb
0006
fffb
0014
fffe
0003
0000
0004
0000
0007
0007
fff0
0004
fff0
ffff
fff2
0006
0027
0002
ffee
fffc
0007
0007
fffd
fffc
0015
0000
fffc
ffff
0018
0006
000c
0029
000f
0000
fffb
0012
0017
0013
fff3
0006
fffa
ffed
0022
0018
0007
ffec
ffff
000b
0005
0010
0013
000b
0008
fff0
fffe
fffc
fffb
0000
fffe
0002
0019
0008
fff2
000d
0007
ffdb
000b
ffd1
ffeb
ffeb
ffb4
ffc6
ffbe
ffa6
ffcb
ffea
0002
0007
fffd
0008
fff8
0013
0003
0004
ffef
0006
0005
000a
fffc
fff6
0009
0018
0003
ffae
ffd4
fff3
ffad
ffe5
ffa6
ffd7
0004
fff5
ffa9
ffd9
ffd7
fff1
0003
0004
fffe
000a
0009
ffff
ffff
0005
0016
0017
000c
0021
000e
003a
ffdc
003b
fff3
004c
0025
0066
0015
0048
000d
0023
ffc9
0009
0013
002b
ffe2
ffff
0003
ffff
fff2
000c
000b
fff5
0018
fff7
fff5
ffe4
002c
003f
ffcf
fff2
ffe5
0024
ffe3
0008
ff9f
ffca
000b
fff2
fff1
0008
fff9
0013
0005
fffb
fff2
000d
fffe
0004
0003
fffa
ffe9
000e
001a
ffef
fff9
0005
fffc
fff0
003a
ffef
ffbd
0014
ff9b
0078
ff6f
0016
ffef
000d
0007
0021
0015
0015
fff1
0001
0004
0007
0012
0015
ffff
0010
0013
0010
000e
ffe9
0019
fffb
fff7
0002
0001
000f
fff7
fffe
fffd
fff7
0009
ffff
0005
fffe
0009
000f
0008
0013
fffe
ffff
0013
fff4
fffb
000d
fffd
000d
0003
0016
0007
0006
000f
0001
fffe
0000
001b
000d
fff7
fffb
0004
fff8
ffe7
fff4
0003
fff6
fffd
0003
0008
000c
fff4
0003
fffe
fffb
0006
fffb
0014
fffe
0003
0000
0004
0000
0007
0007
fff0
0004
fff0
ffff
fff2
0006
0027
0002
ffee
fffc
0007
0007
fffd
fffc
0015
0000
fffc
ffff
0018
0006
000c
0029
000f
0000
fffb
0012
0017
0013
fff3
0006
fffa
ffed
0022
0018
0007
ffec
ffff
000b
0005
0010
0013
000b
0008
fff0
fffe
fffc
fffb
0000
fffe
0002
0019
0008
fff2
000d
0007
ffdb
000b
ffd1
ffeb
ffeb
ffb4
ffc6
ffbe
ffa6
ffcb
ffea
0002
0007
fffd
0008
fff8
0013
0003
0004
ffef
0006
0005
000a
fffc
fff6
0009
0018
0003
ffae
ffd4
fff3
ffad
ffe5
ffa6
ffd7
0004
fff5
ffa9
ffd9
ffd7
fff1
0003
0004
fffe
000a
0009
ffff
ffff
0005
0016
0017
000c
0021
000e
003a
ffdc
003b
fff3
004c
0025
0066
0015
0048
000d
0023
ffc9
0009
0013
002b
ffe2
ffff
0003
ffff
fff2
000c
000b
fff5
0018
fff7
fff5
ffe4
002c
003f
ffcf
fff2
ffe5
0024
ffe3
0008
ff9f
ffca
000b
fff2
fff1
0008
fff9
0013
0005
fffb
fff2
000d
fffe
0004
0003
fffa
ffe9
000e
001a
ffef
fff9
0005
fffc
fff0
003a
ffef
ffbd
0014
ff9b
0078
ff6f
0016
ffef
000d
0007
0021
0015
0015
fff1
0001
0004
0007
0012
0015
ffff
0010
0013
0010
000e
ffe9
0019
fffb
fff7
0002
0001
000f
fff7
fffe
fffd
fff7
0009
ffff
0005
fffe
0009
000f
0008
0013
fffe
ffff
0013
fff4
fffb
000d
fffd
000d
0003
0016
0007
0006
000f
0001
fffe
0000
001b
000d
fff7
fffb
0004
fff8
ffe7
fff4
0003
fff6
fffd
0003
0008
000c
fff4
0003
fffe
fffb
0006
fffb
0014
fffe
0003
0000
0004
0000
0007
0007
fff0
0004
fff0
ffff
fff2
0006
0027
0002
ffee
fffc
0007
0007
fffd
fffc
0015
0000
fffc
ffff
0018
0006
000c
0029
000f
0000
fffb
0012
0017
0013
fff3
0006
fffa
ffed
0022
0018
0007
ffec
ffff
000b
0005
0010
0013
000b
0008
fff0
fffe
fffc
fffb
0000
fffe
0002
0019
0008
fff2
000d
0007
ffdb
000b
ffd1
ffeb
ffeb
ffb4
ffc6
ffbe
ffa6
ffcb
ffea
0002
0007
fffd
0008
fff8
0013
0003
0004
ffef
0006
0005
000a
fffc
fff6
0009
0018
0003
ffae
ffd4
fff3
ffad
ffe5
ffa6
ffd7
0004
fff5
ffa9
ffd9
ffd7
fff1
0003
0004
fffe
000a
0009
ffff
ffff
0005
0016
0017
000c
0021
000e
003a
ffdc
003b
fff3
004c
0025
0066
0015
0048
000d
0023
ffc9
0009
0013
002b
ffe2
ffff
0003
ffff
fff2
000c
000b
fff5
0018
fff7
fff5
ffe4
002c
003f
ffcf
fff2
ffe5
0024
ffe3
0008
ff9f
ffca
000b
fff2
fff1
0008
fff9
0013
0005
fffb
fff2
000d
fffe
0004
0003
fffa
ffe9
000e
001a
ffef
fff9
0005
fffc
fff0
003a
ffef
ffbd
0014
ff9b
0078
ff6f
0016
ffef
000d
0007
0021
0015
0015
fff1
0001
0004
0007
0012
0015
ffff
0010
0013
0010
000e
ffe9
0019
fffb
fff7
0002
0001
000f
fff7
fffe
fffd
fff7
0009
ffff
0005
fffe
0009
000f
0008
0013
fffe
ffff
0013
fff4
fffb
000d
fffd
000d
0003
0016
0007
0006
000f
0001
fffe
0000
001b
000d
fff7
fffb
0004
fff8
ffe7
fff4
0003
fff6
fffd
0003
0008
000c
fff4
0003
fffe
fffb
0006
fffb
0014
fffe
0003
0000
0004
0000
0007
0007
fff0
0004
fff0
ffff
fff2
0006
0027
0002
ffee
fffc
0007
0007
fffd
fffc
0015
0000
fffc
ffff
0018
0006
000c
0029
000f
0000
fffb
0012
0017
0013
fff3
0006
fffa
ffed
0022
0018
0007
ffec
ffff
000b
0005
0010
0013
000b
0008
fff0
fffe
fffc
fffb
0000
fffe
0002
0019
0008
fff2
000d
0007
ffdb
000b
ffd1
ffeb
ffeb
ffb4
ffc6
ffbe
ffa6
ffcb
ffea
0002
0007
fffd
0008
fff8
0013
0003
0004
ffef
0006
0005
000a
fffc
fff6
0009
0018
0003
ffae
ffd4
fff3
ffad
ffe5
ffa6
ffd7
0004
fff5
ffa9
ffd9
ffd7
fff1
0003
0004
fffe
000a
0009
ffff
ffff
0005
0016
0017
000c
0021
000e
003a
ffdc
003b
fff3
004c
0025
0066
0015
0048
000d
0023
ffc9
0009
0013
002b
ffe2
ffff
0003
ffff
fff2
000c
000b
fff5
0018
fff7
fff5
ffe4
002c
003f
ffcf
fff2
ffe5
0024
ffe3
0008
ff9f
ffca
000b
fff2
fff1
0008
fff9
0013
0005
fffb
fff2
000d
fffe
0004
0003
fffa
ffe9
000e
001a
ffef
fff9
0005
fffc
fff0
003a
ffef
ffbd
0014
ff9b
0078
ff6f
0016
ffef
000d
0007
0021
0015
0015
fff1
0001
0004
0007
0012
0015
ffff
0010
0013
0010
000e
ffe9
0019
fffb
fff7
0002
0001
000f
fff7
fffe
fffd
fff7
0009
ffff
0005
fffe
0009
000f
0008
0013
fffe
ffff
0013
fff4
fffb
000d
fffd
000d
0003
0016
0007
0006
000f
0001
fffe
0000
001b
000d
fff7
fffb
0004
fff8
ffe7
fff4
0003
fff6
fffd
0003
0008
000c
fff4
0003
fffe
fffb
0006
fffb
0014
fffe
0003
0000
0004
0000
0007
0007
fff0
0004
fff0
ffff
fff2
0006
0027
0002
ffee
fffc
0007
0007
fffd
fffc
0015
0000
fffc
ffff
0018
0006
000c
0029
000f
0000
fffb
0012
0017
0013
fff3
0006
fffa
ffed
0022
0018
0007
ffec
ffff
000b
0005
0010
0013
000b
0008
fff0
fffe
fffc
fffb
0000
fffe
0002
0019
0008
fff2
000d
0007
ffdb
000b
ffd1
ffeb
ffeb
ffb4
ffc6
ffbe
ffa6
ffcb
ffea
0002
0007
fffd
0008
fff8
0013
0003
0004
ffef
0006
0005
000a
fffc
fff6
0009
0018
0003
ffae
ffd4
fff3
ffad
ffe5
ffa6
ffd7
0004
fff5
ffa9
ffd9
ffd7
fff1
0003
0004
fffe
000a
0009
ffff
ffff
0005
0016
0017
000c
0021
000e
003a
ffdc
003b
fff3
004c
0025
0066
0015
0048
000d
0023
ffc9
0009
0013
002b
ffe2
ffff
0003
ffff
fff2
000c
000b
fff5
0018
fff7
fff5
ffe4
002c
003f
ffcf
fff2
ffe5
0024
ffe3
0008
ff9f
ffca
000b
fff2
fff1
0008
fff9
0013
0005
fffb
fff2
000d
fffe
0004
0003
fffa
ffe9
000e
001a
ffef
fff9
0005
fffc
fff0
003a
ffef
ffbd
0014
ff9b
0078
ff6f
0016
ffef
000d
0007
0021
0015
0015
fff1
0001
0004
0007
0012
0015
ffff
0010
0013
0010
000e
ffe9
0019
fffb
fff7
0002
0001
000f
fff7
fffe
fffd
fff7
0009
ffff
0005
fffe
0009
000f
0008
0013
fffe
ffff
0013
fff4
fffb
000d
fffd
000d
0003
0016
0007
0006
000f
0001
fffe
0000
001b
000d
fff7
fffb
0004
fff8
ffe7
fff4
0003
fff6
fffd
0003
0008
000c
fff4
0003
fffe
fffb
0006
fffb
0014
fffe
0003
0000
0004
0000
0007
0007
fff0
0004
fff0
ffff
fff2
0006
0027
0002
ffee
fffc
0007
0007
fffd
fffc
0015
0000
fffc
ffff
0018
0006
000c
0029
000f
0000
fffb
0012
0017
0013
fff3
0006
fffa
ffed
0022
0018
0007
ffec
ffff
000b
0005
0010
0013
000b
0008
fff0
fffe
fffc
fffb
0000
fffe
0002
0019
0008
fff2
000d
0007
ffdb
000b
ffd1
ffeb
ffeb
ffb4
ffc6
ffbe
ffa6
ffcb
ffea
0002
0007
fffd
0008
fff8
0013
0003
0004
ffef
0006
0005
000a
fffc
fff6
0009
0018
0003
ffae
ffd4
fff3
ffad
ffe5
ffa6
ffd7
0004
fff5
ffa9
ffd9
ffd7
fff1
0003
0004
fffe
000a
0009
ffff
ffff
0005
0016
0017
000c
0021
000e
003a
ffdc
003b
fff3
004c
0025
0066
0015
0048
000d
0023
ffc9
0009
0013
002b
ffe2
ffff
0003
ffff
fff2
000c
000b
fff5
0018
fff7
fff5
ffe4
002c
003f
ffcf
fff2
ffe5
0024
ffe3
0008
ff9f
ffca
000b
fff2
fff1
0008
fff9
0013
0005
fffb
fff2
000d
fffe
0004
0003
fffa
ffe9
000e
001a
ffef
fff9
0005
fffc
fff0
003a
ffef
ffbd
0014
ff9b
0078
ff6f
0016
ffef
000d
0007
0021
0015
0015
fff1
0001
0004
0007
0012
0015
ffff
0010
0013
0010
000e
ffe9
0019
fffb
fff7
0002
0001
000f
fff7
fffe
fffd
fff7
0009
ffff
0005
fffe
0009
000f
0008
0013
fffe
ffff
0013
fff4
fffb
000d
fffd
000d
0003
0016
0007
0006
000f
0001
fffe
0000
001b
000d
fff7
fffb
0004
fff8
ffe7
fff4
0003
fff6
fffd
0003
0008
000c
fff4
0003
fffe
fffb
0006
fffb
0014
fffe
0003
0000
0004
0000
0007
0007
fff0
0004
fff0
ffff
fff2
0006
0027
0002
ffee
fffc
0007
0007
fffd
fffc
0015
0000
fffc
ffff
0018
0006
000c
0029
000f
0000
fffb
0012
0017
0013
fff3
0006
fffa
ffed
0022
0018
0007
ffec
ffff
000b
0005
0010
0013
000b
0008
fff0
fffe
fffc
fffb
0000
fffe
0002
0019
0008
fff2
000d
0007
ffdb
000b
ffd1
ffeb
ffeb
ffb4
ffc6
ffbe
ffa6
ffcb
ffea
0002
0007
fffd
0008
fff8
0013
0003
0004
ffef
0006
0005
000a
fffc
fff6
0009
0018
0003
ffae
ffd4
fff3
ffad
ffe5
ffa6
ffd7
0004
fff5
ffa9
ffd9
ffd7
fff1
0003
0004
fffe
000a
0009
ffff
ffff
0005
0016
0017
000c
0021
000e
003a
ffdc
003b
fff3
004c
0025
0066
0015
0048
000d
0023
ffc9
0009
0013
002b
ffe2
ffff
0003
ffff
fff2
000c
000b
fff5
0018
fff7
fff5
ffe4
002c
003f
ffcf
fff2
ffe5
0024
ffe3
0008
ff9f
ffca
000b
fff2
fff1
0008
fff9
0013
0005
fffb
fff2
000d
fffe
0004
0003
fffa
ffe9
000e
001a
ffef
fff9
0005
fffc
fff0
003a
ffef
ffbd
0014
ff9b
0078
ff6f
0016
ffef
000d
0007
0021
0015
0015
fff1
0001
0004
0007
0012
0015
ffff
0010
0013
0010
000e
ffe9
0019
fffb
fff7
0002
0001
000f
fff7
fffe
fffd
fff7
0009
ffff
0005
fffe
0009
000f
0008
0013
fffe
ffff
0013
fff4
fffb
000d
fffd
000d
0003
0016
0007
0006
000f
0001
fffe
0000
001b
000d
fff7
fffb
0004
fff8
ffe7
fff4
0003
fff6
fffd
0003
0008
000c
fff4
0003
fffe
fffb
0006
fffb
0014
fffe
0003
0000
0004
0000
0007
0007
fff0
0004
fff0
ffff
fff2
0006
0027
0002
ffee
fffc
0007
0007
fffd
fffc
0015
0000
fffc
ffff
0018
0006
000c
0029
000f
0000
fffb
0012
0017
0013
fff3
0006
fffa
ffed
0022
0018
0007
ffec
ffff
000b
0005
0010
0013
000b
0008
fff0
fffe
fffc
fffb
0000
fffe
0002
0019
0008
fff2
000d
0007
ffdb
000b
ffd1
ffeb
ffeb
ffb4
ffc6
ffbe
ffa6
ffcb
ffea
0002
0007
fffd
0008
fff8
0013
0003
0004
ffef
0006
0005
000a
fffc
fff6
0009
0018
0003
ffae
ffd4
fff3
ffad
ffe5
ffa6
ffd7
0004
fff5
ffa9
ffd9
ffd7
fff1
0003
0004
fffe
000a
0009
ffff
ffff
0005
0016
0017
000c
0021
000e
003a
ffdc
003b
fff3
004c
0025
0066
0015
0048
000d
0023
ffc9
0009
0013
002b
ffe2
ffff
0003
ffff
fff2
000c
000b
fff5
0018
fff7
fff5
ffe4
002c
003f
ffcf
fff2
ffe5
0024
ffe3
0008
ff9f
ffca
000b
fff2
fff1
0008
fff9
0013
0005
fffb
fff2
000d
fffe
0004
0003
fffa
ffe9
000e
001a
ffef
fff9
0005
fffc
fff0
003a
ffef
ffbd
0014
ff9b
0078
ff6f
0016
ffef
000d
0007
0021
0015
0015
fff1
0001
0004
0007
0012
0015
ffff
0010
0013
0010
000e
ffe9
0019
fffb
fff7
0002
0001
000f
fff7
fffe
fffd
fff7
0009
ffff
0005
fffe
0009
000f
0008
0013
fffe
ffff
0013
fff4
fffb
000d
fffd
000d
0003
0016
0007
0006
000f
0001
fffe
0000
001b
000d
fff7
fffb
0004
fff8
ffe7
fff4
0003
fff6
fffd
0003
0008
000c
fff4
0003
fffe
fffb
0006
fffb
0014
fffe
0003
0000
0004
0000
0007
0007
fff0
0004
fff0
ffff
fff2
0006
0027
0002
ffee
fffc
0007
0007
fffd
fffc
0015
0000
fffc
ffff
0018
0006
000c
0029
000f
0000
fffb
0012
0017
0013
fff3
0006
fffa
ffed
0022
0018
0007
ffec
ffff
000b
0005
0010
0013
000b
0008
fff0
fffe
fffc
fffb
0000
fffe
0002
0019
0008
fff2
000d
0007
ffdb
000b
ffd1
ffeb
ffeb
ffb4
ffc6
ffbe
ffa6
ffcb
ffea
0002
0007
fffd
0008
fff8
0013
0003
0004
ffef
0006
0005
000a
fffc
fff6
0009
0018
0003
ffae
ffd4
fff3
ffad
ffe5
ffa6
ffd7
0004
fff5
ffa9
ffd9
ffd7
fff1
0003
0004
fffe
000a
0009
ffff
ffff
0005
0016
0017
000c
0021
000e
003a
ffdc
003b
fff3
004c
0025
0066
0015
0048
000d
0023
ffc9
0009
0013
002b
ffe2
ffff
0003
ffff
fff2
000c
000b
fff5
0018
fff7
fff5
ffe4
002c
003f
ffcf
fff2
ffe5
0024
ffe3
0008
ff9f
ffca
000b
fff2
fff1
0008
fff9
0013
0005
fffb
fff2
000d
fffe
0004
0003
fffa
ffe9
000e
001a
ffef
fff9
0005
fffc
fff0
003a
ffef
ffbd
0014
ff9b
0078
ff6f
0016
ffef
000d
0007
0021
0015
0015
fff1
0001
0004
0007
0012
0015
ffff
0010
0013
0010
000e
ffe9
0019
fffb
fff7
0002
0001
000f
fff7
fffe
fffd
fff7
0009
ffff
0005
fffe
0009
000f
0008
0013
fffe
ffff
0013
fff4
fffb
000d
fffd
000d
0003
0016
0007
0006
000f
0001
fffe
0000
001b
000d
fff7
fffb
0004
fff8
ffe7
fff4
0003
fff6
fffd
0003
0008
000c
fff4
0003
fffe
fffb
0006
fffb
0014
fffe
0003
0000
0004
0000
0007
0007
fff0
0004
fff0
ffff
fff2
0006
0027
0002
ffee
fffc
0007
0007
fffd
fffc
0015
0000
fffc
ffff
0018
0006
000c
0029
000f
0000
fffb
0012
0017
0013
fff3
0006
fffa
ffed
0022
0018
0007
ffec
ffff
000b
0005
0010
0013
000b
0008
fff0
fffe
fffc
fffb
0000
fffe
0002
0019
0008
fff2
000d
0007
ffdb
000b
ffd1
ffeb
ffeb
ffb4
ffc6
ffbe
ffa6
ffcb
ffea
0002
0007
fffd
0008
fff8
0013
0003
0004
ffef
0006
0005
000a
fffc
fff6
0009
0018
0003
ffae
ffd4
fff3
ffad
ffe5
ffa6
ffd7
0004
fff5
ffa9
ffd9
ffd7
fff1
0003
0004
fffe
000a
0009
ffff
ffff
0005
0016
0017
000c
0021
000e
003a
ffdc
003b
fff3
004c
0025
0066
0015
0048
000d
0023
ffc9
0009
0013
002b
ffe2
ffff
0003
ffff
fff2
000c
000b
fff5
0018
fff7
fff5
ffe4
002c
003f
ffcf
fff2
ffe5
0024
ffe3
0008
ff9f
ffca
000b
fff2
fff1
0008
fff9
0013
0005
fffb
fff2
000d
fffe
0004
0003
fffa
ffe9
000e
001a
ffef
fff9
0005
fffc
fff0
003a
ffef
ffbd
0014
ff9b
0078
ff6f
0016
ffef
000d
0007
0021
0015
0015
fff1
0001
0004
0007
0012
0015
ffff
0010
0013
0010
000e
ffe9
0019
fffb
fff7
0002
0001
000f
fff7
fffe
fffd
fff7
0009
ffff
0005
fffe
0009
000f
0008
0013
fffe
ffff
0013
fff4
fffb
000d
fffd
000d
0003
0016
0007
0006
000f
0001
fffe
0000
001b
000d
fff7
fffb
0004
fff8
ffe7
fff4
0003
fff6
fffd
0003
0008
000c
fff4
0003
fffe
fffb
0006
fffb
0014
fffe
0003
0000
0004
0000
0007
0007
fff0
0004
fff0
ffff
fff2
0006
0027
0002
ffee
fffc
0007
0007
fffd
fffc
0015
0000
fffc
ffff
0018
0006
000c
0029
000f
0000
fffb
0012
0017
0013
fff3
0006
fffa
ffed
0022
0018
0007
ffec
ffff
000b
0005
0010
0013
000b
0008
fff0
fffe
fffc
fffb
0000
fffe
0002
0019
0008
fff2
000d
0007
ffdb
000b
ffd1
ffeb
ffeb
ffb4
ffc6
ffbe
ffa6
ffcb
ffea
0002
0007
fffd
0008
fff8
0013
0003
0004
ffef
0006
0005
000a
fffc
fff6
0009
0018
0003
ffae
ffd4
fff3
ffad
ffe5
ffa6
ffd7
0004
fff5
ffa9
ffd9
ffd7
fff1
0003
0004
fffe
000a
0009
ffff
ffff
0005
0016
0017
000c
0021
000e
003a
ffdc
003b
fff3
004c
0025
0066
0015
0048
000d
0023
ffc9
0009
0013
002b
ffe2
ffff
0003
ffff
fff2
000c
000b
fff5
0018
fff7
fff5
ffe4
002c
003f
ffcf
fff2
ffe5
0024
ffe3
0008
ff9f
ffca
000b
fff2
fff1
0008
fff9
0013
0005
fffb
fff2
000d
fffe
0004
0003
fffa
ffe9
000e
001a
ffef
fff9
0005
fffc
fff0
003a
ffef
ffbd
0014
ff9b
0078
ff6f
0016
ffef
000d
0007
0021
0015
0015
fff1
0001
0004
0007
0012
0015
ffff
0010
0013
0010
000e
ffe9
0019
fffb
fff7
0002
0001
000f
fff7
fffe
fffd
fff7
0009
ffff
0005
fffe
0009
000f
0008
0013
fffe
ffff
0013
fff4
fffb
000d
fffd
000d
0003
0016
0007
0006
000f
0001
fffe
0000
001b
000d
fff7
fffb
0004
fff8
ffe7
fff4
0003
fff6
fffd
0003
0008
000c
fff4
0003
fffe
fffb
0006
fffb
0014
fffe
0003
0000
0004
0000
0007
0007
fff0
0004
fff0
ffff
fff2
0006
0027
0002
ffee
fffc
0007
0007
fffd
fffc
0015
0000
fffc
ffff
0018
0006
000c
0029
000f
0000
fffb
0012
0017
0013
fff3
0006
fffa
ffed
0022
0018
0007
ffec
ffff
000b
0005
0010
0013
000b
0008
fff0
fffe
fffc
fffb
0000
fffe
0002
0019
0008
fff2
000d
0007
ffdb
000b
ffd1
ffeb
ffeb
ffb4
ffc6
ffbe
ffa6
ffcb
ffea
0002
0007
fffd
0008
fff8
0013
0003
0004
ffef
0006
0005
000a
fffc
fff6
0009
0018
0003
ffae
ffd4
fff3
ffad
ffe5
ffa6
ffd7
0004
fff5
ffa9
ffd9
ffd7
fff1
0003
0004
fffe
000a
0009
ffff
ffff
0005
0016
0017
000c
0021
000e
003a
ffdc
003b
fff3
004c
0025
0066
0015
0048
000d
0023
ffc9
0009
0013
002b
ffe2
ffff
0003
ffff
fff2
000c
000b
fff5
0018
fff7
fff5
ffe4
002c
003f
ffcf
fff2
ffe5
0024
ffe3
0008
ff9f
ffca
000b
fff2
fff1
0008
fff9
0013
0005
fffb
fff2
000d
fffe
0004
0003
fffa
ffe9
000e
001a
ffef
fff9
0005
fffc
fff0
003a
ffef
ffbd
0014
ff9b
0078
ff6f
0016
ffef
000d
0007
0021
0015
0015
fff1
0001
0004
0007
0012
0015
ffff
0010
0013
0010
000e
ffe9
0019
fffb
fff7
0002
0001
000f
fff7
fffe
fffd
fff7
0009
ffff
0005
fffe
0009
000f
0008
0013
fffe
ffff
0013
fff4
fffb
000d
fffd
000d
0003
0016
0007
0006
000f
0001
fffe
0000
001b
000d
fff7
fffb
0004
fff8
ffe7
fff4
0003
fff6
fffd
0003
0008
000c
fff4
0003
fffe
fffb
0006
fffb
0014
fffe
0003
0000
0004
0000
0007
0007
fff0
0004
fff0
ffff
fff2
0006
0027
0002
ffee
fffc
0007
0007
fffd
fffc
0015
0000
fffc
ffff
0018
0006
000c
0029
000f
0000
fffb
0012
0017
0013
fff3
0006
fffa
ffed
0022
0018
0007
ffec
ffff
000b
0005
0010
0013
000b
0008
fff0
fffe
fffc
fffb
0000
fffe
0002
0019
0008
fff2
000d
0007
ffdb
000b
ffd1
ffeb
ffeb
ffb4
ffc6
ffbe
ffa6
ffcb
ffea
0002
0007
fffd
0008
fff8
0013
0003
0004
ffef
0006
0005
000a
fffc
fff6
0009
0018
0003
ffae
ffd4
fff3
ffad
ffe5
ffa6
ffd7
0004
fff5
ffa9
ffd9
ffd7
fff1
0003
0004
fffe
000a
0009
ffff
ffff
0005
0016
0017
000c
0021
000e
003a
ffdc
003b
fff3
004c
0025
0066
0015
0048
000d
0023
ffc9
0009
0013
002b
ffe2
ffff
0003
ffff
fff2
000c
000b
fff5
0018
fff7
fff5
ffe4
002c
003f
ffcf
fff2
ffe5
0024
ffe3
0008
ff9f
ffca
000b
fff2
fff1
0008
fff9
0013
0005
fffb
fff2
000d
fffe
0004
0003
fffa
ffe9
000e
001a
ffef
fff9
0005
fffc
fff0
003a
ffef
ffbd
0014
ff9b
0078
ff6f
0016
ffef
000d
0007
0021
0015
0015
fff1
0001
0004
0007
0012
0015
ffff
0010
0013
0010
000e
ffe9
0019
fffb
fff7
0002
0001
000f
fff7
fffe
fffd
fff7
0009
ffff
0005
fffe
0009
000f
0008
0013
fffe
ffff
0013
fff4
fffb
000d
fffd
000d
0003
0016
0007
0006
000f
0001
fffe
0000
001b
000d
fff7
fffb
0004
fff8
ffe7
fff4
0003
fff6
fffd
0003
0008
000c
fff4
0003
fffe
fffb
0006
fffb
0014
fffe
0003
0000
0004
0000
0007
0007
fff0
0004
fff0
ffff
fff2
0006
0027
0002
ffee
fffc
0007
0007
fffd
fffc
0015
0000
fffc
ffff
0018
0006
000c
0029
000f
0000
fffb
0012
0017
0013
fff3
0006
fffa
ffed
0022
0018
0007
ffec
ffff
000b
0005
0010
0013
000b
0008
fff0
fffe
fffc
fffb
0000
fffe
0002
0019
0008
fff2
000d
0007
ffdb
000b
ffd1
ffeb
ffeb
ffb4
ffc6
ffbe
ffa6
ffcb
ffea
0002
0007
fffd
0008
fff8
0013
0003
0004
ffef
0006
0005
000a
fffc
fff6
0009
0018
0003
ffae
ffd4
fff3
ffad
ffe5
ffa6
ffd7
0004
fff5
ffa9
ffd9
ffd7
fff1
0003
0004
fffe
000a
0009
ffff
ffff
0005
0016
0017
000c
0021
000e
003a
ffdc
003b
fff3
004c
0025
0066
0015
0048
000d
0023
ffc9
0009
0013
002b
ffe2
ffff
0003
ffff
fff2
000c
000b
fff5
0018
fff7
fff5
ffe4
002c
003f
ffcf
fff2
ffe5
0024
ffe3
0008
ff9f
ffca
000b
fff2
fff1
0008
fff9
0013
0005
fffb
fff2
000d
fffe
0004
0003
fffa
ffe9
000e
001a
ffef
fff9
0005
fffc
fff0
003a
ffef
ffbd
0014
ff9b
0078
ff6f
0016
ffef
000d
0007
0021
0015
0015
fff1
0001
0004
0007
0012
0015
ffff
0010
0013
0010
000e
ffe9
0019
fffb
fff7
0002
0001
000f
fff7
fffe
fffd
fff7
0009
ffff
0005
fffe
0009
000f
0008
0013
fffe
ffff
0013
fff4
fffb
000d
fffd
000d
0003
0016
0007
0006
000f
0001
fffe
0000
001b
000d
fff7
fffb
0004
fff8
ffe7
fff4
0003
fff6
fffd
0003
0008
000c
fff4
0003
fffe
fffb
0006
fffb
0014
fffe
0003
0000
0004
0000
0007
0007
fff0
0004
fff0
ffff
fff2
0006
0027
0002
ffee
fffc
0007
0007
fffd
fffc
0015
0000
fffc
ffff
0018
0006
000c
0029
000f
0000
fffb
0012
0017
0013
fff3
0006
fffa
ffed
0022
0018
0007
ffec
ffff
000b
0005
0010
0013
000b
0008
fff0
fffe
fffc
fffb
0000
fffe
0002
0019
0008
fff2
000d
0007
ffdb
000b
ffd1
ffeb
ffeb
ffb4
ffc6
ffbe
ffa6
ffcb
ffea
0002
0007
fffd
0008
fff8
0013
0003
0004
ffef
0006
0005
000a
fffc
fff6
0009
0018
0003
ffae
ffd4
fff3
ffad
ffe5
ffa6
ffd7
0004
fff5
ffa9
ffd9
ffd7
fff1
0003
0004
fffe
000a
0009
ffff
ffff
0005
0016
0017
000c
0021
000e
003a
ffdc
003b
fff3
004c
0025
0066
0015
0048
000d
0023
ffc9
0009
0013
002b
ffe2
ffff
0003
ffff
fff2
000c
000b
fff5
0018
fff7
fff5
ffe4
002c
003f
ffcf
fff2
ffe5
0024
ffe3
0008
ff9f
ffca
000b
fff2
fff1
0008
fff9
0013
0005
fffb
fff2
000d
fffe
0004
0003
fffa
ffe9
000e
001a
ffef
fff9
0005
fffc
fff0
003a
ffef
ffbd
0014
ff9b
0078
ff6f
0016
ffef
000d
0007
0021
0015
0015
fff1
0001
0004
0007
0012
0015
ffff
0010
0013
0010
000e
ffe9
0019
fffb
fff7
0002
0001
000f
fff7
fffe
fffd
fff7
0009
ffff
0005
fffe
0009
000f
0008
0013
fffe
ffff
0013
fff4
fffb
000d
fffd
000d
0003
0016
0007
0006
000f
0001
fffe
0000
001b
000d
fff7
fffb
0004
fff8
ffe7
fff4
0003
fff6
fffd
0003
0008
000c
fff4
0003
fffe
fffb
0006
fffb
0014
fffe
0003
0000
0004
0000
0007
0007
fff0
0004
fff0
ffff
fff2
0006
0027
0002
ffee
fffc
0007
0007
fffd
fffc
0015
0000
fffc
ffff
0018
0006
000c
0029
000f
0000
fffb
0012
0017
0013
fff3
0006
fffa
ffed
0022
0018
0007
ffec
ffff
000b
0005
0010
0013
000b
0008
fff0
fffe
fffc
fffb
0000
fffe
0002
0019
0008
fff2
000d
0007
ffdb
000b
ffd1
ffeb
ffeb
ffb4
ffc6
ffbe
ffa6
ffcb
ffea
0002
0007
fffd
0008
fff8
0013
0003
0004
ffef
0006
0005
000a
fffc
fff6
0009
0018
0003
ffae
ffd4
fff3
ffad
ffe5
ffa6
ffd7
0004
fff5
ffa9
ffd9
ffd7
fff1
0003
0004
fffe
000a
0009
ffff
ffff
0005
0016
0017
000c
0021
000e
003a
ffdc
003b
fff3
004c
0025
0066
0015
0048
000d
0023
ffc9
0009
0013
002b
ffe2
ffff
0003
ffff
fff2
000c
000b
fff5
0018
fff7
fff5
ffe4
002c
003f
ffcf
fff2
ffe5
0024
ffe3
0008
ff9f
ffca
000b
fff2
fff1
0008
fff9
0013
0005
fffb
fff2
000d
fffe
0004
0003
fffa
ffe9
000e
001a
ffef
fff9
0005
fffc
fff0
003a
ffef
ffbd
0014
ff9b
0078
ff6f
0016
ffef
000d
0007
0021
0015
0015
fff1
0001
0004
0007
0012
0015
ffff
0010
0013
0010
000e
ffe9
0019
fffb
fff7
0002
0001
000f
fff7
fffe
fffd
fff7
0009
ffff
0005
fffe
0009
000f
0008
0013
fffe
ffff
0013
fff4
fffb
000d
fffd
000d
0003
0016
0007
0006
000f
0001
fffe
0000
001b
000d
fff7
fffb
0004
fff8
ffe7
fff4
0003
fff6
fffd
0003
0008
000c
fff4
0003
fffe
fffb
0006
fffb
0014
fffe
0003
0000
0004
0000
0007
0007
fff0
0004
fff0
ffff
fff2
0006
0027
0002
ffee
fffc
0007
0007
fffd
fffc
0015
0000
fffc
ffff
0018
0006
000c
0029
000f
0000
fffb
0012
0017
0013
fff3
0006
fffa
ffed
0022
0018
0007
ffec
ffff
000b
0005
0010
0013
000b
0008
fff0
fffe
fffc
fffb
0000
fffe
0002
0019
0008
fff2
000d
0007
ffdb
000b
ffd1
ffeb
ffeb
ffb4
ffc6
ffbe
ffa6
ffcb
ffea
0002
0007
fffd
0008
fff8
0013
0003
0004
ffef
0006
0005
000a
fffc
fff6
0009
0018
0003
ffae
ffd4
fff3
ffad
ffe5
ffa6
ffd7
0004
fff5
ffa9
ffd9
ffd7
fff1
0003
0004
fffe
000a
0009
ffff
ffff
0005
0016
0017
000c
0021
000e
003a
ffdc
003b
fff3
004c
0025
0066
0015
0048
000d
0023
ffc9
0009
0013
002b
ffe2
ffff
0003
ffff
fff2
000c
000b
fff5
0018
fff7
fff5
ffe4
002c
003f
ffcf
fff2
ffe5
0024
ffe3
0008
ff9f
ffca
000b
fff2
fff1
0008
fff9
0013
0005
fffb
fff2
000d
fffe
0004
0003
fffa
ffe9
000e
001a
ffef
fff9
0005
fffc
fff0
003a
ffef
ffbd
0014
ff9b
0078
ff6f
0016
ffef
000d
0007
0021
0015
0015
fff1
0001
0004
0007
0012
0015
ffff
0010
0013
0010
000e
ffe9
0019
fffb
fff7
0002
0001
000f
fff7
fffe
fffd
fff7
0009
ffff
0005
fffe
0009
000f
0008
0013
fffe
ffff
0013
fff4
fffb
000d
fffd
000d
0003
0016
0007
0006
000f
0001
fffe
0000
001b
000d
fff7
fffb
0004
fff8
ffe7
fff4
0003
fff6
fffd
0003
0008
000c
fff4
0003
fffe
fffb
0006
fffb
0014
fffe
0003
0000
0004
0000
0007
0007
fff0
0004
fff0
ffff
fff2
0006
0027
0002
ffee
fffc
0007
0007
fffd
fffc
0015
0000
fffc
ffff
0018
0006
000c
0029
000f
0000
fffb
0012
0017
0013
fff3
0006
fffa
ffed
0022
0018
0007
ffec
ffff
000b
0005
0010
0013
000b
0008
fff0
fffe
fffc
fffb
0000
fffe
0002
0019
0008
fff2
000d
0007
ffdb
000b
ffd1
ffeb
ffeb
ffb4
ffc6
ffbe
ffa6
ffcb
ffea
0002
0007
fffd
0008
fff8
0013
0003
0004
ffef
0006
0005
000a
fffc
fff6
0009
0018
0003
ffae
ffd4
fff3
ffad
ffe5
ffa6
ffd7
0004
fff5
ffa9
ffd9
ffd7
fff1
0003
0004
fffe
000a
0009
ffff
ffff
0005
0016
0017
000c
0021
000e
003a
ffdc
003b
fff3
004c
0025
0066
0015
0048
000d
0023
ffc9
0009
0013
002b
ffe2
ffff
0003
ffff
fff2
000c
000b
fff5
0018
fff7
fff5
ffe4
002c
003f
ffcf
fff2
ffe5
0024
ffe3
0008
ff9f
ffca
000b
fff2
fff1
0008
fff9
0013
0005
fffb
fff2
000d
fffe
0004
0003
fffa
ffe9
000e
001a
ffef
fff9
0005
fffc
fff0
003a
ffef
ffbd
0014
ff9b
0078
ff6f
0016
ffef
000d
0007
0021
0015
0015
fff1
0001
0004
0007
0012
0015
ffff
0010
0013
0010
000e
ffe9
0019
fffb
fff7
0002
0001
000f
fff7
fffe
fffd
fff7
0009
ffff
0005
fffe
0009
000f
0008
0013
fffe
ffff
0013
fff4
fffb
000d
fffd
000d
0003
0016
0007
0006
000f
0001
fffe
0000
001b
000d
fff7
fffb
0004
fff8
ffe7
fff4
0003
fff6
fffd
0003
0008
000c
fff4
0003
fffe
fffb
0006
fffb
0014
fffe
0003
0000
0004
0000
0007
0007
fff0
0004
fff0
ffff
fff2
0006
0027
0002
ffee
fffc
0007
0007
fffd
fffc
0015
0000
fffc
ffff
0018
0006
000c
0029
000f
0000
fffb
0012
0017
0013
fff3
0006
fffa
ffed
0022
0018
0007
ffec
ffff
000b
0005
0010
0013
000b
0008
fff0
fffe
fffc
fffb
0000
fffe
0002
0019
0008
fff2
000d
0007
ffdb
000b
ffd1
ffeb
ffeb
ffb4
ffc6
ffbe
ffa6
ffcb
ffea
0002
0007
fffd
0008
fff8
0013
0003
0004
ffef
0006
0005
000a
fffc
fff6
0009
0018
0003
ffae
ffd4
fff3
ffad
ffe5
ffa6
ffd7
0004
fff5
ffa9
ffd9
ffd7
fff1
0003
0004
fffe
000a
0009
ffff
ffff
0005
0016
0017
000c
0021
000e
003a
ffdc
003b
fff3
004c
0025
0066
0015
0048
000d
0023
ffc9
0009
0013
002b
ffe2
ffff
0003
ffff
fff2
000c
000b
fff5
0018
fff7
fff5
ffe4
002c
003f
ffcf
fff2
ffe5
0024
ffe3
0008
ff9f
ffca
000b
fff2
fff1
0008
fff9
0013
0005
fffb
fff2
000d
fffe
0004
0003
fffa
ffe9
000e
001a
ffef
fff9
0005
fffc
fff0
003a
ffef
ffbd
0014
ff9b
0078
ff6f
0016
ffef
000d
0007
0021
0015
0015
fff1
0001
0004
0007
0012
0015
ffff
0010
0013
0010
000e
ffe9
0019
fffb
fff7
0002
0001
000f
fff7
fffe
fffd
fff7
0009
ffff
0005
fffe
0009
000f
0008
0013
fffe
ffff
0013
fff4
fffb
000d
fffd
000d
0003
0016
0007
0006
000f
0001
fffe
0000
001b
000d
fff7
fffb
0004
fff8
ffe7
fff4
0003
fff6
fffd
0003
0008
000c
fff4
0003
fffe
fffb
0006
fffb
0014
fffe
0003
0000
0004
0000
0007
0007
fff0
0004
fff0
ffff
fff2
0006
0027
0002
ffee
fffc
0007
0007
fffd
fffc
0015
0000
fffc
ffff
0018
0006
000c
0029
000f
0000
fffb
0012
0017
0013
fff3
0006
fffa
ffed
0022
0018
0007
ffec
ffff
000b
0005
0010
0013
000b
0008
fff0
fffe
fffc
fffb
0000
fffe
0002
0019
0008
fff2
000d
0007
ffdb
000b
ffd1
ffeb
ffeb
ffb4
ffc6
ffbe
ffa6
ffcb
ffea
0002
0007
fffd
0008
fff8
0013
0003
0004
ffef
0006
0005
000a
fffc
fff6
0009
0018
0003
ffae
ffd4
fff3
ffad
ffe5
ffa6
ffd7
0004
fff5
ffa9
ffd9
ffd7
fff1
0003
0004
fffe
000a
0009
ffff
ffff
0005
0016
0017
000c
0021
000e
003a
ffdc
003b
fff3
004c
0025
0066
0015
0048
000d
0023
ffc9
0009
0013
002b
ffe2
ffff
0003
ffff
fff2
000c
000b
fff5
0018
fff7
fff5
ffe4
002c
003f
ffcf
fff2
ffe5
0024
ffe3
0008
ff9f
ffca
000b
fff2
fff1
0008
fff9
0013
0005
fffb
fff2
000d
fffe
0004
0003
fffa
ffe9
000e
001a
ffef
fff9
0005
fffc
fff0
003a
ffef
ffbd
0014
ff9b
0078
ff6f
0016
ffef
000d
0007
0021
0015
0015
fff1
0001
0004
0007
0012
0015
ffff
0010
0013
0010
000e
ffe9
0019
fffb
fff7
0002
0001
000f
fff7
fffe
fffd
fff7
0009
ffff
0005
fffe
0009
000f
0008
0013
fffe
ffff
0013
fff4
fffb
000d
fffd
000d
0003
0016
0007
0006
000f
0001
fffe
0000
001b
000d
fff7
fffb
0004
fff8
ffe7
fff4
0003
fff6
fffd
0003
0008
000c
fff4
0003
fffe
fffb
0006
fffb
0014
fffe
0003
0000
0004
0000
0007
0007
fff0
0004
fff0
ffff
fff2
0006
0027
0002
ffee
fffc
0007
0007
fffd
fffc
0015
0000
fffc
ffff
0018
0006
000c
0029
000f
0000
fffb
0012
0017
0013
fff3
0006
fffa
ffed
0022
0018
0007
ffec
ffff
000b
0005
0010
0013
000b
0008
fff0
fffe
fffc
fffb
0000
fffe
0002
0019
0008
fff2
000d
0007
ffdb
000b
ffd1
ffeb
ffeb
ffb4
ffc6
ffbe
ffa6
ffcb
ffea
0002
0007
fffd
0008
fff8
0013
0003
0004
ffef
0006
0005
000a
fffc
fff6
0009
0018
0003
ffae
ffd4
fff3
ffad
ffe5
ffa6
ffd7
0004
fff5
ffa9
ffd9
ffd7
fff1
0003
0004
fffe
000a
0009
ffff
ffff
0005
0016
0017
000c
0021
000e
003a
ffdc
003b
fff3
004c
0025
0066
0015
0048
000d
0023
ffc9
0009
0013
002b
ffe2
ffff
0003
ffff
fff2
000c
000b
fff5
0018
fff7
fff5
ffe4
002c
003f
ffcf
fff2
ffe5
0024
ffe3
0008
ff9f
ffca
000b
fff2
fff1
0008
fff9
0013
0005
fffb
fff2
000d
fffe
0004
0003
fffa
ffe9
000e
001a
ffef
fff9
0005
fffc
fff0
003a
ffef
ffbd
0014
ff9b
0078
ff6f
0016
ffef
000d
0007
0021
0015
0015
fff1
0001
0004
0007
0012
0015
ffff
0010
0013
0010
000e
ffe9
0019
fffb
fff7
0002
0001
000f
fff7
fffe
fffd
fff7
0009
ffff
0005
fffe
0009
000f
0008
0013
fffe
ffff
0013
fff4
fffb
000d
fffd
000d
0003
0016
0007
0006
000f
0001
fffe
0000
001b
000d
fff7
fffb
0004
fff8
ffe7
fff4
0003
fff6
fffd
0003
0008
000c
fff4
0003
fffe
fffb
0006
fffb
0014
fffe
0003
0000
0004
0000
0007
0007
fff0
0004
fff0
ffff
fff2
0006
0027
0002
ffee
fffc
0007
0007
fffd
fffc
0015
0000
fffc
ffff
0018
0006
000c
0029
000f
0000
fffb
0012
0017
0013
fff3
0006
fffa
ffed
0022
0018
0007
ffec
ffff
000b
0005
0010
0013
000b
0008
fff0
fffe
fffc
fffb
0000
fffe
0002
0019
0008
fff2
000d
0007
ffdb
000b
ffd1
ffeb
ffeb
ffb4
ffc6
ffbe
ffa6
ffcb
ffea
0002
0007
fffd
0008
fff8
0013
0003
0004
ffef
0006
0005
000a
fffc
fff6
0009
0018
0003
ffae
ffd4
fff3
ffad
ffe5
ffa6
ffd7
0004
fff5
ffa9
ffd9
ffd7
fff1
0003
0004
fffe
000a
0009
ffff
ffff
0005
0016
0017
000c
0021
000e
003a
ffdc
003b
fff3
004c
0025
0066
0015
0048
000d
0023
ffc9
0009
0013
002b
ffe2
ffff
0003
ffff
fff2
000c
000b
fff5
0018
fff7
fff5
ffe4
002c
003f
ffcf
fff2
ffe5
0024
ffe3
0008
ff9f
ffca
000b
fff2
fff1
0008
fff9
0013
0005
fffb
fff2
000d
fffe
0004
0003
fffa
ffe9
000e
001a
ffef
fff9
0005
fffc
fff0
003a
ffef
ffbd
0014
ff9b
0078
ff6f
0016
ffef
000d
0007
0021
0015
0015
fff1
0001
0004
0007
0012
0015
ffff
0010
0013
0010
000e
ffe9
0019
fffb
fff7
0002
0001
000f
fff7
fffe
fffd
fff7
0009
ffff
0005
fffe
0009
000f
0008
0013
fffe
ffff
0013
fff4
fffb
000d
fffd
000d
0003
0016
0007
0006
000f
0001
fffe
0000
001b
000d
fff7
fffb
0004
fff8
ffe7
fff4
0003
fff6
fffd
0003
0008
000c
fff4
0003
fffe
fffb
0006
fffb
0014
fffe
0003
0000
0004
0000
0007
0007
fff0
0004
fff0
ffff
fff2
0006
0027
0002
ffee
fffc
0007
0007
fffd
fffc
0015
0000
fffc
ffff
0018
0006
000c
0029
000f
0000
fffb
0012
0017
0013
fff3
0006
fffa
ffed
0022
0018
0007
ffec
ffff
000b
0005
0010
0013
000b
0008
fff0
fffe
fffc
fffb
0000
fffe
0002
0019
0008
fff2
000d
0007
ffdb
000b
ffd1
ffeb
ffeb
ffb4
ffc6
ffbe
ffa6
ffcb
ffea
0002
0007
fffd
0008
fff8
0013
0003
0004
ffef
0006
0005
000a
fffc
fff6
0009
0018
0003
ffae
ffd4
fff3
ffad
ffe5
ffa6
ffd7
0004
fff5
ffa9
ffd9
ffd7
fff1
0003
0004
fffe
000a
0009
ffff
ffff
0005
0016
0017
000c
0021
000e
003a
ffdc
003b
fff3
004c
0025
0066
0015
0048
000d
0023
ffc9
0009
0013
002b
ffe2
ffff
0003
ffff
fff2
000c
000b
fff5
0018
fff7
fff5
ffe4
002c
003f
ffcf
fff2
ffe5
0024
ffe3
0008
ff9f
ffca
000b
fff2
fff1
0008
fff9
0013
0005
fffb
fff2
000d
fffe
0004
0003
fffa
ffe9
000e
001a
ffef
fff9
0005
fffc
fff0
003a
ffef
ffbd
0014
ff9b
0078
ff6f
0016
ffef
000d
0007
0021
0015
0015
fff1
0001
0004
0007
0012
0015
ffff
0010
0013
0010
000e
ffe9
0019
fffb
fff7
0002
0001
000f
fff7
fffe
fffd
fff7
0009
ffff
0005
fffe
0009
000f
0008
0013
fffe
ffff
0013
fff4
fffb
000d
fffd
000d
0003
0016
0007
0006
000f
0001
fffe
0000
001b
000d
fff7
fffb
0004
fff8
ffe7
fff4
0003
fff6
fffd
0003
0008
000c
fff4
0003
fffe
fffb
0006
fffb
0014
fffe
0003
0000
0004
0000
0007
0007
fff0
0004
fff0
ffff
fff2
0006
0027
0002
ffee
fffc
0007
0007
fffd
fffc
0015
0000
fffc
ffff
0018
0006
000c
0029
000f
0000
fffb
0012
0017
0013
fff3
0006
fffa
ffed
0022
0018
0007
ffec
ffff
000b
0005
0010
0013
000b
0008
fff0
fffe
fffc
fffb
0000
fffe
0002
0019
0008
fff2
000d
0007
ffdb
000b
ffd1
ffeb
ffeb
ffb4
ffc6
ffbe
ffa6
ffcb
ffea
0002
0007
fffd
0008
fff8
0013
0003
0004
ffef
0006
0005
000a
fffc
fff6
0009
0018
0003
ffae
ffd4
fff3
ffad
ffe5
ffa6
ffd7
0004
fff5
ffa9
ffd9
ffd7
fff1
0003
0004
fffe
000a
0009
ffff
ffff
0005
0016
0017
000c
0021
000e
003a
ffdc
003b
fff3
004c
0025
0066
0015
0048
000d
0023
ffc9
0009
0013
002b
ffe2
ffff
0003
ffff
fff2
000c
000b
fff5
0018
fff7
fff5
ffe4
002c
003f
ffcf
fff2
ffe5
0024
ffe3
0008
ff9f
ffca
000b
fff2
fff1
0008
fff9
0013
0005
fffb
fff2
000d
fffe
0004
0003
fffa
ffe9
000e
001a
ffef
fff9
0005
fffc
fff0
003a
ffef
ffbd
0014
ff9b
0078
ff6f
0016
ffef
000d
0007
0021
0015
0015
fff1
0001
0004
0007
0012
0015
ffff
0010
0013
0010
000e
ffe9
0019
fffb
fff7
0002
0001
000f
fff7
fffe
fffd
fff7
0009
ffff
0005
fffe
0009
000f
0008
0013
fffe
ffff
0013
fff4
fffb
000d
fffd
000d
0003
0016
0007
0006
000f
0001
fffe
0000
001b
000d
fff7
fffb
0004
fff8
ffe7
fff4
0003
fff6
fffd
0003
0008
000c
fff4
0003
fffe
fffb
0006
fffb
0014
fffe
0003
0000
0004
0000
0007
0007
fff0
0004
fff0
ffff
fff2
0006
0027
0002
ffee
fffc
0007
0007
fffd
fffc
0015
0000
fffc
ffff
0018
0006
000c
0029
000f
0000
fffb
0012
0017
0013
fff3
0006
fffa
ffed
0022
0018
0007
ffec
ffff
000b
0005
0010
0013
000b
0008
fff0
fffe
fffc
fffb
0000
fffe
0002
0019
0008
fff2
000d
0007
ffdb
000b
ffd1
ffeb
ffeb
ffb4
ffc6
ffbe
ffa6
ffcb
ffea
0002
0007
fffd
0008
fff8
0013
0003
0004
ffef
0006
0005
000a
fffc
fff6
0009
0018
0003
ffae
ffd4
fff3
ffad
ffe5
ffa6
ffd7
0004
fff5
ffa9
ffd9
ffd7
fff1
0003
0004
fffe
000a
0009
ffff
ffff
0005
0016
0017
000c
0021
000e
003a
ffdc
003b
fff3
004c
0025
0066
0015
0048
000d
0023
ffc9
0009
0013
002b
ffe2
ffff
0003
ffff
fff2
000c
000b
fff5
0018
fff7
fff5
ffe4
002c
003f
ffcf
fff2
ffe5
0024
ffe3
0008
ff9f
ffca
000b
fff2
fff1
0008
fff9
0013
0005
fffb
fff2
000d
fffe
0004
0003
fffa
ffe9
000e
001a
ffef
fff9
0005
fffc
fff0
003a
ffef
ffbd
0014
ff9b
0078
ff6f
0016
ffef
000d
0007
0021
0015
0015
fff1
0001
0004
0007
0012
0015
ffff
0010
0013
0010
000e
ffe9
0019
fffb
fff7
0002
0001
000f
fff7
fffe
fffd
fff7
0009
ffff
0005
fffe
0009
000f
0008
0013
fffe
ffff
0013
fff4
fffb
000d
fffd
000d
0003
0016
0007
0006
000f
0001
fffe
0000
001b
000d
fff7
fffb
0004
fff8
ffe7
fff4
0003
fff6
fffd
0003
0008
000c
fff4
0003
fffe
fffb
0006
fffb
0014
fffe
0003
0000
0004
0000
0007
0007
fff0
0004
fff0
ffff
fff2
0006
0027
0002
ffee
fffc
0007
0007
fffd
fffc
0015
0000
fffc
ffff
0018
0006
000c
0029
000f
0000
fffb
0012
0017
0013
fff3
0006
fffa
ffed
0022
0018
0007
ffec
ffff
000b
0005
0010
0013
000b
0008
fff0
fffe
fffc
fffb
0000
fffe
0002
0019
0008
fff2
000d
0007
ffdb
000b
ffd1
ffeb
ffeb
ffb4
ffc6
ffbe
ffa6
ffcb
ffea
0002
0007
fffd
0008
fff8
0013
0003
0004
ffef
0006
0005
000a
fffc
fff6
0009
0018
0003
ffae
ffd4
fff3
ffad
ffe5
ffa6
ffd7
0004
fff5
ffa9
ffd9
ffd7
fff1
0003
0004
fffe
000a
0009
ffff
ffff
0005
0016
0017
000c
0021
000e
003a
ffdc
003b
fff3
004c
0025
0066
0015
0048
000d
0023
ffc9
0009
0013
002b
ffe2
ffff
0003
ffff
fff2
000c
000b
fff5
0018
fff7
fff5
ffe4
002c
003f
ffcf
fff2
ffe5
0024
ffe3
0008
ff9f
ffca
000b
fff2
fff1
0008
fff9
0013
0005
fffb
fff2
000d
fffe
0004
0003
fffa
ffe9
000e
001a
ffef
fff9
0005
fffc
fff0
003a
ffef
ffbd
0014
ff9b
0078
ff6f
0016
ffef
000d
0007
0021
0015
0015
fff1
0001
0004
0007
0012
0015
ffff
0010
0013
0010
000e
ffe9
0019
fffb
fff7
0002
0001
000f
fff7
fffe
fffd
fff7
0009
ffff
0005
fffe
0009
000f
0008
0013
fffe
ffff
0013
fff4
fffb
000d
fffd
000d
0003
0016
0007
0006
000f
0001
fffe
0000
001b
000d
fff7
fffb
0004
fff8
ffe7
fff4
0003
fff6
fffd
0003
0008
000c
fff4
0003
fffe
fffb
0006
fffb
0014
fffe
0003
0000
0004
0000
0007
0007
fff0
0004
fff0
ffff
fff2
0006
0027
0002
ffee
fffc
0007
0007
fffd
fffc
0015
0000
fffc
ffff
0018
0006
000c
0029
000f
0000
fffb
0012
0017
0013
fff3
0006
fffa
ffed
0022
0018
0007
ffec
ffff
000b
0005
0010
0013
000b
0008
fff0
fffe
fffc
fffb
0000
fffe
0002
0019
0008
fff2
000d
0007
ffdb
000b
ffd1
ffeb
ffeb
ffb4
ffc6
ffbe
ffa6
ffcb
ffea
0002
0007
fffd
0008
fff8
0013
0003
0004
ffef
0006
0005
000a
fffc
fff6
0009
0018
0003
ffae
ffd4
fff3
ffad
ffe5
ffa6
ffd7
0004
fff5
ffa9
ffd9
ffd7
fff1
0003
0004
fffe
000a
0009
ffff
ffff
0005
0016
0017
000c
0021
000e
003a
ffdc
003b
fff3
004c
0025
0066
0015
0048
000d
0023
ffc9
0009
0013
002b
ffe2
ffff
0003
ffff
fff2
000c
000b
fff5
0018
fff7
fff5
ffe4
002c
003f
ffcf
fff2
ffe5
0024
ffe3
0008
ff9f
ffca
000b
fff2
fff1
0008
fff9
0013
0005
fffb
fff2
000d
fffe
0004
0003
fffa
ffe9
000e
001a
ffef
fff9
0005
fffc
fff0
003a
ffef
ffbd
0014
ff9b
0078
ff6f
0016
ffef
000d
0007
0021
0015
0015
fff1
0001
0004
0007
0012
0015
ffff
0010
0013
0010
000e
ffe9
0019
fffb
fff7
0002
0001
000f
fff7
fffe
fffd
fff7
0009
ffff
0005
fffe
0009
000f
0008
0013
fffe
ffff
0013
fff4
fffb
000d
fffd
000d
0003
0016
0007
0006
000f
0001
fffe
0000
001b
000d
fff7
fffb
0004
fff8
ffe7
fff4
0003
fff6
fffd
0003
0008
000c
fff4
0003
fffe
fffb
0006
fffb
0014
fffe
0003
0000
0004
0000
0007
0007
fff0
0004
fff0
ffff
fff2
0006
0027
0002
ffee
fffc
0007
0007
fffd
fffc
0015
0000
fffc
ffff
0018
0006
000c
0029
000f
0000
fffb
0012
0017
0013
fff3
0006
fffa
ffed
0022
0018
0007
ffec
ffff
000b
0005
0010
0013
000b
0008
fff0
fffe
fffc
fffb
0000
fffe
0002
0019
0008
fff2
000d
0007
ffdb
000b
ffd1
ffeb
ffeb
ffb4
ffc6
ffbe
ffa6
ffcb
ffea
0002
0007
fffd
0008
fff8
0013
0003
0004
ffef
0006
0005
000a
fffc
fff6
0009
0018
0003
ffae
ffd4
fff3
ffad
ffe5
ffa6
ffd7
0004
fff5
ffa9
ffd9
ffd7
fff1
0003
0004
fffe
000a
0009
ffff
ffff
0005
0016
0017
000c
0021
000e
003a
ffdc
003b
fff3
004c
0025
0066
0015
0048
000d
0023
ffc9
0009
0013
002b
ffe2
ffff
0003
ffff
fff2
000c
000b
fff5
0018
fff7
fff5
ffe4
002c
003f
ffcf
fff2
ffe5
0024
ffe3
0008
ff9f
ffca
000b
fff2
fff1
0008
fff9
0013
0005
fffb
fff2
000d
fffe
0004
0003
fffa
ffe9
000e
001a
ffef
fff9
0005
fffc
fff0
003a
ffef
ffbd
0014
ff9b
0078
ff6f
0016
ffef
000d
0007
0021
0015
0015
fff1
0001
0004
0007
0012
0015
ffff
0010
0013
0010
000e
ffe9
0019
fffb
fff7
0002
0001
000f
fff7
fffe
fffd
fff7
0009
ffff
0005
fffe
0009
000f
0008
0013
fffe
ffff
0013
fff4
fffb
000d
fffd
000d
0003
0016
0007
0006
000f
0001
fffe
0000
001b
000d
fff7
fffb
0004
fff8
ffe7
fff4
0003
fff6
fffd
0003
0008
000c
fff4
0003
fffe
fffb
0006
fffb
0014
fffe
0003
0000
0004
0000
0007
0007
fff0
0004
fff0
ffff
fff2
0006
0027
0002
ffee
fffc
0007
0007
fffd
fffc
0015
0000
fffc
ffff
0018
0006
000c
0029
000f
0000
fffb
0012
0017
0013
fff3
0006
fffa
ffed
0022
0018
0007
ffec
ffff
000b
0005
0010
0013
000b
0008
fff0
fffe
fffc
fffb
0000
fffe
0002
0019
0008
fff2
000d
0007
ffdb
000b
ffd1
ffeb
ffeb
ffb4
ffc6
ffbe
ffa6
ffcb
ffea
0002
0007
fffd
0008
fff8
0013
0003
0004
ffef
0006
0005
000a
fffc
fff6
0009
0018
0003
ffae
ffd4
fff3
ffad
ffe5
ffa6
ffd7
0004
fff5
ffa9
ffd9
ffd7
fff1
0003
0004
fffe
000a
0009
ffff
ffff
0005
0016
0017
000c
0021
000e
003a
ffdc
003b
fff3
004c
0025
0066
0015
0048
000d
0023
ffc9
0009
0013
002b
ffe2
ffff
0003
ffff
fff2
000c
000b
fff5
0018
fff7
fff5
ffe4
002c
003f
ffcf
fff2
ffe5
0024
ffe3
0008
ff9f
ffca
000b
fff2
fff1
0008
fff9
0013
0005
fffb
fff2
000d
fffe
0004
0003
fffa
ffe9
000e
001a
ffef
fff9
0005
fffc
fff0
003a
ffef
ffbd
0014
ff9b
0078
ff6f
0016
ffef
000d
0007
0021
0015
0015
fff1
0001
0004
0007
0012
0015
ffff
0010
0013
0010
000e
ffe9
0019
fffb
fff7
0002
0001
000f
fff7
fffe
fffd
fff7
0009
ffff
0005
fffe
0009
000f
0008
0013
fffe
ffff
0013
fff4
fffb
000d
fffd
000d
0003
0016
0007
0006
000f
0001
fffe
0000
001b
000d
fff7
fffb
0004
fff8
ffe7
fff4
0003
fff6
fffd
0003
0008
000c
fff4
0003
fffe
fffb
0006
fffb
0014
fffe
0003
0000
0004
0000
0007
0007
fff0
0004
fff0
ffff
fff2
0006
0027
0002
ffee
fffc
0007
0007
fffd
fffc
0015
0000
fffc
ffff
0018
0006
000c
0029
000f
0000
fffb
0012
0017
0013
fff3
0006
fffa
ffed
0022
0018
0007
ffec
ffff
000b
0005
0010
0013
000b
0008
fff0
fffe
fffc
fffb
0000
fffe
0002
0019
0008
fff2
000d
0007
ffdb
000b
ffd1
ffeb
ffeb
ffb4
ffc6
ffbe
ffa6
ffcb
ffea
0002
0007
fffd
0008
fff8
0013
0003
0004
ffef
0006
0005
000a
fffc
fff6
0009
0018
0003
ffae
ffd4
fff3
ffad
ffe5
ffa6
ffd7
0004
fff5
ffa9
ffd9
ffd7
fff1
0003
0004
fffe
000a
0009
ffff
ffff
0005
0016
0017
000c
0021
000e
003a
ffdc
003b
fff3
004c
0025
0066
0015
0048
000d
0023
ffc9
0009
0013
002b
ffe2
ffff
0003
ffff
fff2
000c
000b
fff5
0018
fff7
fff5
ffe4
002c
003f
ffcf
fff2
ffe5
0024
ffe3
0008
ff9f
ffca
000b
fff2
fff1
0008
fff9
0013
0005
fffb
fff2
000d
fffe
0004
0003
fffa
ffe9
000e
001a
ffef
fff9
0005
fffc
fff0
003a
ffef
ffbd
0014
ff9b
0078
ff6f
0016
ffef
000d
0007
0021
0015
0015
fff1
0001
0004
0007
0012
0015
ffff
0010
0013
0010
000e
ffe9
0019
fffb
fff7
0002
0001
000f
fff7
fffe
fffd
fff7
0009
ffff
0005
fffe
0009
000f
0008
0013
fffe
ffff
0013
fff4
fffb
000d
fffd
000d
0003
0016
0007
0006
000f
0001
fffe
0000
001b
000d
fff7
fffb
0004
fff8
ffe7
fff4
0003
fff6
fffd
0003
0008
000c
fff4
0003
fffe
fffb
0006
fffb
0014
fffe
0003
0000
0004
0000
0007
0007
fff0
0004
fff0
ffff
fff2
0006
0027
0002
ffee
fffc
0007
0007
fffd
fffc
0015
0000
fffc
ffff
0018
0006
000c
0029
000f
0000
fffb
0012
0017
0013
fff3
0006
fffa
ffed
0022
0018
0007
ffec
ffff
000b
0005
0010
0013
000b
0008
fff0
fffe
fffc
fffb
0000
fffe
0002
0019
0008
fff2
000d
0007
ffdb
000b
ffd1
ffeb
ffeb
ffb4
ffc6
ffbe
ffa6
ffcb
ffea
0002
0007
fffd
0008
fff8
0013
0003
0004
ffef
0006
0005
000a
fffc
fff6
0009
0018
0003
ffae
ffd4
fff3
ffad
ffe5
ffa6
ffd7
0004
fff5
ffa9
ffd9
ffd7
fff1
0003
0004
fffe
000a
0009
ffff
ffff
0005
0016
0017
000c
0021
000e
003a
ffdc
003b
fff3
004c
0025
0066
0015
0048
000d
0023
ffc9
0009
0013
002b
ffe2
ffff
0003
ffff
fff2
000c
000b
fff5
0018
fff7
fff5
ffe4
002c
003f
ffcf
fff2
ffe5
0024
ffe3
0008
ff9f
ffca
000b
fff2
fff1
0008
fff9
0013
0005
fffb
fff2
000d
fffe
0004
0003
fffa
ffe9
000e
001a
ffef
fff9
0005
fffc
fff0
003a
ffef
ffbd
0014
ff9b
0078
ff6f
0016
ffef
000d
0007
0021
0015
0015
fff1
0001
0004
0007
0012
0015
ffff
0010
0013
0010
000e
ffe9
0019
fffb
fff7
0002
0001
000f
fff7
fffe
fffd
fff7
0009
ffff
0005
fffe
0009
000f
0008
0013
fffe
ffff
0013
fff4
fffb
000d
fffd
000d
0003
0016
0007
0006
000f
0001
fffe
0000
001b
000d
fff7
fffb
0004
fff8
ffe7
fff4
0003
fff6
fffd
0003
0008
000c
fff4
0003
fffe
fffb
0006
fffb
0014
fffe
0003
0000
0004
0000
0007
0007
fff0
0004
fff0
ffff
fff2
0006
0027
0002
ffee
fffc
0007
0007
fffd
fffc
0015
0000
fffc
ffff
0018
0006
000c
0029
000f
0000
fffb
0012
0017
0013
fff3
0006
fffa
ffed
0022
0018
0007
ffec
ffff
000b
0005
0010
0013
000b
0008
fff0
fffe
fffc
fffb
0000
fffe
0002
0019
0008
fff2
000d
0007
ffdb
000b
ffd1
ffeb
ffeb
ffb4
ffc6
ffbe
ffa6
ffcb
ffea
0002
0007
fffd
0008
fff8
0013
0003
0004
ffef
0006
0005
000a
fffc
fff6
0009
0018
0003
ffae
ffd4
fff3
ffad
ffe5
ffa6
ffd7
0004
fff5
ffa9
ffd9
ffd7
fff1
0003
0004
fffe
000a
0009
ffff
ffff
0005
0016
0017
000c
0021
000e
003a
ffdc
003b
fff3
004c
0025
0066
0015
0048
000d
0023
ffc9
0009
0013
002b
ffe2
ffff
0003
ffff
fff2
000c
000b
fff5
0018
fff7
fff5
ffe4
002c
003f
ffcf
fff2
ffe5
0024
ffe3
0008
ff9f
ffca
000b
fff2
fff1
0008
fff9
0013
0005
fffb
fff2
000d
fffe
0004
0003
fffa
ffe9
000e
001a
ffef
fff9
0005
fffc
fff0
003a
ffef
ffbd
0014
ff9b
0078
ff6f
0016
ffef
000d
0007
0021
0015
0015
fff1
0001
0004
0007
0012
0015
ffff
0010
0013
0010
000e
ffe9
0019
fffb
fff7
0002
0001
000f
fff7
fffe
fffd
fff7
0009
ffff
0005
fffe
0009
000f
0008
0013
fffe
ffff
0013
fff4
fffb
000d
fffd
000d
0003
0016
0007
0006
000f
0001
fffe
0000
001b
000d
fff7
fffb
0004
fff8
ffe7
fff4
0003
fff6
fffd
0003
0008
000c
fff4
0003
fffe
fffb
0006
fffb
0014
fffe
0003
0000
0004
0000
0007
0007
fff0
0004
fff0
ffff
fff2
0006
0027
0002
ffee
fffc
0007
0007
fffd
fffc
0015
0000
fffc
ffff
0018
0006
000c
0029
000f
0000
fffb
0012
0017
0013
fff3
0006
fffa
ffed
0022
0018
0007
ffec
ffff
000b
0005
0010
0013
000b
0008
fff0
fffe
fffc
fffb
0000
fffe
0002
0019
0008
fff2
000d
0007
ffdb
000b
ffd1
ffeb
ffeb
ffb4
ffc6
ffbe
ffa6
ffcb
ffea
0002
0007
fffd
0008
fff8
0013
0003
0004
ffef
0006
0005
000a
fffc
fff6
0009
0018
0003
ffae
ffd4
fff3
ffad
ffe5
ffa6
ffd7
0004
fff5
ffa9
ffd9
ffd7
fff1
0003
0004
fffe
000a
0009
ffff
ffff
0005
0016
0017
000c
0021
000e
003a
ffdc
003b
fff3
004c
0025
0066
0015
0048
000d
0023
ffc9
0009
0013
002b
ffe2
ffff
0003
ffff
fff2
000c
000b
fff5
0018
fff7
fff5
ffe4
002c
003f
ffcf
fff2
ffe5
0024
ffe3
0008
ff9f
ffca
000b
fff2
fff1
0008
fff9
0013
0005
fffb
fff2
000d
fffe
0004
0003
fffa
ffe9
000e
001a
ffef
fff9
0005
fffc
fff0
003a
ffef
ffbd
0014
ff9b
0078
ff6f
0016
ffef
000d
0007
0021
0015
0015
fff1
0001
0004
0007
0012
0015
ffff
0010
0013
0010
000e
ffe9
0019
fffb
fff7
0002
0001
000f
fff7
fffe
fffd
fff7
0009
ffff
0005
fffe
0009
000f
0008
0013
fffe
ffff
0013
fff4
fffb
000d
fffd
000d
0003
0016
0007
0006
000f
0001
fffe
0000
001b
000d
fff7
fffb
0004
fff8
ffe7
fff4
0003
fff6
fffd
0003
0008
000c
fff4
0003
fffe
fffb
0006
fffb
0014
fffe
0003
0000
0004
0000
0007
0007
fff0
0004
fff0
ffff
fff2
0006
0027
0002
ffee
fffc
0007
0007
fffd
fffc
0015
0000
fffc
ffff
0018
0006
000c
0029
000f
0000
fffb
0012
0017
0013
fff3
0006
fffa
ffed
0022
0018
0007
ffec
ffff
000b
0005
0010
0013
000b
0008
fff0
fffe
fffc
fffb
0000
fffe
0002
0019
0008
fff2
000d
0007
ffdb
000b
ffd1
ffeb
ffeb
ffb4
ffc6
ffbe
ffa6
ffcb
ffea
0002
0007
fffd
0008
fff8
0013
0003
0004
ffef
0006
0005
000a
fffc
fff6
0009
0018
0003
ffae
ffd4
fff3
ffad
ffe5
ffa6
ffd7
0004
fff5
ffa9
ffd9
ffd7
fff1
0003
0004
fffe
000a
0009
ffff
ffff
0005
0016
0017
000c
0021
000e
003a
ffdc
003b
fff3
004c
0025
0066
0015
0048
000d
0023
ffc9
0009
0013
002b
ffe2
ffff
0003
ffff
fff2
000c
000b
fff5
0018
fff7
fff5
ffe4
002c
003f
ffcf
fff2
ffe5
0024
ffe3
0008
ff9f
ffca
000b
fff2
fff1
0008
fff9
0013
0005
fffb
fff2
000d
fffe
0004
0003
fffa
ffe9
000e
001a
ffef
fff9
0005
fffc
fff0
003a
ffef
ffbd
0014
ff9b
0078
ff6f
0016
ffef
000d
0007
0021
0015
0015
fff1
0001
0004
0007
0012
0015
ffff
0010
0013
0010
000e
ffe9
0019
fffb
fff7
0002
0001
000f
fff7
fffe
fffd
fff7
0009
ffff
0005
fffe
0009
000f
0008
0013
fffe
ffff
0013
fff4
fffb
000d
fffd
000d
0003
0016
0007
0006
000f
0001
fffe
0000
001b
000d
fff7
fffb
0004
fff8
ffe7
fff4
0003
fff6
fffd
0003
0008
000c
fff4
0003
fffe
fffb
0006
fffb
0014
fffe
0003
0000
0004
0000
0007
0007
fff0
0004
fff0
ffff
fff2
0006
0027
0002
ffee
fffc
0007
0007
fffd
fffc
0015
0000
fffc
ffff
0018
0006
000c
0029
000f
0000
fffb
0012
0017
0013
fff3
0006
fffa
ffed
0022
0018
0007
ffec
ffff
000b
0005
0010
0013
000b
0008
fff0
fffe
fffc
fffb
0000
fffe
0002
0019
0008
fff2
000d
0007
ffdb
000b
ffd1
ffeb
ffeb
ffb4
ffc6
ffbe
ffa6
ffcb
ffea
0002
0007
fffd
0008
fff8
0013
0003
0004
ffef
0006
0005
000a
fffc
fff6
0009
0018
0003
ffae
ffd4
fff3
ffad
ffe5
ffa6
ffd7
0004
fff5
ffa9
ffd9
ffd7
fff1
0003
0004
fffe
000a
0009
ffff
ffff
0005
0016
0017
000c
0021
000e
003a
ffdc
003b
fff3
004c
0025
0066
0015
0048
000d
0023
ffc9
0009
0013
002b
ffe2
ffff
0003
ffff
fff2
000c
000b
fff5
0018
fff7
fff5
ffe4
002c
003f
ffcf
fff2
ffe5
0024
ffe3
0008
ff9f
ffca
000b
fff2
fff1
0008
fff9
0013
0005
fffb
fff2
000d
fffe
0004
0003
fffa
ffe9
000e
001a
ffef
fff9
0005
fffc
fff0
003a
ffef
ffbd
0014
ff9b
0078
ff6f
0016
ffef
000d
0007
0021
0015
0015
fff1
0001
0004
0007
0012
0015
ffff
0010
0013
0010
000e
ffe9
0019
fffb
fff7
0002
0001
000f
fff7
fffe
fffd
fff7
0009
ffff
0005
fffe
0009
000f
0008
0013
fffe
ffff
0013
fff4
fffb
000d
fffd
000d
0003
0016
0007
0006
000f
0001
fffe
0000
001b
000d
fff7
fffb
0004
fff8
ffe7
fff4
0003
fff6
fffd
0003
0008
000c
fff4
0003
fffe
fffb
0006
fffb
0014
fffe
0003
0000
0004
0000
0007
0007
fff0
0004
fff0
ffff
fff2
0006
0027
0002
ffee
fffc
0007
0007
fffd
fffc
0015
0000
fffc
ffff
0018
0006
000c
0029
000f
0000
fffb
0012
0017
0013
fff3
0006
fffa
ffed
0022
0018
0007
ffec
ffff
000b
0005
0010
0013
000b
0008
fff0
fffe
fffc
fffb
0000
fffe
0002
0019
0008
fff2
000d
0007
ffdb
000b
ffd1
ffeb
ffeb
ffb4
ffc6
ffbe
ffa6
ffcb
ffea
0002
0007
fffd
0008
fff8
0013
0003
0004
ffef
0006
0005
000a
fffc
fff6
0009
0018
0003
ffae
ffd4
fff3
ffad
ffe5
ffa6
ffd7
0004
fff5
ffa9
ffd9
ffd7
fff1
0003
0004
fffe
000a
0009
ffff
ffff
0005
0016
0017
000c
0021
000e
003a
ffdc
003b
fff3
004c
0025
0066
0015
0048
000d
0023
ffc9
0009
0013
002b
ffe2
ffff
0003
ffff
fff2
000c
000b
fff5
0018
fff7
fff5
ffe4
002c
003f
ffcf
fff2
ffe5
0024
ffe3
0008
ff9f
ffca
000b
fff2
fff1
0008
fff9
0013
0005
fffb
fff2
000d
fffe
0004
0003
fffa
ffe9
000e
001a
ffef
fff9
0005
fffc
fff0
003a
ffef
ffbd
0014
ff9b
0078
ff6f
0016
ffef
000d
0007
0021
0015
0015
fff1
0001
0004
0007
0012
0015
ffff
0010
0013
0010
000e
ffe9
0019
fffb
fff7
0002
0001
000f
fff7
fffe
fffd
fff7
0009
ffff
0005
fffe
0009
000f
0008
0013
fffe
ffff
0013
fff4
fffb
000d
fffd
000d
0003
0016
0007
0006
000f
0001
fffe
0000
001b
000d
fff7
fffb
0004
fff8
ffe7
fff4
0003
fff6
fffd
0003
0008
000c
fff4
0003
fffe
fffb
0006
fffb
0014
fffe
0003
0000
0004
0000
0007
0007
fff0
0004
fff0
ffff
fff2
0006
0027
0002
ffee
fffc
0007
0007
fffd
fffc
0015
0000
fffc
ffff
0018
0006
000c
0029
000f
0000
fffb
0012
0017
0013
fff3
0006
fffa
ffed
0022
0018
0007
ffec
ffff
000b
0005
0010
0013
000b
0008
fff0
fffe
fffc
fffb
0000
fffe
0002
0019
0008
fff2
000d
0007
ffdb
000b
ffd1
ffeb
ffeb
ffb4
ffc6
ffbe
ffa6
ffcb
ffea
0002
0007
fffd
0008
fff8
0013
0003
0004
ffef
0006
0005
000a
fffc
fff6
0009
0018
0003
ffae
ffd4
fff3
ffad
ffe5
ffa6
ffd7
0004
fff5
ffa9
ffd9
ffd7
fff1
0003
0004
fffe
000a
0009
ffff
ffff
0005
0016
0017
000c
0021
000e
003a
ffdc
003b
fff3
004c
0025
0066
0015
0048
000d
0023
ffc9
0009
0013
002b
ffe2
ffff
0003
ffff
fff2
000c
000b
fff5
0018
fff7
fff5
ffe4
002c
003f
ffcf
fff2
ffe5
0024
ffe3
0008
ff9f
ffca
000b
fff2
fff1
0008
fff9
0013
0005
fffb
fff2
000d
fffe
0004
0003
fffa
ffe9
000e
001a
ffef
fff9
0005
fffc
fff0
003a
ffef
ffbd
0014
ff9b
0078
ff6f
0016
ffef
000d
0007
0021
0015
0015
fff1
0001
0004
0007
0012
0015
ffff
0010
0013
0010
000e
ffe9
0019
fffb
fff7
0002
0001
000f
fff7
fffe
fffd
fff7
0009
ffff
0005
fffe
0009
000f
0008
0013
fffe
ffff
0013
fff4
fffb
000d
fffd
000d
0003
0016
0007
0006
000f
0001
fffe
0000
001b
000d
fff7
fffb
0004
fff8
ffe7
fff4
0003
fff6
fffd
0003
0008
000c
fff4
0003
fffe
fffb
0006
fffb
0014
fffe
0003
0000
0004
0000
0007
0007
fff0
0004
fff0
ffff
fff2
0006
0027
0002
ffee
fffc
0007
0007
fffd
fffc
0015
0000
fffc
ffff
0018
0006
000c
0029
000f
0000
fffb
0012
0017
0013
fff3
0006
fffa
ffed
0022
0018
0007
ffec
ffff
000b
0005
0010
0013
000b
0008
fff0
fffe
fffc
fffb
0000
fffe
0002
0019
0008
fff2
000d
0007
ffdb
000b
ffd1
ffeb
ffeb
ffb4
ffc6
ffbe
ffa6
ffcb
ffea
0002
0007
fffd
0008
fff8
0013
0003
0004
ffef
0006
0005
000a
fffc
fff6
0009
0018
0003
ffae
ffd4
fff3
ffad
ffe5
ffa6
ffd7
0004
fff5
ffa9
ffd9
ffd7
fff1
0003
0004
fffe
000a
0009
ffff
ffff
0005
0016
0017
000c
0021
000e
003a
ffdc
003b
fff3
004c
0025
0066
0015
0048
000d
0023
ffc9
0009
0013
002b
ffe2
ffff
0003
ffff
fff2
000c
000b
fff5
0018
fff7
fff5
ffe4
002c
003f
ffcf
fff2
ffe5
0024
ffe3
0008
ff9f
ffca
000b
fff2
fff1
0008
fff9
0013
0005
fffb
fff2
000d
fffe
0004
0003
fffa
ffe9
000e
001a
ffef
fff9
0005
fffc
fff0
003a
ffef
ffbd
0014
ff9b
0078
ff6f
0016
ffef
000d
0007
0021
0015
0015
fff1
0001
0004
0007
0012
0015
ffff
0010
0013
0010
000e
ffe9
0019
fffb
fff7
0002
0001
000f
fff7
fffe
fffd
fff7
0009
ffff
0005
fffe
0009
000f
0008
0013
fffe
ffff
0013
fff4
fffb
000d
fffd
000d
0003
0016
0007
0006
000f
0001
fffe
0000
001b
000d
fff7
fffb
0004
fff8
ffe7
fff4
0003
fff6
fffd
0003
0008
000c
fff4
0003
fffe
fffb
0006
fffb
0014
fffe
0003
0000
0004
0000
0007
0007
fff0
0004
fff0
ffff
fff2
0006
0027
0002
ffee
fffc
0007
0007
fffd
fffc
0015
0000
fffc
ffff
0018
0006
000c
0029
000f
0000
fffb
0012
0017
0013
fff3
0006
fffa
ffed
0022
0018
0007
ffec
ffff
000b
0005
0010
0013
000b
0008
fff0
fffe
fffc
fffb
0000
fffe
0002
0019
0008
fff2
000d
0007
ffdb
000b
ffd1
ffeb
ffeb
ffb4
ffc6
ffbe
ffa6
ffcb
ffea
0002
0007
fffd
0008
fff8
0013
0003
0004
ffef
0006
0005
000a
fffc
fff6
0009
0018
0003
ffae
ffd4
fff3
ffad
ffe5
ffa6
ffd7
0004
fff5
ffa9
ffd9
ffd7
fff1
0003
0004
fffe
000a
0009
ffff
ffff
0005
0016
0017
000c
0021
000e
003a
ffdc
003b
fff3
004c
0025
0066
0015
0048
000d
0023
ffc9
0009
0013
002b
ffe2
ffff
0003
ffff
fff2
000c
000b
fff5
0018
fff7
fff5
ffe4
002c
003f
ffcf
fff2
ffe5
0024
ffe3
0008
ff9f
ffca
000b
fff2
fff1
0008
fff9
0013
0005
fffb
fff2
000d
fffe
0004
0003
fffa
ffe9
000e
001a
ffef
fff9
0005
fffc
fff0
003a
ffef
ffbd
0014
ff9b
0078
ff6f
0016
ffef
000d
0007
0021
0015
0015
fff1
0001
0004
0007
0012
0015
ffff
0010
0013
0010
000e
ffe9
0019
fffb
fff7
0002
0001
000f
fff7
fffe
fffd
fff7
0009
ffff
0005
fffe
0009
000f
0008
0013
fffe
ffff
0013
fff4
fffb
000d
fffd
000d
0003
0016
0007
0006
000f
0001
fffe
0000
001b
000d
fff7
fffb
0004
fff8
ffe7
fff4
0003
fff6
fffd
0003
0008
000c
fff4
0003
fffe
fffb
0006
fffb
0014
fffe
0003
0000
0004
0000
0007
0007
fff0
0004
fff0
ffff
fff2
0006
0027
0002
ffee
fffc
0007
0007
fffd
fffc
0015
0000
fffc
ffff
0018
0006
000c
0029
000f
0000
fffb
0012
0017
0013
fff3
0006
fffa
ffed
0022
0018
0007
ffec
ffff
000b
0005
0010
0013
000b
0008
fff0
fffe
fffc
fffb
0000
fffe
0002
0019
0008
fff2
000d
0007
ffdb
000b
ffd1
ffeb
ffeb
ffb4
ffc6
ffbe
ffa6
ffcb
ffea
0002
0007
fffd
0008
fff8
0013
0003
0004
ffef
0006
0005
000a
fffc
fff6
0009
0018
0003
ffae
ffd4
fff3
ffad
ffe5
ffa6
ffd7
0004
fff5
ffa9
ffd9
ffd7
fff1
0003
0004
fffe
000a
0009
ffff
ffff
0005
0016
0017
000c
0021
000e
003a
ffdc
003b
fff3
004c
0025
0066
0015
0048
000d
0023
ffc9
0009
0013
002b
ffe2
ffff
0003
ffff
fff2
000c
000b
fff5
0018
fff7
fff5
ffe4
002c
003f
ffcf
fff2
ffe5
0024
ffe3
0008
ff9f
ffca
000b
fff2
fff1
0008
fff9
0013
0005
fffb
fff2
000d
fffe
0004
0003
fffa
ffe9
000e
001a
ffef
fff9
0005
fffc
fff0
003a
ffef
ffbd
0014
ff9b
0078
ff6f
0016
ffef
000d
0007
0021
0015
0015
fff1
0001
0004
0007
0012
0015
ffff
0010
0013
0010
000e
ffe9
0019
fffb
fff7
0002
0001
000f
fff7
fffe
fffd
fff7
0009
ffff
0005
fffe
0009
000f
0008
0013
fffe
ffff
0013
fff4
fffb
000d
fffd
000d
0003
0016
0007
0006
000f
0001
fffe
0000
001b
000d
fff7
fffb
0004
fff8
ffe7
fff4
0003
fff6
fffd
0003
0008
000c
fff4
0003
fffe
fffb
0006
fffb
0014
fffe
0003
0000
0004
0000
0007
0007
fff0
0004
fff0
ffff
fff2
0006
0027
0002
ffee
fffc
0007
0007
fffd
fffc
0015
0000
fffc
ffff
0018
0006
000c
0029
000f
0000
fffb
0012
0017
0013
fff3
0006
fffa
ffed
0022
0018
0007
ffec
ffff
000b
0005
0010
0013
000b
0008
fff0
fffe
fffc
fffb
0000
fffe
0002
0019
0008
fff2
000d
0007
ffdb
000b
ffd1
ffeb
ffeb
ffb4
ffc6
ffbe
ffa6
ffcb
ffea
0002
0007
fffd
0008
fff8
0013
0003
0004
ffef
0006
0005
000a
fffc
fff6
0009
0018
0003
ffae
ffd4
fff3
ffad
ffe5
ffa6
ffd7
0004
fff5
ffa9
ffd9
ffd7
fff1
0003
0004
fffe
000a
0009
ffff
ffff
0005
0016
0017
000c
0021
000e
003a
ffdc
003b
fff3
004c
0025
0066
0015
0048
000d
0023
ffc9
0009
0013
002b
ffe2
ffff
0003
ffff
fff2
000c
000b
fff5
0018
fff7
fff5
ffe4
002c
003f
ffcf
fff2
ffe5
0024
ffe3
0008
ff9f
ffca
000b
fff2
fff1
0008
fff9
0013
0005
fffb
fff2
000d
fffe
0004
0003
fffa
ffe9
000e
001a
ffef
fff9
0005
fffc
fff0
003a
ffef
ffbd
0014
ff9b
0078
ff6f
0016
ffef
000d
0007
0021
0015
0015
fff1
0001
0004
0007
0012
0015
ffff
0010
0013
0010
000e
ffe9
0019
fffb
fff7
0002
0001
000f
fff7
fffe
fffd
fff7
0009
ffff
0005
fffe
0009
000f
0008
0013
fffe
ffff
0013
fff4
fffb
000d
fffd
000d
0003
0016
0007
0006
000f
0001
fffe
0000
001b
000d
fff7
fffb
0004
fff8
ffe7
fff4
0003
fff6
fffd
0003
0008
000c
fff4
0003
fffe
fffb
0006
fffb
0014
fffe
0003
0000
0004
0000
0007
0007
fff0
0004
fff0
ffff
fff2
0006
0027
0002
ffee
fffc
0007
0007
fffd
fffc
0015
0000
fffc
ffff
0018
0006
000c
0029
000f
0000
fffb
0012
0017
0013
fff3
0006
fffa
ffed
0022
0018
0007
ffec
ffff
000b
0005
0010
0013
000b
0008
fff0
fffe
fffc
fffb
0000
fffe
0002
0019
0008
fff2
000d
0007
ffdb
000b
ffd1
ffeb
ffeb
ffb4
ffc6
ffbe
ffa6
ffcb
ffea
0002
0007
fffd
0008
fff8
0013
0003
0004
ffef
0006
0005
000a
fffc
fff6
0009
0018
0003
ffae
ffd4
fff3
ffad
ffe5
ffa6
ffd7
0004
fff5
ffa9
ffd9
ffd7
fff1
0003
0004
fffe
000a
0009
ffff
ffff
0005
0016
0017
000c
0021
000e
003a
ffdc
003b
fff3
004c
0025
0066
0015
0048
000d
0023
ffc9
0009
0013
002b
ffe2
ffff
0003
ffff
fff2
000c
000b
fff5
0018
fff7
fff5
ffe4
002c
003f
ffcf
fff2
ffe5
0024
ffe3
0008
ff9f
ffca
000b
fff2
fff1
0008
fff9
0013
0005
fffb
fff2
000d
fffe
0004
0003
fffa
ffe9
000e
001a
ffef
fff9
0005
fffc
fff0
003a
ffef
ffbd
0014
ff9b
0078
ff6f
0016
ffef
000d
0007
0021
0015
0015
fff1
0001
0004
0007
0012
0015
ffff
0010
0013
0010
000e
ffe9
0019
fffb
fff7
0002
0001
000f
fff7
fffe
fffd
fff7
0009
ffff
0005
fffe
0009
000f
0008
0013
fffe
ffff
0013
fff4
fffb
000d
fffd
000d
0003
0016
0007
0006
000f
0001
fffe
0000
001b
000d
fff7
fffb
0004
fff8
ffe7
fff4
0003
fff6
fffd
0003
0008
000c
fff4
0003
fffe
fffb
0006
fffb
0014
fffe
0003
0000
0004
0000
0007
0007
fff0
0004
fff0
ffff
fff2
0006
0027
0002
ffee
fffc
0007
0007
fffd
fffc
0015
0000
fffc
ffff
0018
0006
000c
0029
000f
0000
fffb
0012
0017
0013
fff3
0006
fffa
ffed
0022
0018
0007
ffec
ffff
000b
0005
0010
0013
000b
0008
fff0
fffe
fffc
fffb
0000
fffe
0002
0019
0008
fff2
000d
0007
ffdb
000b
ffd1
ffeb
ffeb
ffb4
ffc6
ffbe
ffa6
ffcb
ffea
0002
0007
fffd
0008
fff8
0013
0003
0004
ffef
0006
0005
000a
fffc
fff6
0009
0018
0003
ffae
ffd4
fff3
ffad
ffe5
ffa6
ffd7
0004
fff5
ffa9
ffd9
ffd7
fff1
0003
0004
fffe
000a
0009
ffff
ffff
0005
0016
0017
000c
0021
000e
003a
ffdc
003b
fff3
004c
0025
0066
0015
0048
000d
0023
ffc9
0009
0013
002b
ffe2
ffff
0003
ffff
fff2
000c
000b
fff5
0018
fff7
fff5
ffe4
002c
003f
ffcf
fff2
ffe5
0024
ffe3
0008
ff9f
ffca
000b
fff2
fff1
0008
fff9
0013
0005
fffb
fff2
000d
fffe
0004
0003
fffa
ffe9
000e
001a
ffef
fff9
0005
fffc
fff0
003a
ffef
ffbd
0014
ff9b
0078
ff6f
0016
ffef
000d
0007
0021
0015
0015
fff1
0001
0004
0007
0012
0015
ffff
0010
0013
0010
000e
ffe9
0019
fffb
fff7
0002
0001
000f
fff7
fffe
fffd
fff7
0009
ffff
0005
fffe
0009
000f
0008
0013
fffe
ffff
0013
fff4
fffb
000d
fffd
000d
