ffcd
ff99
ffb8
008d
ffc4
0024
0015
0046
ff9c
ff9a
ffe7
0089
ffdd
ff73
ffa9
0004
ff6b
ffbb
ffea
ffe7
ff73
ff5e
fff3
ffa3
ff78
ff89
ffbc
ff55
fffc
ffa6
004e
ffd2
ff48
ffaf
ff1f
ffd6
ffda
ff95
fff5
ffaf
0026
0027
0034
000a
000f
ffb1
0004
ff9c
ffe0
003d
0039
000b
ff88
0052
ff95
ff53
002b
ffcd
fffb
fefa
0005
ffca
ffe9
fff2
002e
ffd6
ff99
0004
ffba
ff5d
ff45
ffcc
fffd
ff93
ffcd
005d
ffc0
0009
ff56
ffae
0032
ff91
ffe7
ff84
0000
ff8a
ffe7
0004
ffb9
ffa0
ffa5
ff9c
ffa9
0028
0011
0045
ffca
005f
0045
ffff
fff6
0043
002f
ffb6
ffb1
ff9d
ffbd
0034
ffba
000b
ffe7
ffc2
ff4d
0054
ffc1
0018
fff1
fff8
ffc0
002d
ffb9
ff8d
ff6e
ff3c
ff79
ff86
0009
ffbd
0005
0038
fff9
0015
ffe9
ffe1
ffe6
0066
ff7a
0010
000c
001a
004e
ffa3
ff93
0061
0006
fff2
000e
ffe9
0003
ffc4
ffa5
ffe7
ffc8
ffc2
fffa
ff8e
ffb5
0024
ffb4
000f
fffa
001c
ff8d
fffe
ff55
ffac
ffef
0020
000e
ffd4
ffd6
ffd2
ffe1
0039
ff97
0042
ffb4
001a
0008
ff8f
fffe
ff9b
ff73
ffb5
ffdb
00aa
ffae
001d
ffa0
ffc1
0024
ffe0
0074
ff6f
ffb4
ffc5
ffc9
0018
ffd2
ffca
0069
ff8a
ffba
001d
ffae
ff89
001e
0062
000d
0068
ffb8
ffea
ffc7
ff6b
006f
ff43
ff30
0006
ffd8
0093
0015
ffa4
002c
0048
ff95
ffac
000f
003e
004f
001f
ffa0
ff7e
ff4b
ffd3
ff75
ffd3
0015
fffb
ff96
0026
ffef
0000
000f
ff7f
ffbb
ffbe
ffdf
ff5c
ffe5
ffb0
ff2a
0029
ffc8
ffda
fffb
009c
