ffca
ff96
ffb5
008a
ffc1
0021
0012
0043
ff99
ff97
ffe4
0086
ffda
ff70
ffa6
0001
ff68
ffb8
ffe7
ffe4
ff70
ff5b
fff0
ffa0
ff75
ff86
ffb9
ff52
fff9
ffa3
004b
ffcf
ff45
ffac
ff1c
ffd3
ffd7
ff92
fff2
ffac
0023
0024
0031
0007
000c
ffae
0001
ff99
ffdd
003a
0036
0008
ff85
004f
ff92
ff50
0028
ffca
fff8
fef7
0002
ffc7
ffe6
ffef
002b
ffd3
ff96
0001
ffb7
ff5a
ff42
ffc9
fffa
ff90
ffca
005a
ffbd
0006
ff53
ffab
002f
ff8e
ffe4
ff81
fffd
ff87
ffe4
0001
ffb6
ff9d
ffa2
ff99
ffa6
0025
000e
0042
ffc7
005c
0042
fffc
fff3
0040
002c
ffb3
ffae
ff9a
ffba
0031
ffb7
0008
ffe4
ffbf
ff4a
0051
ffbe
0015
ffee
fff5
ffbd
002a
ffb6
ff8a
ff6b
ff39
ff76
ff83
0006
ffba
0002
0035
fff6
0012
ffe6
ffde
ffe3
0063
ff77
000d
0009
0017
004b
ffa0
ff90
005e
0003
ffef
000b
ffe6
0000
ffc1
ffa2
ffe4
ffc5
ffbf
fff7
ff8b
ffb2
0021
ffb1
000c
fff7
0019
ff8a
fffb
ff52
ffa9
ffec
001d
000b
ffd1
ffd3
ffcf
ffde
0036
ff94
003f
ffb1
0017
0005
ff8c
fffb
ff98
ff70
ffb2
ffd8
00a7
ffab
001a
ff9d
ffbe
0021
ffdd
0071
ff6c
ffb1
ffc2
ffc6
0015
ffcf
ffc7
0066
ff87
ffb7
001a
ffab
ff86
001b
005f
000a
0065
ffb5
ffe7
ffc4
ff68
006c
ff40
ff2d
0003
ffd5
0090
0012
ffa1
0029
0045
ff92
ffa9
000c
003b
004c
001c
ff9d
ff7b
ff48
ffd0
ff72
ffd0
0012
fff8
ff93
0023
ffec
fffd
000c
ff7c
ffb8
ffbb
ffdc
ff59
ffe2
ffad
ff27
0026
ffc5
ffd7
fff8
0099
ffd1
ff9d
ffbc
0091
ffc8
0028
0019
004a
ffa0
ff9e
ffeb
008d
ffe1
ff77
ffad
0008
ff6f
ffbf
ffee
ffeb
ff77
ff62
fff7
ffa7
ff7c
ff8d
ffc0
ff59
0000
ffaa
0052
ffd6
ff4c
ffb3
ff23
ffda
ffde
ff99
fff9
ffb3
002a
002b
0038
000e
0013
ffb5
0008
ffa0
ffe4
0041
003d
000f
ff8c
0056
ff99
ff57
002f
ffd1
ffff
fefe
0009
ffce
ffed
fff6
0032
ffda
ff9d
0008
ffbe
ff61
ff49
ffd0
0001
ff97
ffd1
0061
ffc4
000d
ff5a
ffb2
0036
ff95
ffeb
ff88
0004
ff8e
ffeb
0008
ffbd
ffa4
ffa9
ffa0
ffad
002c
0015
0049
ffce
0063
0049
0003
fffa
0047
0033
ffba
ffb5
ffa1
ffc1
0038
ffbe
000f
ffeb
ffc6
ff51
0058
ffc5
001c
fff5
fffc
ffc4
0031
ffbd
ff91
ff72
ff40
ff7d
ff8a
000d
ffc1
0009
003c
fffd
0019
ffed
ffe5
ffea
006a
ff7e
0014
0010
001e
0052
ffa7
ff97
0065
000a
fff6
0012
ffed
0007
ffc8
ffa9
ffeb
ffcc
ffc6
fffe
ff92
ffb9
0028
ffb8
0013
fffe
0020
ff91
0002
ff59
ffb0
fff3
0024
0012
ffd8
ffda
ffd6
ffe5
003d
ff9b
0046
ffb8
001e
000c
ff93
0002
ff9f
ff77
ffb9
ffdf
00ae
ffb2
0021
ffa4
ffc5
0028
ffe4
0078
ff73
ffb8
ffc9
ffcd
001c
ffd6
ffce
006d
ff8e
ffbe
0021
ffb2
ff8d
0022
0066
0011
006c
ffbc
ffee
ffcb
ff6f
0073
ff47
ff34
000a
ffdc
0097
0019
ffa8
0030
004c
ff99
ffb0
0013
0042
0053
0023
ffa4
ff82
ff4f
ffd7
ff79
ffd7
0019
ffff
ff9a
002a
fff3
0004
0013
ff83
ffbf
ffc2
ffe3
ff60
ffe9
ffb4
ff2e
002d
ffcc
ffde
ffff
00a0
ffd8
ffa4
ffc3
0098
ffcf
002f
0020
0051
ffa7
ffa5
fff2
0094
ffe8
ff7e
ffb4
000f
ff76
ffc6
fff5
fff2
ff7e
ff69
fffe
ffae
ff83
ff94
ffc7
ff60
0007
ffb1
0059
ffdd
ff53
ffba
ff2a
ffe1
ffe5
ffa0
0000
ffba
0031
0032
003f
0015
001a
ffbc
000f
ffa7
ffeb
0048
0044
0016
ff93
005d
ffa0
ff5e
0036
ffd8
0006
ff05
0010
ffd5
fff4
fffd
0039
ffe1
ffa4
000f
ffc5
ff68
ff50
ffd7
0008
ff9e
ffd8
0068
ffcb
0014
ff61
ffb9
003d
ff9c
fff2
ff8f
000b
ff95
fff2
000f
ffc4
ffab
ffb0
ffa7
ffb4
0033
001c
0050
ffd5
006a
0050
000a
0001
004e
003a
ffc1
ffbc
ffa8
ffc8
003f
ffc5
0016
fff2
ffcd
ff58
005f
ffcc
0023
fffc
0003
ffcb
0038
ffc4
ff98
ff79
ff47
ff84
ff91
0014
ffc8
0010
0043
0004
0020
fff4
ffec
fff1
0071
ff85
001b
0017
0025
0059
ffae
ff9e
006c
0011
fffd
0019
fff4
000e
ffcf
ffb0
fff2
ffd3
ffcd
0005
ff99
ffc0
002f
ffbf
001a
0005
0027
ff98
0009
ff60
ffb7
fffa
002b
0019
ffdf
ffe1
ffdd
ffec
0044
ffa2
004d
ffbf
0025
0013
ff9a
0009
ffa6
ff7e
ffc0
ffe6
00b5
ffb9
0028
ffab
ffcc
002f
ffeb
007f
ff7a
ffbf
ffd0
ffd4
0023
ffdd
ffd5
0074
ff95
ffc5
0028
ffb9
ff94
0029
006d
0018
0073
ffc3
fff5
ffd2
ff76
007a
ff4e
ff3b
0011
ffe3
009e
0020
ffaf
0037
0053
ffa0
ffb7
001a
0049
005a
002a
ffab
ff89
ff56
ffde
ff80
ffde
0020
0006
ffa1
0031
fffa
000b
001a
ff8a
ffc6
ffc9
ffea
ff67
fff0
ffbb
ff35
0034
ffd3
ffe5
0006
00a7
ffbf
ff8b
ffaa
007f
ffb6
0016
0007
0038
ff8e
ff8c
ffd9
007b
ffcf
ff65
ff9b
fff6
ff5d
ffad
ffdc
ffd9
ff65
ff50
ffe5
ff95
ff6a
ff7b
ffae
ff47
ffee
ff98
0040
ffc4
ff3a
ffa1
ff11
ffc8
ffcc
ff87
ffe7
ffa1
0018
0019
0026
fffc
0001
ffa3
fff6
ff8e
ffd2
002f
002b
fffd
ff7a
0044
ff87
ff45
001d
ffbf
ffed
feec
fff7
ffbc
ffdb
ffe4
0020
ffc8
ff8b
fff6
ffac
ff4f
ff37
ffbe
ffef
ff85
ffbf
004f
ffb2
fffb
ff48
ffa0
0024
ff83
ffd9
ff76
fff2
ff7c
ffd9
fff6
ffab
ff92
ff97
ff8e
ff9b
001a
0003
0037
ffbc
0051
0037
fff1
ffe8
0035
0021
ffa8
ffa3
ff8f
ffaf
0026
ffac
fffd
ffd9
ffb4
ff3f
0046
ffb3
000a
ffe3
ffea
ffb2
001f
ffab
ff7f
ff60
ff2e
ff6b
ff78
fffb
ffaf
fff7
002a
ffeb
0007
ffdb
ffd3
ffd8
0058
ff6c
0002
fffe
000c
0040
ff95
ff85
0053
fff8
ffe4
0000
ffdb
fff5
ffb6
ff97
ffd9
ffba
ffb4
ffec
ff80
ffa7
0016
ffa6
0001
ffec
000e
ff7f
fff0
ff47
ff9e
ffe1
0012
0000
ffc6
ffc8
ffc4
ffd3
002b
ff89
0034
ffa6
000c
fffa
ff81
fff0
ff8d
ff65
ffa7
ffcd
009c
ffa0
000f
ff92
ffb3
0016
ffd2
0066
ff61
ffa6
ffb7
ffbb
000a
ffc4
ffbc
005b
ff7c
ffac
000f
ffa0
ff7b
0010
0054
ffff
005a
ffaa
ffdc
ffb9
ff5d
0061
ff35
ff22
fff8
ffca
0085
0007
ff96
001e
003a
ff87
ff9e
0001
0030
0041
0011
ff92
ff70
ff3d
ffc5
ff67
ffc5
0007
ffed
ff88
0018
ffe1
fff2
0001
ff71
ffad
ffb0
ffd1
ff4e
ffd7
ffa2
ff1c
001b
ffba
ffcc
ffed
008e
ffc6
ff92
ffb1
0086
ffbd
001d
000e
003f
ff95
ff93
ffe0
0082
ffd6
ff6c
ffa2
fffd
ff64
ffb4
ffe3
ffe0
ff6c
ff57
ffec
ff9c
ff71
ff82
ffb5
ff4e
fff5
ff9f
0047
ffcb
ff41
ffa8
ff18
ffcf
ffd3
ff8e
ffee
ffa8
001f
0020
002d
0003
0008
ffaa
fffd
ff95
ffd9
0036
0032
0004
ff81
004b
ff8e
ff4c
0024
ffc6
fff4
fef3
fffe
ffc3
ffe2
ffeb
0027
ffcf
ff92
fffd
ffb3
ff56
ff3e
ffc5
fff6
ff8c
ffc6
0056
ffb9
0002
ff4f
ffa7
002b
ff8a
ffe0
ff7d
fff9
ff83
ffe0
fffd
ffb2
ff99
ff9e
ff95
ffa2
0021
000a
003e
ffc3
0058
003e
fff8
ffef
003c
0028
ffaf
ffaa
ff96
ffb6
002d
ffb3
0004
ffe0
ffbb
ff46
004d
ffba
0011
ffea
fff1
ffb9
0026
ffb2
ff86
ff67
ff35
ff72
ff7f
0002
ffb6
fffe
0031
fff2
000e
ffe2
ffda
ffdf
005f
ff73
0009
0005
0013
0047
ff9c
ff8c
005a
ffff
ffeb
0007
ffe2
fffc
ffbd
ff9e
ffe0
ffc1
ffbb
fff3
ff87
ffae
001d
ffad
0008
fff3
0015
ff86
fff7
ff4e
ffa5
ffe8
0019
0007
ffcd
ffcf
ffcb
ffda
0032
ff90
003b
ffad
0013
0001
ff88
fff7
ff94
ff6c
ffae
ffd4
00a3
ffa7
0016
ff99
ffba
001d
ffd9
006d
ff68
ffad
ffbe
ffc2
0011
ffcb
ffc3
0062
ff83
ffb3
0016
ffa7
ff82
0017
005b
0006
0061
ffb1
ffe3
ffc0
ff64
0068
ff3c
ff29
ffff
ffd1
008c
000e
ff9d
0025
0041
ff8e
ffa5
0008
0037
0048
0018
ff99
ff77
ff44
ffcc
ff6e
ffcc
000e
fff4
ff8f
001f
ffe8
fff9
0008
ff78
ffb4
ffb7
ffd8
ff55
ffde
ffa9
ff23
0022
ffc1
ffd3
fff4
0095
ffcd
ff99
ffb8
008d
ffc4
0024
0015
0046
ff9c
ff9a
ffe7
0089
ffdd
ff73
ffa9
0004
ff6b
ffbb
ffea
ffe7
ff73
ff5e
fff3
ffa3
ff78
ff89
ffbc
ff55
fffc
ffa6
004e
ffd2
ff48
ffaf
ff1f
ffd6
ffda
ff95
fff5
ffaf
0026
0027
0034
000a
000f
ffb1
0004
ff9c
ffe0
003d
0039
000b
ff88
0052
ff95
ff53
002b
ffcd
fffb
fefa
0005
ffca
ffe9
fff2
002e
ffd6
ff99
0004
ffba
ff5d
ff45
ffcc
fffd
ff93
ffcd
005d
ffc0
0009
ff56
ffae
0032
ff91
ffe7
ff84
0000
ff8a
ffe7
0004
ffb9
ffa0
ffa5
ff9c
ffa9
0028
0011
0045
ffca
005f
0045
ffff
fff6
0043
002f
ffb6
ffb1
ff9d
ffbd
0034
ffba
000b
ffe7
ffc2
ff4d
0054
ffc1
0018
fff1
fff8
ffc0
002d
ffb9
ff8d
ff6e
ff3c
ff79
ff86
0009
ffbd
0005
0038
fff9
0015
ffe9
ffe1
ffe6
0066
ff7a
0010
000c
001a
004e
ffa3
ff93
0061
0006
fff2
000e
ffe9
0003
ffc4
ffa5
ffe7
ffc8
ffc2
fffa
ff8e
ffb5
0024
ffb4
000f
fffa
001c
ff8d
fffe
ff55
ffac
ffef
0020
000e
ffd4
ffd6
ffd2
ffe1
0039
ff97
0042
ffb4
001a
0008
ff8f
fffe
ff9b
ff73
ffb5
ffdb
00aa
ffae
001d
ffa0
ffc1
0024
ffe0
0074
ff6f
ffb4
ffc5
ffc9
0018
ffd2
ffca
0069
ff8a
ffba
001d
ffae
ff89
001e
0062
000d
0068
ffb8
ffea
ffc7
ff6b
006f
ff43
ff30
0006
ffd8
0093
0015
ffa4
002c
0048
ff95
ffac
000f
003e
004f
001f
ffa0
ff7e
ff4b
ffd3
ff75
ffd3
0015
fffb
ff96
0026
ffef
0000
000f
ff7f
ffbb
ffbe
ffdf
ff5c
ffe5
ffb0
ff2a
0029
ffc8
ffda
fffb
009c
ffd4
ffa0
ffbf
0094
ffcb
002b
001c
004d
ffa3
ffa1
ffee
0090
ffe4
ff7a
ffb0
000b
ff72
ffc2
fff1
ffee
ff7a
ff65
fffa
ffaa
ff7f
ff90
ffc3
ff5c
0003
ffad
0055
ffd9
ff4f
ffb6
ff26
ffdd
ffe1
ff9c
fffc
ffb6
002d
002e
003b
0011
0016
ffb8
000b
ffa3
ffe7
0044
0040
0012
ff8f
0059
ff9c
ff5a
0032
ffd4
0002
ff01
000c
ffd1
fff0
fff9
0035
ffdd
ffa0
000b
ffc1
ff64
ff4c
ffd3
0004
ff9a
ffd4
0064
ffc7
0010
ff5d
ffb5
0039
ff98
ffee
ff8b
0007
ff91
ffee
000b
ffc0
ffa7
ffac
ffa3
ffb0
002f
0018
004c
ffd1
0066
004c
0006
fffd
004a
0036
ffbd
ffb8
ffa4
ffc4
003b
ffc1
0012
ffee
ffc9
ff54
005b
ffc8
001f
fff8
ffff
ffc7
0034
ffc0
ff94
ff75
ff43
ff80
ff8d
0010
ffc4
000c
003f
0000
001c
fff0
ffe8
ffed
006d
ff81
0017
0013
0021
0055
ffaa
ff9a
0068
000d
fff9
0015
fff0
000a
ffcb
ffac
ffee
ffcf
ffc9
0001
ff95
ffbc
002b
ffbb
0016
0001
0023
ff94
0005
ff5c
ffb3
fff6
0027
0015
ffdb
ffdd
ffd9
ffe8
0040
ff9e
0049
ffbb
0021
000f
ff96
0005
ffa2
ff7a
ffbc
ffe2
00b1
ffb5
0024
ffa7
ffc8
002b
ffe7
007b
ff76
ffbb
ffcc
ffd0
001f
ffd9
ffd1
0070
ff91
ffc1
0024
ffb5
ff90
0025
0069
0014
006f
ffbf
fff1
ffce
ff72
0076
ff4a
ff37
000d
ffdf
009a
001c
ffab
0033
004f
ff9c
ffb3
0016
0045
0056
0026
ffa7
ff85
ff52
ffda
ff7c
ffda
001c
0002
ff9d
002d
fff6
0007
0016
ff86
ffc2
ffc5
ffe6
ff63
ffec
ffb7
ff31
0030
ffcf
ffe1
0002
00a3
ffdb
ffa7
ffc6
009b
ffd2
0032
0023
0054
ffaa
ffa8
fff5
0097
ffeb
ff81
ffb7
0012
ff79
ffc9
fff8
fff5
ff81
ff6c
0001
ffb1
ff86
ff97
ffca
ff63
000a
ffb4
005c
ffe0
ff56
ffbd
ff2d
ffe4
ffe8
ffa3
0003
ffbd
0034
0035
0042
0018
001d
ffbf
0012
ffaa
ffee
004b
0047
0019
ff96
0060
ffa3
ff61
0039
ffdb
0009
ff08
0013
ffd8
fff7
0000
003c
ffe4
ffa7
0012
ffc8
ff6b
ff53
ffda
000b
ffa1
ffdb
006b
ffce
0017
ff64
ffbc
0040
ff9f
fff5
ff92
000e
ff98
fff5
0012
ffc7
ffae
ffb3
ffaa
ffb7
0036
001f
0053
ffd8
006d
0053
000d
0004
0051
003d
ffc4
ffbf
ffab
ffcb
0042
ffc8
0019
fff5
ffd0
ff5b
0062
ffcf
0026
ffff
0006
ffce
003b
ffc7
ff9b
ff7c
ff4a
ff87
ff94
0017
ffcb
0013
0046
0007
0023
fff7
ffef
fff4
0074
ff88
001e
001a
0028
005c
ffb1
ffa1
006f
0014
0000
001c
fff7
0011
ffd2
ffb3
fff5
ffd6
ffd0
0008
ff9c
ffc3
0032
ffc2
001d
0008
002a
ff9b
000c
ff63
ffba
fffd
002e
001c
ffe2
ffe4
ffe0
ffef
0047
ffa5
0050
ffc2
0028
0016
ff9d
000c
ffa9
ff81
ffc3
ffe9
00b8
ffbc
002b
ffae
ffcf
0032
ffee
0082
ff7d
ffc2
ffd3
ffd7
0026
ffe0
ffd8
0077
ff98
ffc8
002b
ffbc
ff97
002c
0070
001b
0076
ffc6
fff8
ffd5
ff79
007d
ff51
ff3e
0014
ffe6
00a1
0023
ffb2
003a
0056
ffa3
ffba
001d
004c
005d
002d
ffae
ff8c
ff59
ffe1
ff83
ffe1
0023
0009
ffa4
0034
fffd
000e
001d
ff8d
ffc9
ffcc
ffed
ff6a
fff3
ffbe
ff38
0037
ffd6
ffe8
0009
00aa
ffc2
ff8e
ffad
0082
ffb9
0019
000a
003b
ff91
ff8f
ffdc
007e
ffd2
ff68
ff9e
fff9
ff60
ffb0
ffdf
ffdc
ff68
ff53
ffe8
ff98
ff6d
ff7e
ffb1
ff4a
fff1
ff9b
0043
ffc7
ff3d
ffa4
ff14
ffcb
ffcf
ff8a
ffea
ffa4
001b
001c
0029
ffff
0004
ffa6
fff9
ff91
ffd5
0032
002e
0000
ff7d
0047
ff8a
ff48
0020
ffc2
fff0
feef
fffa
ffbf
ffde
ffe7
0023
ffcb
ff8e
fff9
ffaf
ff52
ff3a
ffc1
fff2
ff88
ffc2
0052
ffb5
fffe
ff4b
ffa3
0027
ff86
ffdc
ff79
fff5
ff7f
ffdc
fff9
ffae
ff95
ff9a
ff91
ff9e
001d
0006
003a
ffbf
0054
003a
fff4
ffeb
0038
0024
ffab
ffa6
ff92
ffb2
0029
ffaf
0000
ffdc
ffb7
ff42
0049
ffb6
000d
ffe6
ffed
ffb5
0022
ffae
ff82
ff63
ff31
ff6e
ff7b
fffe
ffb2
fffa
002d
ffee
000a
ffde
ffd6
ffdb
005b
ff6f
0005
0001
000f
0043
ff98
ff88
0056
fffb
ffe7
0003
ffde
fff8
ffb9
ff9a
ffdc
ffbd
ffb7
ffef
ff83
ffaa
0019
ffa9
0004
ffef
0011
ff82
fff3
ff4a
ffa1
ffe4
0015
0003
ffc9
ffcb
ffc7
ffd6
002e
ff8c
0037
ffa9
000f
fffd
ff84
fff3
ff90
ff68
ffaa
ffd0
009f
ffa3
0012
ff95
ffb6
0019
ffd5
0069
ff64
ffa9
ffba
ffbe
000d
ffc7
ffbf
005e
ff7f
ffaf
0012
ffa3
ff7e
0013
0057
0002
005d
ffad
ffdf
ffbc
ff60
0064
ff38
ff25
fffb
ffcd
0088
000a
ff99
0021
003d
ff8a
ffa1
0004
0033
0044
0014
ff95
ff73
ff40
ffc8
ff6a
ffc8
000a
fff0
ff8b
001b
ffe4
fff5
0004
ff74
ffb0
ffb3
ffd4
ff51
ffda
ffa5
ff1f
001e
ffbd
ffcf
fff0
0091
ffc9
ff95
ffb4
0089
ffc0
0020
0011
0042
ff98
ff96
ffe3
0085
ffd9
ff6f
ffa5
0000
ff67
ffb7
ffe6
ffe3
ff6f
ff5a
ffef
ff9f
ff74
ff85
ffb8
ff51
fff8
ffa2
004a
ffce
ff44
ffab
ff1b
ffd2
ffd6
ff91
fff1
ffab
0022
0023
0030
0006
000b
ffad
0000
ff98
ffdc
0039
0035
0007
ff84
004e
ff91
ff4f
0027
ffc9
fff7
fef6
0001
ffc6
ffe5
ffee
002a
ffd2
ff95
0000
ffb6
ff59
ff41
ffc8
fff9
ff8f
ffc9
0059
ffbc
0005
ff52
ffaa
002e
ff8d
ffe3
ff80
fffc
ff86
ffe3
0000
ffb5
ff9c
ffa1
ff98
ffa5
0024
000d
0041
ffc6
005b
0041
fffb
fff2
003f
002b
ffb2
ffad
ff99
ffb9
0030
ffb6
0007
ffe3
ffbe
ff49
0050
ffbd
0014
ffed
fff4
ffbc
0029
ffb5
ff89
ff6a
ff38
ff75
ff82
0005
ffb9
0001
0034
fff5
0011
ffe5
ffdd
ffe2
0062
ff76
000c
0008
0016
004a
ff9f
ff8f
005d
0002
ffee
000a
ffe5
ffff
ffc0
ffa1
ffe3
ffc4
ffbe
fff6
ff8a
ffb1
0020
ffb0
000b
fff6
0018
ff89
fffa
ff51
ffa8
ffeb
001c
000a
ffd0
ffd2
ffce
ffdd
0035
ff93
003e
ffb0
0016
0004
ff8b
fffa
ff97
ff6f
ffb1
ffd7
00a6
ffaa
0019
ff9c
ffbd
0020
ffdc
0070
ff6b
ffb0
ffc1
ffc5
0014
ffce
ffc6
0065
ff86
ffb6
0019
ffaa
ff85
001a
005e
0009
0064
ffb4
ffe6
ffc3
ff67
006b
ff3f
ff2c
0002
ffd4
008f
0011
ffa0
0028
0044
ff91
ffa8
000b
003a
004b
001b
ff9c
ff7a
ff47
ffcf
ff71
ffcf
0011
fff7
ff92
0022
ffeb
fffc
000b
ff7b
ffb7
ffba
ffdb
ff58
ffe1
ffac
ff26
0025
ffc4
ffd6
fff7
0098
ffd0
ff9c
ffbb
0090
ffc7
0027
0018
0049
ff9f
ff9d
ffea
008c
ffe0
ff76
ffac
0007
ff6e
ffbe
ffed
ffea
ff76
ff61
fff6
ffa6
ff7b
ff8c
ffbf
ff58
ffff
ffa9
0051
ffd5
ff4b
ffb2
ff22
ffd9
ffdd
ff98
fff8
ffb2
0029
002a
0037
000d
0012
ffb4
0007
ff9f
ffe3
0040
003c
000e
ff8b
0055
ff98
ff56
002e
ffd0
fffe
fefd
0008
ffcd
ffec
fff5
0031
ffd9
ff9c
0007
ffbd
ff60
ff48
ffcf
0000
ff96
ffd0
0060
ffc3
000c
ff59
ffb1
0035
ff94
ffea
ff87
0003
ff8d
ffea
0007
ffbc
ffa3
ffa8
ff9f
ffac
002b
0014
0048
ffcd
0062
0048
0002
fff9
0046
0032
ffb9
ffb4
ffa0
ffc0
0037
ffbd
000e
ffea
ffc5
ff50
0057
ffc4
001b
fff4
fffb
ffc3
0030
ffbc
ff90
ff71
ff3f
ff7c
ff89
000c
ffc0
0008
003b
fffc
0018
ffec
ffe4
ffe9
0069
ff7d
0013
000f
001d
0051
ffa6
ff96
0064
0009
fff5
0011
ffec
0006
ffc7
ffa8
ffea
ffcb
ffc5
fffd
ff91
ffb8
0027
ffb7
0012
fffd
001f
ff90
0001
ff58
ffaf
fff2
0023
0011
ffd7
ffd9
ffd5
ffe4
003c
ff9a
0045
ffb7
001d
000b
ff92
0001
ff9e
ff76
ffb8
ffde
00ad
ffb1
0020
ffa3
ffc4
0027
ffe3
0077
ff72
ffb7
ffc8
ffcc
001b
ffd5
ffcd
006c
ff8d
ffbd
0020
ffb1
ff8c
0021
0065
0010
006b
ffbb
ffed
ffca
ff6e
0072
ff46
ff33
0009
ffdb
0096
0018
ffa7
002f
004b
ff98
ffaf
0012
0041
0052
0022
ffa3
ff81
ff4e
ffd6
ff78
ffd6
0018
fffe
ff99
0029
fff2
0003
0012
ff82
ffbe
ffc1
ffe2
ff5f
ffe8
ffb3
ff2d
002c
ffcb
ffdd
fffe
009f
ffd7
ffa3
ffc2
0097
ffce
002e
001f
0050
ffa6
ffa4
fff1
0093
ffe7
ff7d
ffb3
000e
ff75
ffc5
fff4
fff1
ff7d
ff68
fffd
ffad
ff82
ff93
ffc6
ff5f
0006
ffb0
0058
ffdc
ff52
ffb9
ff29
ffe0
ffe4
ff9f
ffff
ffb9
0030
0031
003e
0014
0019
ffbb
000e
ffa6
ffea
0047
0043
0015
ff92
005c
ff9f
ff5d
0035
ffd7
0005
ff04
000f
ffd4
fff3
fffc
0038
ffe0
ffa3
000e
ffc4
ff67
ff4f
ffd6
0007
ff9d
ffd7
0067
ffca
0013
ff60
ffb8
003c
ff9b
fff1
ff8e
000a
ff94
fff1
000e
ffc3
ffaa
ffaf
ffa6
ffb3
0032
001b
004f
ffd4
0069
004f
0009
0000
004d
0039
ffc0
ffbb
ffa7
ffc7
003e
ffc4
0015
fff1
ffcc
ff57
005e
ffcb
0022
fffb
0002
ffca
0037
ffc3
ff97
ff78
ff46
ff83
ff90
0013
ffc7
000f
0042
0003
001f
fff3
ffeb
fff0
0070
ff84
001a
0016
0024
0058
ffad
ff9d
006b
0010
fffc
0018
fff3
000d
ffce
ffaf
fff1
ffd2
ffcc
0004
ff98
ffbf
002e
ffbe
0019
0004
0026
ff97
0008
ff5f
ffb6
fff9
002a
0018
ffde
ffe0
ffdc
ffeb
0043
ffa1
004c
ffbe
0024
0012
ff99
0008
ffa5
ff7d
ffbf
ffe5
00b4
ffb8
0027
ffaa
ffcb
002e
ffea
007e
ff79
ffbe
ffcf
ffd3
0022
ffdc
ffd4
0073
ff94
ffc4
0027
ffb8
ff93
0028
006c
0017
0072
ffc2
fff4
ffd1
ff75
0079
ff4d
ff3a
0010
ffe2
009d
001f
ffae
0036
0052
ff9f
ffb6
0019
0048
0059
0029
ffaa
ff88
ff55
ffdd
ff7f
ffdd
001f
0005
ffa0
0030
fff9
000a
0019
ff89
ffc5
ffc8
ffe9
ff66
ffef
ffba
ff34
0033
ffd2
ffe4
0005
00a6
ffbe
ff8a
ffa9
007e
ffb5
0015
0006
0037
ff8d
ff8b
ffd8
007a
ffce
ff64
ff9a
fff5
ff5c
ffac
ffdb
ffd8
ff64
ff4f
ffe4
ff94
ff69
ff7a
ffad
ff46
ffed
ff97
003f
ffc3
ff39
ffa0
ff10
ffc7
ffcb
ff86
ffe6
ffa0
0017
0018
0025
fffb
0000
ffa2
fff5
ff8d
ffd1
002e
002a
fffc
ff79
0043
ff86
ff44
001c
ffbe
ffec
feeb
fff6
ffbb
ffda
ffe3
001f
ffc7
ff8a
fff5
ffab
ff4e
ff36
ffbd
ffee
ff84
ffbe
004e
ffb1
fffa
ff47
ff9f
0023
ff82
ffd8
ff75
fff1
ff7b
ffd8
fff5
ffaa
ff91
ff96
ff8d
ff9a
0019
0002
0036
ffbb
0050
0036
fff0
ffe7
0034
0020
ffa7
ffa2
ff8e
ffae
0025
ffab
fffc
ffd8
ffb3
ff3e
0045
ffb2
0009
ffe2
ffe9
ffb1
001e
ffaa
ff7e
ff5f
ff2d
ff6a
ff77
fffa
ffae
fff6
0029
ffea
0006
ffda
ffd2
ffd7
0057
ff6b
0001
fffd
000b
003f
ff94
ff84
0052
fff7
ffe3
ffff
ffda
fff4
ffb5
ff96
ffd8
ffb9
ffb3
ffeb
ff7f
ffa6
0015
ffa5
0000
ffeb
000d
ff7e
ffef
ff46
ff9d
ffe0
0011
ffff
ffc5
ffc7
ffc3
ffd2
002a
ff88
0033
ffa5
000b
fff9
ff80
ffef
ff8c
ff64
ffa6
ffcc
009b
ff9f
000e
ff91
ffb2
0015
ffd1
0065
ff60
ffa5
ffb6
ffba
0009
ffc3
ffbb
005a
ff7b
ffab
000e
ff9f
ff7a
000f
0053
fffe
0059
ffa9
ffdb
ffb8
ff5c
0060
ff34
ff21
fff7
ffc9
0084
0006
ff95
001d
0039
ff86
ff9d
0000
002f
0040
0010
ff91
ff6f
ff3c
ffc4
ff66
ffc4
0006
ffec
ff87
0017
ffe0
fff1
0000
ff70
ffac
ffaf
ffd0
ff4d
ffd6
ffa1
ff1b
001a
ffb9
ffcb
ffec
008d
ffc5
ff91
ffb0
0085
ffbc
001c
000d
003e
ff94
ff92
ffdf
0081
ffd5
ff6b
ffa1
fffc
ff63
ffb3
ffe2
ffdf
ff6b
ff56
ffeb
ff9b
ff70
ff81
ffb4
ff4d
fff4
ff9e
0046
ffca
ff40
ffa7
ff17
ffce
ffd2
ff8d
ffed
ffa7
001e
001f
002c
0002
0007
ffa9
fffc
ff94
ffd8
0035
0031
0003
ff80
004a
ff8d
ff4b
0023
ffc5
fff3
fef2
fffd
ffc2
ffe1
ffea
0026
ffce
ff91
fffc
ffb2
ff55
ff3d
ffc4
fff5
ff8b
ffc5
0055
ffb8
0001
ff4e
ffa6
002a
ff89
ffdf
ff7c
fff8
ff82
ffdf
fffc
ffb1
ff98
ff9d
ff94
ffa1
0020
0009
003d
ffc2
0057
003d
fff7
ffee
003b
0027
ffae
ffa9
ff95
ffb5
002c
ffb2
0003
ffdf
ffba
ff45
004c
ffb9
0010
ffe9
fff0
ffb8
0025
ffb1
ff85
ff66
ff34
ff71
ff7e
0001
ffb5
fffd
0030
fff1
000d
ffe1
ffd9
ffde
005e
ff72
0008
0004
0012
0046
ff9b
ff8b
0059
fffe
ffea
0006
ffe1
fffb
ffbc
ff9d
ffdf
ffc0
ffba
fff2
ff86
ffad
001c
ffac
0007
fff2
0014
ff85
fff6
ff4d
ffa4
ffe7
0018
0006
ffcc
ffce
ffca
ffd9
0031
ff8f
003a
ffac
0012
0000
ff87
fff6
ff93
ff6b
ffad
ffd3
00a2
ffa6
0015
ff98
ffb9
001c
ffd8
006c
ff67
ffac
ffbd
ffc1
0010
ffca
ffc2
0061
ff82
ffb2
0015
ffa6
ff81
0016
005a
0005
0060
ffb0
ffe2
ffbf
ff63
0067
ff3b
ff28
fffe
ffd0
008b
000d
ff9c
0024
0040
ff8d
ffa4
0007
0036
0047
0017
ff98
ff76
ff43
ffcb
ff6d
ffcb
000d
fff3
ff8e
001e
ffe7
fff8
0007
ff77
ffb3
ffb6
ffd7
ff54
ffdd
ffa8
ff22
0021
ffc0
ffd2
fff3
0094
ffcc
ff98
ffb7
008c
ffc3
0023
0014
0045
ff9b
ff99
ffe6
0088
ffdc
ff72
ffa8
0003
ff6a
ffba
ffe9
ffe6
ff72
ff5d
fff2
ffa2
ff77
ff88
ffbb
ff54
fffb
ffa5
004d
ffd1
ff47
ffae
ff1e
ffd5
ffd9
ff94
fff4
ffae
0025
0026
0033
0009
000e
ffb0
0003
ff9b
ffdf
003c
0038
000a
ff87
0051
ff94
ff52
002a
ffcc
fffa
fef9
0004
ffc9
ffe8
fff1
002d
ffd5
ff98
0003
ffb9
ff5c
ff44
ffcb
fffc
ff92
ffcc
005c
ffbf
0008
ff55
ffad
0031
ff90
ffe6
ff83
ffff
ff89
ffe6
0003
ffb8
ff9f
ffa4
ff9b
ffa8
0027
0010
0044
ffc9
005e
0044
fffe
fff5
0042
002e
ffb5
ffb0
ff9c
ffbc
0033
ffb9
000a
ffe6
ffc1
ff4c
0053
ffc0
0017
fff0
fff7
ffbf
002c
ffb8
ff8c
ff6d
ff3b
ff78
ff85
0008
ffbc
0004
0037
fff8
0014
ffe8
ffe0
ffe5
0065
ff79
000f
000b
0019
004d
ffa2
ff92
0060
0005
fff1
000d
ffe8
0002
ffc3
ffa4
ffe6
ffc7
ffc1
fff9
ff8d
ffb4
0023
ffb3
000e
fff9
001b
ff8c
fffd
ff54
ffab
ffee
001f
000d
ffd3
ffd5
ffd1
ffe0
0038
ff96
0041
ffb3
0019
0007
ff8e
fffd
ff9a
ff72
ffb4
ffda
00a9
ffad
001c
ff9f
ffc0
0023
ffdf
0073
ff6e
ffb3
ffc4
ffc8
0017
ffd1
ffc9
0068
ff89
ffb9
001c
ffad
ff88
001d
0061
000c
0067
ffb7
ffe9
ffc6
ff6a
006e
ff42
ff2f
0005
ffd7
0092
0014
ffa3
002b
0047
ff94
ffab
000e
003d
004e
001e
ff9f
ff7d
ff4a
ffd2
ff74
ffd2
0014
fffa
ff95
0025
ffee
ffff
000e
ff7e
ffba
ffbd
ffde
ff5b
ffe4
ffaf
ff29
0028
ffc7
ffd9
fffa
009b
ffd3
ff9f
ffbe
0093
ffca
002a
001b
004c
ffa2
ffa0
ffed
008f
ffe3
ff79
ffaf
000a
ff71
ffc1
fff0
ffed
ff79
ff64
fff9
ffa9
ff7e
ff8f
ffc2
ff5b
0002
ffac
0054
ffd8
ff4e
ffb5
ff25
ffdc
ffe0
ff9b
fffb
ffb5
002c
002d
003a
0010
0015
ffb7
000a
ffa2
ffe6
0043
003f
0011
ff8e
0058
ff9b
ff59
0031
ffd3
0001
ff00
000b
ffd0
ffef
fff8
0034
ffdc
ff9f
000a
ffc0
ff63
ff4b
ffd2
0003
ff99
ffd3
0063
ffc6
000f
ff5c
ffb4
0038
ff97
ffed
ff8a
0006
ff90
ffed
000a
ffbf
ffa6
ffab
ffa2
ffaf
002e
0017
004b
ffd0
0065
004b
0005
fffc
0049
0035
ffbc
ffb7
ffa3
ffc3
003a
ffc0
0011
ffed
ffc8
ff53
005a
ffc7
001e
fff7
fffe
ffc6
0033
ffbf
ff93
ff74
ff42
ff7f
ff8c
000f
ffc3
000b
003e
ffff
001b
ffef
ffe7
ffec
006c
ff80
0016
0012
0020
0054
ffa9
ff99
0067
000c
fff8
0014
ffef
0009
ffca
ffab
ffed
ffce
ffc8
0000
ff94
ffbb
002a
ffba
0015
0000
0022
ff93
0004
ff5b
ffb2
fff5
0026
0014
ffda
ffdc
ffd8
ffe7
003f
ff9d
0048
ffba
0020
000e
ff95
0004
ffa1
ff79
ffbb
ffe1
00b0
ffb4
0023
ffa6
ffc7
002a
ffe6
007a
ff75
ffba
ffcb
ffcf
001e
ffd8
ffd0
006f
ff90
ffc0
0023
ffb4
ff8f
0024
0068
0013
006e
ffbe
fff0
ffcd
ff71
0075
ff49
ff36
000c
ffde
0099
001b
ffaa
0032
004e
ff9b
ffb2
0015
0044
0055
0025
ffa6
ff84
ff51
ffd9
ff7b
ffd9
001b
0001
ff9c
002c
fff5
0006
0015
ff85
ffc1
ffc4
ffe5
ff62
ffeb
ffb6
ff30
002f
ffce
ffe0
0001
00a2
ffda
ffa6
ffc5
009a
ffd1
0031
0022
0053
ffa9
ffa7
fff4
0096
ffea
ff80
ffb6
0011
ff78
ffc8
fff7
fff4
ff80
ff6b
0000
ffb0
ff85
ff96
ffc9
ff62
0009
ffb3
005b
ffdf
ff55
ffbc
ff2c
ffe3
ffe7
ffa2
0002
ffbc
0033
0034
0041
0017
001c
ffbe
0011
ffa9
ffed
004a
0046
0018
ff95
005f
ffa2
ff60
0038
ffda
0008
ff07
0012
ffd7
fff6
ffff
003b
ffe3
ffa6
0011
ffc7
ff6a
ff52
ffd9
000a
ffa0
ffda
006a
ffcd
0016
ff63
ffbb
003f
ff9e
fff4
ff91
000d
ff97
fff4
0011
ffc6
ffad
ffb2
ffa9
ffb6
0035
001e
0052
ffd7
006c
0052
000c
0003
0050
003c
ffc3
ffbe
ffaa
ffca
0041
ffc7
0018
fff4
ffcf
ff5a
0061
ffce
0025
fffe
0005
ffcd
003a
ffc6
ff9a
ff7b
ff49
ff86
ff93
0016
ffca
0012
0045
0006
0022
fff6
ffee
fff3
0073
ff87
001d
0019
0027
005b
ffb0
ffa0
006e
0013
ffff
001b
fff6
0010
ffd1
ffb2
fff4
ffd5
ffcf
0007
ff9b
ffc2
0031
ffc1
001c
0007
0029
ff9a
000b
ff62
ffb9
fffc
002d
001b
ffe1
ffe3
ffdf
ffee
0046
ffa4
004f
ffc1
0027
0015
ff9c
000b
ffa8
ff80
ffc2
ffe8
00b7
ffbb
002a
ffad
ffce
0031
ffed
0081
ff7c
ffc1
ffd2
ffd6
0025
ffdf
ffd7
0076
ff97
ffc7
002a
ffbb
ff96
002b
006f
001a
0075
ffc5
fff7
ffd4
ff78
007c
ff50
ff3d
0013
ffe5
00a0
0022
ffb1
0039
0055
ffa2
ffb9
001c
004b
005c
002c
ffad
ff8b
ff58
ffe0
ff82
ffe0
0022
0008
ffa3
0033
fffc
000d
001c
ff8c
ffc8
ffcb
ffec
ff69
fff2
ffbd
ff37
0036
ffd5
ffe7
0008
00a9
ffc1
ff8d
ffac
0081
ffb8
0018
0009
003a
ff90
ff8e
ffdb
007d
ffd1
ff67
ff9d
fff8
ff5f
ffaf
ffde
ffdb
ff67
ff52
ffe7
ff97
ff6c
ff7d
ffb0
ff49
fff0
ff9a
0042
ffc6
ff3c
ffa3
ff13
ffca
ffce
ff89
ffe9
ffa3
001a
001b
0028
fffe
0003
ffa5
fff8
ff90
ffd4
0031
002d
ffff
ff7c
0046
ff89
ff47
001f
ffc1
ffef
feee
fff9
ffbe
ffdd
ffe6
0022
ffca
ff8d
fff8
ffae
ff51
ff39
ffc0
fff1
ff87
ffc1
0051
ffb4
fffd
ff4a
ffa2
0026
ff85
ffdb
ff78
fff4
ff7e
ffdb
fff8
ffad
ff94
ff99
ff90
ff9d
001c
0005
0039
ffbe
0053
0039
fff3
ffea
0037
0023
ffaa
ffa5
ff91
ffb1
0028
ffae
ffff
ffdb
ffb6
ff41
0048
ffb5
000c
ffe5
ffec
ffb4
0021
ffad
ff81
ff62
ff30
ff6d
ff7a
fffd
ffb1
fff9
002c
ffed
0009
ffdd
ffd5
ffda
005a
ff6e
0004
0000
000e
0042
ff97
ff87
0055
fffa
ffe6
0002
ffdd
fff7
ffb8
ff99
ffdb
ffbc
ffb6
ffee
ff82
ffa9
0018
ffa8
0003
ffee
0010
ff81
fff2
ff49
ffa0
ffe3
0014
0002
ffc8
ffca
ffc6
ffd5
002d
ff8b
0036
ffa8
000e
fffc
ff83
fff2
ff8f
ff67
ffa9
ffcf
009e
ffa2
0011
ff94
ffb5
0018
ffd4
0068
ff63
ffa8
ffb9
ffbd
000c
ffc6
ffbe
005d
ff7e
ffae
0011
ffa2
ff7d
0012
0056
0001
005c
ffac
ffde
ffbb
ff5f
0063
ff37
ff24
fffa
ffcc
0087
0009
ff98
0020
003c
ff89
ffa0
0003
0032
0043
0013
ff94
ff72
ff3f
ffc7
ff69
ffc7
0009
ffef
ff8a
001a
ffe3
fff4
0003
ff73
ffaf
ffb2
ffd3
ff50
ffd9
ffa4
ff1e
001d
ffbc
ffce
ffef
0090
ffc8
ff94
ffb3
0088
ffbf
001f
0010
0041
ff97
ff95
ffe2
0084
ffd8
ff6e
ffa4
ffff
ff66
ffb6
ffe5
ffe2
ff6e
ff59
ffee
ff9e
ff73
ff84
ffb7
ff50
fff7
ffa1
0049
ffcd
ff43
ffaa
ff1a
ffd1
ffd5
ff90
fff0
ffaa
0021
0022
002f
0005
000a
ffac
ffff
ff97
ffdb
0038
0034
0006
ff83
004d
ff90
ff4e
0026
ffc8
fff6
fef5
0000
ffc5
ffe4
ffed
0029
ffd1
ff94
ffff
ffb5
ff58
ff40
ffc7
fff8
ff8e
ffc8
0058
ffbb
0004
ff51
ffa9
002d
ff8c
ffe2
ff7f
fffb
ff85
ffe2
ffff
ffb4
ff9b
ffa0
ff97
ffa4
0023
000c
0040
ffc5
005a
0040
fffa
fff1
003e
002a
ffb1
ffac
ff98
ffb8
002f
ffb5
0006
ffe2
ffbd
ff48
004f
ffbc
0013
ffec
fff3
ffbb
0028
ffb4
ff88
ff69
ff37
ff74
ff81
0004
ffb8
0000
0033
fff4
0010
ffe4
ffdc
ffe1
0061
ff75
000b
0007
0015
0049
ff9e
ff8e
005c
0001
ffed
0009
ffe4
fffe
ffbf
ffa0
ffe2
ffc3
ffbd
fff5
ff89
ffb0
001f
ffaf
000a
fff5
0017
ff88
fff9
ff50
ffa7
ffea
001b
0009
ffcf
ffd1
ffcd
ffdc
0034
ff92
003d
ffaf
0015
0003
ff8a
fff9
ff96
ff6e
ffb0
ffd6
00a5
ffa9
0018
ff9b
ffbc
001f
ffdb
006f
ff6a
ffaf
ffc0
ffc4
0013
ffcd
ffc5
0064
ff85
ffb5
0018
ffa9
ff84
0019
005d
0008
0063
ffb3
ffe5
ffc2
ff66
006a
ff3e
ff2b
0001
ffd3
008e
0010
ff9f
0027
0043
ff90
ffa7
000a
0039
004a
001a
ff9b
ff79
ff46
ffce
ff70
ffce
0010
fff6
ff91
0021
ffea
fffb
000a
ff7a
ffb6
ffb9
ffda
ff57
ffe0
ffab
ff25
0024
ffc3
ffd5
fff6
0097
ffcf
ff9b
ffba
008f
ffc6
0026
0017
0048
ff9e
ff9c
ffe9
008b
ffdf
ff75
ffab
0006
ff6d
ffbd
ffec
ffe9
ff75
ff60
fff5
ffa5
ff7a
ff8b
ffbe
ff57
fffe
ffa8
0050
ffd4
ff4a
ffb1
ff21
ffd8
ffdc
ff97
fff7
ffb1
0028
0029
0036
000c
0011
ffb3
0006
ff9e
ffe2
003f
003b
000d
ff8a
0054
ff97
ff55
002d
ffcf
fffd
fefc
0007
ffcc
ffeb
fff4
0030
ffd8
ff9b
0006
ffbc
ff5f
ff47
ffce
ffff
ff95
ffcf
005f
ffc2
000b
ff58
ffb0
0034
ff93
ffe9
ff86
0002
ff8c
ffe9
0006
ffbb
ffa2
ffa7
ff9e
ffab
002a
0013
0047
ffcc
0061
0047
0001
fff8
0045
0031
ffb8
ffb3
ff9f
ffbf
0036
ffbc
000d
ffe9
ffc4
ff4f
0056
ffc3
001a
fff3
fffa
ffc2
002f
ffbb
ff8f
ff70
ff3e
ff7b
ff88
000b
ffbf
0007
003a
fffb
0017
ffeb
ffe3
ffe8
0068
ff7c
0012
000e
001c
0050
ffa5
ff95
0063
0008
fff4
0010
ffeb
0005
ffc6
ffa7
ffe9
ffca
ffc4
fffc
ff90
ffb7
0026
ffb6
0011
fffc
001e
ff8f
0000
ff57
ffae
fff1
0022
0010
ffd6
ffd8
ffd4
ffe3
003b
ff99
0044
ffb6
001c
000a
ff91
0000
ff9d
ff75
ffb7
ffdd
00ac
ffb0
001f
ffa2
ffc3
0026
ffe2
0076
ff71
ffb6
ffc7
ffcb
001a
ffd4
ffcc
006b
ff8c
ffbc
001f
ffb0
ff8b
0020
0064
000f
006a
ffba
ffec
ffc9
ff6d
0071
ff45
ff32
0008
ffda
0095
0017
ffa6
002e
004a
ff97
ffae
0011
0040
0051
0021
ffa2
ff80
ff4d
ffd5
ff77
ffd5
0017
fffd
ff98
0028
fff1
0002
0011
ff81
ffbd
ffc0
ffe1
ff5e
ffe7
ffb2
ff2c
002b
ffca
ffdc
fffd
009e
ffd6
ffa2
ffc1
0096
ffcd
002d
001e
004f
ffa5
ffa3
fff0
0092
ffe6
ff7c
ffb2
000d
ff74
ffc4
fff3
fff0
ff7c
ff67
fffc
ffac
ff81
ff92
ffc5
ff5e
0005
ffaf
0057
ffdb
ff51
ffb8
ff28
ffdf
ffe3
ff9e
fffe
ffb8
002f
0030
003d
0013
0018
ffba
000d
ffa5
ffe9
0046
0042
0014
ff91
005b
ff9e
ff5c
0034
ffd6
0004
ff03
000e
ffd3
fff2
fffb
0037
ffdf
ffa2
000d
ffc3
ff66
ff4e
ffd5
0006
ff9c
ffd6
0066
ffc9
0012
ff5f
ffb7
003b
ff9a
fff0
ff8d
0009
ff93
fff0
000d
ffc2
ffa9
ffae
ffa5
ffb2
0031
001a
004e
ffd3
0068
004e
0008
ffff
004c
0038
ffbf
ffba
ffa6
ffc6
003d
ffc3
0014
fff0
ffcb
ff56
005d
ffca
0021
fffa
0001
ffc9
0036
ffc2
ff96
ff77
ff45
ff82
ff8f
0012
ffc6
000e
0041
0002
001e
fff2
ffea
ffef
006f
ff83
0019
0015
0023
0057
ffac
ff9c
006a
000f
fffb
0017
fff2
000c
ffcd
ffae
fff0
ffd1
ffcb
0003
ff97
ffbe
002d
ffbd
0018
0003
0025
ff96
0007
ff5e
ffb5
fff8
0029
0017
ffdd
ffdf
ffdb
ffea
0042
ffa0
004b
ffbd
0023
0011
ff98
0007
ffa4
ff7c
ffbe
ffe4
00b3
ffb7
0026
ffa9
ffca
002d
ffe9
007d
ff78
ffbd
ffce
ffd2
0021
ffdb
ffd3
0072
ff93
ffc3
0026
ffb7
ff92
0027
006b
0016
0071
ffc1
fff3
ffd0
ff74
0078
ff4c
ff39
000f
ffe1
009c
001e
ffad
0035
0051
ff9e
ffb5
0018
0047
0058
0028
ffa9
ff87
ff54
ffdc
ff7e
ffdc
001e
0004
ff9f
002f
fff8
0009
0018
ff88
ffc4
ffc7
ffe8
ff65
ffee
ffb9
ff33
0032
ffd1
ffe3
0004
00a5
ffbd
ff89
ffa8
007d
ffb4
0014
0005
0036
ff8c
ff8a
ffd7
0079
ffcd
ff63
ff99
fff4
ff5b
ffab
ffda
ffd7
ff63
ff4e
ffe3
ff93
ff68
ff79
ffac
ff45
ffec
ff96
003e
ffc2
ff38
ff9f
ff0f
ffc6
ffca
ff85
ffe5
ff9f
0016
0017
0024
fffa
ffff
ffa1
fff4
ff8c
ffd0
002d
0029
fffb
ff78
0042
ff85
ff43
001b
ffbd
ffeb
feea
fff5
ffba
ffd9
ffe2
001e
ffc6
ff89
fff4
ffaa
ff4d
ff35
ffbc
ffed
ff83
ffbd
004d
ffb0
fff9
ff46
ff9e
0022
ff81
ffd7
ff74
fff0
ff7a
ffd7
fff4
ffa9
ff90
ff95
ff8c
ff99
0018
0001
0035
ffba
004f
0035
ffef
ffe6
0033
001f
ffa6
ffa1
ff8d
ffad
0024
ffaa
fffb
ffd7
ffb2
ff3d
0044
ffb1
0008
ffe1
ffe8
ffb0
001d
ffa9
ff7d
ff5e
ff2c
ff69
ff76
fff9
ffad
fff5
0028
ffe9
0005
ffd9
ffd1
ffd6
0056
ff6a
0000
fffc
000a
003e
ff93
ff83
0051
fff6
ffe2
fffe
ffd9
fff3
ffb4
ff95
ffd7
ffb8
ffb2
ffea
ff7e
ffa5
0014
ffa4
ffff
ffea
000c
ff7d
ffee
ff45
ff9c
ffdf
0010
fffe
ffc4
ffc6
ffc2
ffd1
0029
ff87
0032
ffa4
000a
fff8
ff7f
ffee
ff8b
ff63
ffa5
ffcb
009a
ff9e
000d
ff90
ffb1
0014
ffd0
0064
ff5f
ffa4
ffb5
ffb9
0008
ffc2
ffba
0059
ff7a
ffaa
000d
ff9e
ff79
000e
0052
fffd
0058
ffa8
ffda
ffb7
ff5b
005f
ff33
ff20
fff6
ffc8
0083
0005
ff94
001c
0038
ff85
ff9c
ffff
002e
003f
000f
ff90
ff6e
ff3b
ffc3
ff65
ffc3
0005
ffeb
ff86
0016
ffdf
fff0
ffff
ff6f
ffab
ffae
ffcf
ff4c
ffd5
ffa0
ff1a
0019
ffb8
ffca
ffeb
008c
ffc4
ff90
ffaf
0084
ffbb
001b
000c
003d
ff93
ff91
ffde
0080
ffd4
ff6a
ffa0
fffb
ff62
ffb2
ffe1
ffde
ff6a
ff55
ffea
ff9a
ff6f
ff80
ffb3
ff4c
fff3
ff9d
0045
ffc9
ff3f
ffa6
ff16
ffcd
ffd1
ff8c
ffec
ffa6
001d
001e
002b
0001
0006
ffa8
fffb
ff93
ffd7
0034
0030
0002
ff7f
0049
ff8c
ff4a
0022
ffc4
fff2
fef1
fffc
ffc1
ffe0
ffe9
0025
ffcd
ff90
fffb
ffb1
ff54
ff3c
ffc3
fff4
ff8a
ffc4
0054
ffb7
0000
ff4d
ffa5
0029
ff88
ffde
ff7b
fff7
ff81
ffde
fffb
ffb0
ff97
ff9c
ff93
ffa0
001f
0008
003c
ffc1
0056
003c
fff6
ffed
003a
0026
ffad
ffa8
ff94
ffb4
002b
ffb1
0002
ffde
ffb9
ff44
004b
ffb8
000f
ffe8
ffef
ffb7
0024
ffb0
ff84
ff65
ff33
ff70
ff7d
0000
ffb4
fffc
002f
fff0
000c
ffe0
ffd8
ffdd
005d
ff71
0007
0003
0011
0045
ff9a
ff8a
0058
fffd
ffe9
0005
ffe0
fffa
ffbb
ff9c
ffde
ffbf
ffb9
fff1
ff85
ffac
001b
ffab
0006
fff1
0013
ff84
fff5
ff4c
ffa3
ffe6
0017
0005
ffcb
ffcd
ffc9
ffd8
0030
ff8e
0039
ffab
0011
ffff
ff86
fff5
ff92
ff6a
ffac
ffd2
00a1
ffa5
0014
ff97
ffb8
001b
ffd7
006b
ff66
ffab
ffbc
ffc0
000f
ffc9
ffc1
0060
ff81
ffb1
0014
ffa5
ff80
0015
0059
0004
005f
ffaf
ffe1
ffbe
ff62
0066
ff3a
ff27
fffd
ffcf
008a
000c
ff9b
0023
003f
ff8c
ffa3
0006
0035
0046
0016
ff97
ff75
ff42
ffca
ff6c
ffca
000c
fff2
ff8d
001d
ffe6
fff7
0006
ff76
ffb2
ffb5
ffd6
ff53
ffdc
ffa7
ff21
0020
ffbf
ffd1
fff2
0093
ffcb
ff97
ffb6
008b
ffc2
0022
0013
0044
ff9a
ff98
ffe5
0087
ffdb
ff71
ffa7
0002
ff69
ffb9
ffe8
ffe5
ff71
ff5c
fff1
ffa1
ff76
ff87
ffba
ff53
fffa
ffa4
004c
ffd0
ff46
ffad
ff1d
ffd4
ffd8
ff93
fff3
ffad
0024
0025
0032
0008
000d
ffaf
0002
ff9a
ffde
003b
0037
0009
ff86
0050
ff93
ff51
0029
ffcb
fff9
fef8
0003
ffc8
ffe7
fff0
002c
ffd4
ff97
0002
ffb8
ff5b
ff43
ffca
fffb
ff91
ffcb
005b
ffbe
0007
ff54
ffac
0030
ff8f
ffe5
ff82
fffe
ff88
ffe5
0002
ffb7
ff9e
ffa3
ff9a
ffa7
0026
000f
0043
ffc8
005d
0043
fffd
fff4
0041
002d
ffb4
ffaf
ff9b
ffbb
0032
ffb8
0009
ffe5
ffc0
ff4b
0052
ffbf
0016
ffef
fff6
ffbe
002b
ffb7
ff8b
ff6c
ff3a
ff77
ff84
0007
ffbb
0003
0036
fff7
0013
ffe7
ffdf
ffe4
0064
ff78
000e
000a
0018
004c
ffa1
ff91
005f
0004
fff0
000c
ffe7
0001
ffc2
ffa3
ffe5
ffc6
ffc0
fff8
ff8c
ffb3
0022
ffb2
000d
fff8
001a
ff8b
fffc
ff53
ffaa
ffed
001e
000c
ffd2
ffd4
ffd0
ffdf
0037
ff95
0040
ffb2
0018
0006
ff8d
fffc
ff99
ff71
ffb3
ffd9
00a8
ffac
001b
ff9e
ffbf
0022
ffde
0072
ff6d
ffb2
ffc3
ffc7
0016
ffd0
ffc8
0067
ff88
ffb8
001b
ffac
ff87
001c
0060
000b
0066
ffb6
ffe8
ffc5
ff69
006d
ff41
ff2e
0004
ffd6
0091
0013
ffa2
002a
0046
ff93
ffaa
000d
003c
004d
001d
ff9e
ff7c
ff49
ffd1
ff73
ffd1
0013
fff9
ff94
0024
ffed
fffe
000d
ff7d
ffb9
ffbc
ffdd
ff5a
ffe3
ffae
ff28
0027
ffc6
ffd8
fff9
009a
ffd2
ff9e
ffbd
0092
ffc9
0029
001a
004b
ffa1
ff9f
ffec
008e
ffe2
ff78
ffae
0009
ff70
ffc0
ffef
ffec
ff78
ff63
fff8
ffa8
ff7d
ff8e
ffc1
ff5a
0001
ffab
0053
ffd7
ff4d
ffb4
ff24
ffdb
ffdf
ff9a
fffa
ffb4
002b
002c
0039
000f
0014
ffb6
0009
ffa1
ffe5
0042
003e
0010
ff8d
0057
ff9a
ff58
0030
ffd2
0000
feff
000a
ffcf
ffee
fff7
0033
ffdb
ff9e
0009
ffbf
ff62
ff4a
ffd1
0002
ff98
ffd2
0062
ffc5
000e
ff5b
ffb3
0037
ff96
ffec
ff89
0005
ff8f
ffec
0009
ffbe
ffa5
ffaa
ffa1
ffae
002d
0016
004a
ffcf
0064
004a
0004
fffb
0048
0034
ffbb
ffb6
ffa2
ffc2
0039
ffbf
0010
ffec
ffc7
ff52
0059
ffc6
001d
fff6
fffd
ffc5
0032
ffbe
ff92
ff73
ff41
ff7e
ff8b
000e
ffc2
000a
003d
fffe
001a
ffee
ffe6
ffeb
006b
ff7f
0015
0011
001f
0053
ffa8
ff98
0066
000b
fff7
0013
ffee
0008
ffc9
ffaa
ffec
ffcd
ffc7
ffff
ff93
ffba
0029
ffb9
0014
ffff
0021
ff92
0003
ff5a
ffb1
fff4
0025
0013
ffd9
ffdb
ffd7
ffe6
003e
ff9c
0047
ffb9
001f
000d
ff94
0003
ffa0
ff78
ffba
ffe0
00af
ffb3
0022
ffa5
ffc6
0029
ffe5
0079
ff74
ffb9
ffca
ffce
001d
ffd7
ffcf
006e
ff8f
ffbf
0022
ffb3
ff8e
0023
0067
0012
006d
ffbd
ffef
ffcc
ff70
0074
ff48
ff35
000b
ffdd
0098
001a
ffa9
0031
004d
ff9a
ffb1
0014
0043
0054
0024
ffa5
ff83
ff50
ffd8
ff7a
ffd8
001a
0000
ff9b
002b
fff4
0005
0014
ff84
ffc0
ffc3
ffe4
ff61
ffea
ffb5
ff2f
002e
ffcd
ffdf
0000
00a1
ffd9
ffa5
ffc4
0099
ffd0
0030
0021
0052
ffa8
ffa6
fff3
0095
ffe9
ff7f
ffb5
0010
ff77
ffc7
fff6
fff3
ff7f
ff6a
ffff
ffaf
ff84
ff95
ffc8
ff61
0008
ffb2
005a
ffde
ff54
ffbb
ff2b
ffe2
ffe6
ffa1
0001
ffbb
0032
0033
0040
0016
001b
ffbd
0010
ffa8
ffec
0049
0045
0017
ff94
005e
ffa1
ff5f
0037
ffd9
0007
ff06
0011
ffd6
fff5
fffe
003a
ffe2
ffa5
0010
ffc6
ff69
ff51
ffd8
0009
ff9f
ffd9
0069
ffcc
0015
ff62
ffba
003e
ff9d
fff3
ff90
000c
ff96
fff3
0010
ffc5
ffac
ffb1
ffa8
ffb5
0034
001d
0051
ffd6
006b
0051
000b
0002
004f
003b
ffc2
ffbd
ffa9
ffc9
0040
ffc6
0017
fff3
ffce
ff59
0060
ffcd
0024
fffd
0004
ffcc
0039
ffc5
ff99
ff7a
ff48
ff85
ff92
0015
ffc9
0011
0044
0005
0021
fff5
ffed
fff2
0072
ff86
001c
0018
0026
005a
ffaf
ff9f
006d
0012
fffe
001a
fff5
000f
ffd0
ffb1
fff3
ffd4
ffce
0006
ff9a
ffc1
0030
ffc0
001b
0006
0028
ff99
000a
ff61
ffb8
fffb
002c
001a
ffe0
ffe2
ffde
ffed
0045
ffa3
004e
ffc0
0026
0014
ff9b
000a
ffa7
ff7f
ffc1
ffe7
00b6
ffba
0029
ffac
ffcd
0030
ffec
0080
ff7b
ffc0
ffd1
ffd5
0024
ffde
ffd6
0075
ff96
ffc6
0029
ffba
ff95
002a
006e
0019
0074
ffc4
fff6
ffd3
ff77
007b
ff4f
ff3c
0012
ffe4
009f
0021
ffb0
0038
0054
ffa1
ffb8
001b
004a
005b
002b
ffac
ff8a
ff57
ffdf
ff81
ffdf
0021
0007
ffa2
0032
fffb
000c
001b
ff8b
ffc7
ffca
ffeb
ff68
fff1
ffbc
ff36
0035
ffd4
ffe6
0007
00a8
ffc0
ff8c
ffab
0080
ffb7
0017
0008
0039
ff8f
ff8d
ffda
007c
ffd0
ff66
ff9c
fff7
ff5e
ffae
ffdd
ffda
ff66
ff51
ffe6
ff96
ff6b
ff7c
ffaf
ff48
ffef
ff99
0041
ffc5
ff3b
ffa2
ff12
ffc9
ffcd
ff88
ffe8
ffa2
0019
001a
0027
fffd
0002
ffa4
fff7
ff8f
ffd3
0030
002c
fffe
ff7b
0045
ff88
ff46
001e
ffc0
ffee
feed
fff8
ffbd
ffdc
ffe5
0021
ffc9
ff8c
fff7
ffad
ff50
ff38
ffbf
fff0
ff86
ffc0
0050
ffb3
fffc
ff49
ffa1
0025
ff84
ffda
ff77
fff3
ff7d
ffda
fff7
ffac
ff93
ff98
ff8f
ff9c
001b
0004
0038
ffbd
0052
0038
fff2
ffe9
0036
0022
ffa9
ffa4
ff90
ffb0
0027
ffad
fffe
ffda
ffb5
ff40
0047
ffb4
000b
ffe4
ffeb
ffb3
0020
ffac
ff80
ff61
ff2f
ff6c
ff79
fffc
ffb0
fff8
002b
ffec
0008
ffdc
ffd4
ffd9
0059
ff6d
0003
ffff
000d
0041
ff96
ff86
0054
fff9
ffe5
0001
ffdc
fff6
ffb7
ff98
ffda
ffbb
ffb5
ffed
ff81
ffa8
0017
ffa7
0002
ffed
000f
ff80
fff1
ff48
ff9f
ffe2
0013
0001
ffc7
ffc9
ffc5
ffd4
002c
ff8a
0035
ffa7
000d
fffb
ff82
fff1
ff8e
ff66
ffa8
ffce
009d
ffa1
0010
ff93
ffb4
0017
ffd3
0067
ff62
ffa7
ffb8
ffbc
000b
ffc5
ffbd
005c
ff7d
ffad
0010
ffa1
ff7c
0011
0055
0000
005b
ffab
ffdd
ffba
ff5e
0062
ff36
ff23
fff9
ffcb
0086
0008
ff97
001f
003b
ff88
ff9f
0002
0031
0042
0012
ff93
ff71
ff3e
ffc6
ff68
ffc6
0008
ffee
ff89
0019
ffe2
fff3
0002
ff72
ffae
ffb1
ffd2
ff4f
ffd8
ffa3
ff1d
001c
ffbb
ffcd
ffee
008f
ffc7
ff93
ffb2
0087
ffbe
001e
000f
0040
ff96
ff94
ffe1
0083
ffd7
ff6d
ffa3
fffe
ff65
ffb5
ffe4
ffe1
ff6d
ff58
ffed
ff9d
ff72
ff83
ffb6
ff4f
fff6
ffa0
0048
ffcc
ff42
ffa9
ff19
ffd0
ffd4
ff8f
ffef
ffa9
0020
0021
002e
0004
0009
ffab
fffe
ff96
ffda
0037
0033
0005
ff82
004c
ff8f
ff4d
0025
ffc7
fff5
fef4
ffff
ffc4
ffe3
ffec
0028
ffd0
ff93
fffe
ffb4
ff57
ff3f
ffc6
fff7
ff8d
ffc7
0057
ffba
0003
ff50
ffa8
002c
ff8b
ffe1
ff7e
fffa
ff84
ffe1
fffe
ffb3
ff9a
ff9f
ff96
ffa3
0022
000b
003f
ffc4
0059
003f
fff9
fff0
003d
0029
ffb0
ffab
ff97
ffb7
002e
ffb4
0005
ffe1
ffbc
ff47
004e
ffbb
0012
ffeb
fff2
ffba
0027
ffb3
ff87
ff68
ff36
ff73
ff80
0003
ffb7
ffff
0032
fff3
000f
ffe3
ffdb
ffe0
0060
ff74
000a
0006
0014
0048
ff9d
ff8d
005b
0000
ffec
0008
ffe3
fffd
ffbe
ff9f
ffe1
ffc2
ffbc
fff4
ff88
ffaf
001e
ffae
0009
fff4
0016
ff87
fff8
ff4f
ffa6
ffe9
001a
0008
ffce
ffd0
ffcc
ffdb
0033
ff91
003c
ffae
0014
0002
ff89
fff8
ff95
ff6d
ffaf
ffd5
00a4
ffa8
0017
ff9a
ffbb
001e
ffda
006e
ff69
ffae
ffbf
ffc3
0012
ffcc
ffc4
0063
ff84
ffb4
0017
ffa8
ff83
0018
005c
0007
0062
ffb2
ffe4
ffc1
ff65
0069
ff3d
ff2a
0000
ffd2
008d
000f
ff9e
0026
0042
ff8f
ffa6
0009
0038
0049
0019
ff9a
ff78
ff45
ffcd
ff6f
ffcd
000f
fff5
ff90
0020
ffe9
fffa
0009
ff79
ffb5
ffb8
ffd9
ff56
ffdf
ffaa
ff24
0023
ffc2
ffd4
fff5
0096
ffce
ff9a
ffb9
008e
ffc5
0025
0016
0047
ff9d
ff9b
ffe8
008a
ffde
ff74
ffaa
0005
ff6c
ffbc
ffeb
ffe8
ff74
ff5f
fff4
ffa4
ff79
ff8a
ffbd
ff56
fffd
ffa7
004f
ffd3
ff49
ffb0
ff20
ffd7
ffdb
ff96
fff6
ffb0
0027
0028
0035
000b
0010
ffb2
0005
ff9d
ffe1
003e
003a
000c
ff89
0053
ff96
ff54
002c
ffce
fffc
fefb
0006
ffcb
ffea
fff3
002f
ffd7
ff9a
0005
ffbb
ff5e
ff46
ffcd
fffe
ff94
ffce
005e
ffc1
000a
ff57
ffaf
0033
ff92
ffe8
ff85
0001
ff8b
ffe8
0005
ffba
ffa1
ffa6
ff9d
ffaa
0029
0012
0046
ffcb
0060
0046
0000
fff7
0044
0030
ffb7
ffb2
ff9e
ffbe
0035
ffbb
000c
ffe8
ffc3
ff4e
0055
ffc2
0019
fff2
fff9
ffc1
002e
ffba
ff8e
ff6f
ff3d
ff7a
ff87
000a
ffbe
0006
0039
fffa
0016
ffea
ffe2
ffe7
0067
ff7b
0011
000d
001b
004f
ffa4
ff94
0062
0007
fff3
000f
ffea
0004
ffc5
ffa6
ffe8
ffc9
ffc3
fffb
ff8f
ffb6
0025
ffb5
0010
fffb
001d
ff8e
ffff
ff56
ffad
fff0
0021
000f
ffd5
ffd7
ffd3
ffe2
003a
ff98
0043
ffb5
001b
0009
ff90
ffff
ff9c
ff74
ffb6
ffdc
00ab
ffaf
001e
ffa1
ffc2
0025
ffe1
0075
ff70
ffb5
ffc6
ffca
0019
ffd3
ffcb
006a
ff8b
ffbb
001e
ffaf
ff8a
001f
0063
000e
0069
ffb9
ffeb
ffc8
ff6c
0070
ff44
ff31
0007
ffd9
0094
0016
ffa5
002d
0049
ff96
ffad
0010
003f
0050
0020
ffa1
ff7f
ff4c
ffd4
ff76
ffd4
0016
fffc
ff97
0027
fff0
0001
0010
ff80
ffbc
ffbf
ffe0
ff5d
ffe6
ffb1
ff2b
002a
ffc9
ffdb
fffc
009d
ffd5
ffa1
ffc0
0095
ffcc
002c
001d
004e
ffa4
ffa2
ffef
0091
ffe5
ff7b
ffb1
000c
ff73
ffc3
fff2
ffef
ff7b
ff66
fffb
ffab
ff80
ff91
ffc4
ff5d
0004
ffae
0056
ffda
ff50
ffb7
ff27
ffde
ffe2
ff9d
fffd
ffb7
002e
002f
003c
0012
0017
ffb9
000c
ffa4
ffe8
0045
0041
0013
ff90
005a
ff9d
ff5b
0033
ffd5
0003
ff02
000d
ffd2
fff1
fffa
0036
ffde
ffa1
000c
ffc2
ff65
ff4d
ffd4
0005
ff9b
ffd5
0065
ffc8
0011
ff5e
ffb6
003a
ff99
ffef
ff8c
0008
ff92
ffef
000c
ffc1
ffa8
ffad
ffa4
ffb1
0030
0019
004d
ffd2
0067
004d
0007
fffe
004b
0037
ffbe
ffb9
ffa5
ffc5
003c
ffc2
0013
ffef
ffca
ff55
005c
ffc9
0020
fff9
0000
ffc8
0035
ffc1
ff95
ff76
ff44
ff81
ff8e
0011
ffc5
000d
0040
0001
001d
fff1
ffe9
ffee
006e
ff82
0018
0014
0022
0056
ffab
ff9b
0069
000e
fffa
0016
fff1
000b
ffcc
ffad
ffef
ffd0
ffca
0002
ff96
ffbd
002c
ffbc
0017
0002
0024
ff95
0006
ff5d
ffb4
fff7
0028
0016
ffdc
ffde
ffda
ffe9
0041
ff9f
004a
ffbc
0022
0010
ff97
0006
ffa3
ff7b
ffbd
ffe3
00b2
ffb6
0025
ffa8
ffc9
002c
ffe8
007c
ff77
ffbc
ffcd
ffd1
0020
ffda
ffd2
0071
ff92
ffc2
0025
ffb6
ff91
0026
006a
0015
0070
ffc0
fff2
ffcf
ff73
0077
ff4b
ff38
000e
ffe0
009b
001d
ffac
0034
0050
ff9d
ffb4
0017
0046
0057
0027
ffa8
ff86
ff53
ffdb
ff7d
ffdb
001d
0003
ff9e
002e
fff7
0008
0017
ff87
ffc3
ffc6
ffe7
ff64
ffed
ffb8
ff32
0031
ffd0
ffe2
0003
00a4
ffdc
ffa8
ffc7
009c
ffd3
0033
0024
0055
ffab
ffa9
fff6
0098
ffec
ff82
ffb8
0013
ff7a
ffca
fff9
fff6
ff82
ff6d
0002
ffb2
ff87
ff98
ffcb
ff64
000b
ffb5
005d
ffe1
ff57
ffbe
ff2e
ffe5
ffe9
ffa4
0004
ffbe
0035
0036
0043
0019
001e
ffc0
0013
ffab
ffef
004c
0048
001a
ff97
0061
ffa4
ff62
003a
ffdc
000a
ff09
0014
ffd9
fff8
0001
003d
ffe5
ffa8
0013
ffc9
ff6c
ff54
ffdb
000c
ffa2
ffdc
006c
ffcf
0018
ff65
ffbd
0041
ffa0
fff6
ff93
000f
ff99
fff6
0013
ffc8
ffaf
ffb4
ffab
ffb8
0037
0020
0054
ffd9
006e
0054
000e
0005
0052
003e
ffc5
ffc0
ffac
ffcc
0043
ffc9
001a
fff6
ffd1
ff5c
0063
ffd0
0027
0000
0007
ffcf
003c
ffc8
ff9c
ff7d
ff4b
ff88
ff95
0018
ffcc
0014
0047
0008
0024
fff8
fff0
fff5
0075
ff89
001f
001b
0029
005d
ffb2
ffa2
0070
0015
0001
001d
fff8
0012
ffd3
ffb4
fff6
ffd7
ffd1
0009
ff9d
ffc4
0033
ffc3
001e
0009
002b
ff9c
000d
ff64
ffbb
fffe
002f
001d
ffe3
ffe5
ffe1
fff0
0048
ffa6
0051
ffc3
0029
0017
ff9e
000d
ffaa
ff82
ffc4
ffea
00b9
ffbd
002c
ffaf
ffd0
0033
ffef
0083
ff7e
ffc3
ffd4
ffd8
0027
ffe1
ffd9
0078
ff99
ffc9
002c
ffbd
ff98
002d
0071
001c
0077
ffc7
fff9
ffd6
ff7a
007e
ff52
ff3f
0015
ffe7
00a2
0024
ffb3
003b
0057
ffa4
ffbb
001e
004d
005e
002e
ffaf
ff8d
ff5a
ffe2
ff84
ffe2
0024
000a
ffa5
0035
fffe
000f
001e
ff8e
ffca
ffcd
ffee
ff6b
fff4
ffbf
ff39
0038
ffd7
ffe9
000a
00ab
ffc3
ff8f
ffae
0083
ffba
001a
000b
003c
ff92
ff90
ffdd
007f
ffd3
ff69
ff9f
fffa
ff61
ffb1
ffe0
ffdd
ff69
ff54
ffe9
ff99
ff6e
ff7f
ffb2
ff4b
fff2
ff9c
0044
ffc8
ff3e
ffa5
ff15
ffcc
ffd0
ff8b
ffeb
ffa5
001c
001d
002a
0000
0005
ffa7
fffa
ff92
ffd6
0033
002f
0001
ff7e
0048
ff8b
ff49
0021
ffc3
fff1
fef0
fffb
ffc0
ffdf
ffe8
0024
ffcc
ff8f
fffa
ffb0
ff53
ff3b
ffc2
fff3
ff89
ffc3
0053
ffb6
ffff
ff4c
ffa4
0028
ff87
ffdd
ff7a
fff6
ff80
ffdd
fffa
ffaf
ff96
ff9b
ff92
ff9f
001e
0007
003b
ffc0
0055
003b
fff5
ffec
0039
0025
ffac
ffa7
ff93
ffb3
002a
ffb0
0001
ffdd
ffb8
ff43
004a
ffb7
000e
ffe7
ffee
ffb6
0023
ffaf
ff83
ff64
ff32
ff6f
ff7c
ffff
ffb3
fffb
002e
ffef
000b
ffdf
ffd7
ffdc
005c
ff70
0006
0002
0010
0044
ff99
ff89
0057
fffc
ffe8
0004
ffdf
fff9
ffba
ff9b
ffdd
ffbe
ffb8
fff0
ff84
ffab
001a
ffaa
0005
fff0
0012
ff83
fff4
ff4b
ffa2
ffe5
0016
0004
ffca
ffcc
ffc8
ffd7
002f
ff8d
0038
ffaa
0010
fffe
ff85
fff4
ff91
ff69
ffab
ffd1
00a0
ffa4
0013
ff96
ffb7
001a
ffd6
006a
ff65
ffaa
ffbb
ffbf
000e
ffc8
ffc0
005f
ff80
ffb0
0013
ffa4
ff7f
0014
0058
0003
005e
ffae
ffe0
ffbd
ff61
0065
ff39
ff26
fffc
ffce
0089
000b
ff9a
0022
003e
ff8b
ffa2
0005
0034
0045
0015
ff96
ff74
ff41
ffc9
ff6b
ffc9
000b
fff1
ff8c
001c
ffe5
fff6
0005
ff75
ffb1
ffb4
ffd5
ff52
ffdb
ffa6
ff20
001f
ffbe
ffd0
fff1
0092
ffca
ff96
ffb5
008a
ffc1
0021
0012
0043
ff99
ff97
ffe4
0086
ffda
ff70
ffa6
0001
ff68
ffb8
ffe7
ffe4
ff70
ff5b
fff0
ffa0
ff75
ff86
ffb9
ff52
fff9
ffa3
004b
ffcf
ff45
ffac
ff1c
ffd3
ffd7
ff92
fff2
ffac
0023
0024
0031
0007
000c
ffae
0001
ff99
ffdd
003a
0036
0008
ff85
004f
ff92
ff50
0028
ffca
fff8
fef7
0002
ffc7
ffe6
ffef
002b
ffd3
ff96
0001
ffb7
ff5a
ff42
ffc9
fffa
ff90
ffca
005a
ffbd
0006
ff53
ffab
002f
ff8e
ffe4
ff81
fffd
ff87
ffe4
0001
ffb6
ff9d
ffa2
ff99
ffa6
0025
000e
0042
ffc7
005c
0042
fffc
fff3
0040
002c
ffb3
ffae
ff9a
ffba
0031
ffb7
0008
ffe4
ffbf
ff4a
0051
ffbe
0015
ffee
fff5
ffbd
002a
ffb6
ff8a
ff6b
ff39
ff76
ff83
0006
ffba
0002
0035
fff6
0012
ffe6
ffde
ffe3
0063
ff77
000d
0009
0017
004b
ffa0
ff90
005e
0003
ffef
000b
ffe6
0000
ffc1
ffa2
ffe4
ffc5
ffbf
fff7
ff8b
ffb2
0021
ffb1
000c
fff7
0019
ff8a
fffb
ff52
ffa9
ffec
001d
000b
ffd1
ffd3
ffcf
ffde
0036
ff94
003f
ffb1
0017
0005
ff8c
fffb
ff98
ff70
ffb2
ffd8
00a7
ffab
001a
ff9d
ffbe
0021
ffdd
0071
ff6c
ffb1
ffc2
ffc6
0015
ffcf
ffc7
0066
ff87
ffb7
001a
ffab
ff86
001b
005f
000a
0065
ffb5
ffe7
ffc4
ff68
006c
ff40
ff2d
0003
ffd5
0090
0012
ffa1
0029
0045
ff92
ffa9
000c
003b
004c
001c
ff9d
ff7b
ff48
ffd0
ff72
ffd0
0012
fff8
ff93
0023
ffec
fffd
000c
ff7c
ffb8
ffbb
ffdc
ff59
ffe2
ffad
ff27
0026
ffc5
ffd7
fff8
0099
ffd1
ff9d
ffbc
0091
ffc8
0028
0019
004a
ffa0
ff9e
ffeb
008d
ffe1
ff77
ffad
0008
ff6f
ffbf
ffee
ffeb
ff77
ff62
fff7
ffa7
ff7c
ff8d
ffc0
ff59
0000
ffaa
0052
ffd6
ff4c
ffb3
ff23
ffda
ffde
ff99
fff9
ffb3
002a
002b
0038
000e
0013
ffb5
0008
ffa0
ffe4
0041
003d
000f
ff8c
0056
ff99
ff57
002f
ffd1
ffff
fefe
0009
ffce
ffed
fff6
0032
ffda
ff9d
0008
ffbe
ff61
ff49
ffd0
0001
ff97
ffd1
0061
ffc4
000d
ff5a
ffb2
0036
ff95
ffeb
ff88
0004
ff8e
ffeb
0008
ffbd
ffa4
ffa9
ffa0
ffad
002c
0015
0049
ffce
0063
0049
0003
fffa
0047
0033
ffba
ffb5
ffa1
ffc1
0038
ffbe
000f
ffeb
ffc6
ff51
0058
ffc5
001c
fff5
fffc
ffc4
0031
ffbd
ff91
ff72
ff40
ff7d
ff8a
000d
ffc1
0009
003c
fffd
0019
ffed
ffe5
ffea
006a
ff7e
0014
0010
001e
0052
ffa7
ff97
0065
000a
fff6
0012
ffed
0007
ffc8
ffa9
ffeb
ffcc
ffc6
fffe
ff92
ffb9
0028
ffb8
0013
fffe
0020
ff91
0002
ff59
ffb0
fff3
0024
0012
ffd8
ffda
ffd6
ffe5
003d
ff9b
0046
ffb8
001e
000c
ff93
0002
ff9f
ff77
ffb9
ffdf
00ae
ffb2
0021
ffa4
ffc5
0028
ffe4
0078
ff73
ffb8
ffc9
ffcd
001c
ffd6
ffce
006d
ff8e
ffbe
0021
ffb2
ff8d
0022
0066
0011
006c
ffbc
ffee
ffcb
ff6f
0073
ff47
ff34
000a
ffdc
0097
0019
ffa8
0030
004c
ff99
ffb0
0013
0042
0053
0023
ffa4
ff82
ff4f
ffd7
ff79
ffd7
0019
ffff
ff9a
002a
fff3
0004
0013
ff83
ffbf
ffc2
ffe3
ff60
ffe9
ffb4
ff2e
002d
ffcc
ffde
ffff
00a0
ffd8
ffa4
ffc3
0098
ffcf
002f
0020
0051
ffa7
ffa5
fff2
0094
ffe8
ff7e
ffb4
000f
ff76
ffc6
fff5
fff2
ff7e
ff69
fffe
ffae
ff83
ff94
ffc7
ff60
0007
ffb1
0059
ffdd
ff53
ffba
ff2a
ffe1
ffe5
ffa0
0000
ffba
0031
0032
003f
0015
001a
ffbc
000f
ffa7
ffeb
0048
0044
0016
ff93
005d
ffa0
ff5e
0036
ffd8
0006
ff05
0010
ffd5
fff4
fffd
0039
ffe1
ffa4
000f
ffc5
ff68
ff50
ffd7
0008
ff9e
ffd8
0068
ffcb
0014
ff61
ffb9
003d
ff9c
fff2
ff8f
000b
ff95
fff2
000f
ffc4
ffab
ffb0
ffa7
ffb4
0033
001c
0050
ffd5
006a
0050
000a
0001
004e
003a
ffc1
ffbc
ffa8
ffc8
003f
ffc5
0016
fff2
ffcd
ff58
005f
ffcc
0023
fffc
0003
ffcb
0038
ffc4
ff98
ff79
ff47
ff84
ff91
0014
ffc8
0010
0043
0004
0020
fff4
ffec
fff1
0071
ff85
001b
0017
0025
0059
ffae
ff9e
006c
0011
fffd
0019
fff4
000e
ffcf
ffb0
fff2
ffd3
ffcd
0005
ff99
ffc0
002f
ffbf
001a
0005
0027
ff98
0009
ff60
ffb7
fffa
002b
0019
ffdf
ffe1
ffdd
ffec
0044
ffa2
004d
ffbf
0025
0013
ff9a
0009
ffa6
ff7e
ffc0
ffe6
00b5
ffb9
0028
ffab
ffcc
002f
ffeb
007f
ff7a
ffbf
ffd0
ffd4
0023
ffdd
ffd5
0074
ff95
ffc5
0028
ffb9
ff94
0029
006d
0018
0073
ffc3
fff5
ffd2
ff76
007a
ff4e
ff3b
0011
ffe3
009e
0020
ffaf
0037
0053
ffa0
ffb7
001a
0049
005a
002a
ffab
ff89
ff56
ffde
ff80
ffde
0020
0006
ffa1
0031
fffa
000b
001a
ff8a
ffc6
ffc9
ffea
ff67
fff0
ffbb
ff35
0034
ffd3
ffe5
0006
00a7
ffbf
ff8b
ffaa
007f
ffb6
0016
0007
0038
ff8e
ff8c
ffd9
007b
ffcf
ff65
ff9b
fff6
ff5d
ffad
ffdc
ffd9
ff65
ff50
ffe5
ff95
ff6a
ff7b
ffae
ff47
ffee
ff98
0040
ffc4
ff3a
ffa1
ff11
ffc8
ffcc
ff87
ffe7
ffa1
0018
0019
0026
fffc
0001
ffa3
fff6
ff8e
ffd2
002f
002b
fffd
ff7a
0044
ff87
ff45
001d
ffbf
ffed
feec
fff7
ffbc
ffdb
ffe4
0020
ffc8
ff8b
fff6
ffac
ff4f
ff37
ffbe
ffef
ff85
ffbf
004f
ffb2
fffb
ff48
ffa0
0024
ff83
ffd9
ff76
fff2
ff7c
ffd9
fff6
ffab
ff92
ff97
ff8e
ff9b
001a
0003
0037
ffbc
0051
0037
fff1
ffe8
0035
0021
ffa8
ffa3
ff8f
ffaf
0026
ffac
fffd
ffd9
ffb4
ff3f
0046
ffb3
000a
ffe3
ffea
ffb2
001f
ffab
ff7f
ff60
ff2e
ff6b
ff78
fffb
ffaf
fff7
002a
ffeb
0007
ffdb
ffd3
ffd8
0058
ff6c
0002
fffe
000c
0040
ff95
ff85
0053
fff8
ffe4
0000
ffdb
fff5
ffb6
ff97
ffd9
ffba
ffb4
ffec
ff80
ffa7
0016
ffa6
0001
ffec
000e
ff7f
fff0
ff47
ff9e
ffe1
0012
0000
ffc6
ffc8
ffc4
ffd3
002b
ff89
0034
ffa6
000c
fffa
ff81
fff0
ff8d
ff65
ffa7
ffcd
009c
ffa0
000f
ff92
ffb3
0016
ffd2
0066
ff61
ffa6
ffb7
ffbb
000a
ffc4
ffbc
005b
ff7c
ffac
000f
ffa0
ff7b
0010
0054
ffff
005a
ffaa
ffdc
ffb9
ff5d
0061
ff35
ff22
fff8
ffca
0085
0007
ff96
001e
003a
ff87
ff9e
0001
0030
0041
0011
ff92
ff70
ff3d
ffc5
ff67
ffc5
0007
ffed
ff88
0018
ffe1
fff2
0001
ff71
ffad
ffb0
ffd1
ff4e
ffd7
ffa2
ff1c
001b
ffba
ffcc
ffed
008e
ffc6
ff92
ffb1
0086
ffbd
001d
000e
003f
ff95
ff93
ffe0
0082
ffd6
ff6c
ffa2
fffd
ff64
ffb4
ffe3
ffe0
ff6c
ff57
ffec
ff9c
ff71
ff82
ffb5
ff4e
fff5
ff9f
0047
ffcb
ff41
ffa8
ff18
ffcf
ffd3
ff8e
ffee
ffa8
001f
0020
002d
0003
0008
ffaa
fffd
ff95
ffd9
0036
0032
0004
ff81
004b
ff8e
ff4c
0024
ffc6
fff4
fef3
fffe
ffc3
ffe2
ffeb
0027
ffcf
ff92
fffd
ffb3
ff56
ff3e
ffc5
fff6
ff8c
ffc6
0056
ffb9
0002
ff4f
ffa7
002b
ff8a
ffe0
ff7d
fff9
ff83
ffe0
fffd
ffb2
ff99
ff9e
ff95
ffa2
0021
000a
003e
ffc3
0058
003e
fff8
ffef
003c
0028
ffaf
ffaa
ff96
ffb6
002d
ffb3
0004
ffe0
ffbb
ff46
004d
ffba
0011
ffea
fff1
ffb9
0026
ffb2
ff86
ff67
ff35
ff72
ff7f
0002
ffb6
fffe
0031
fff2
000e
ffe2
ffda
ffdf
005f
ff73
0009
0005
0013
0047
ff9c
ff8c
005a
ffff
ffeb
0007
ffe2
fffc
ffbd
ff9e
ffe0
ffc1
ffbb
fff3
ff87
ffae
001d
ffad
0008
fff3
0015
ff86
fff7
ff4e
ffa5
ffe8
0019
0007
ffcd
ffcf
ffcb
ffda
0032
ff90
003b
ffad
0013
0001
ff88
fff7
ff94
ff6c
ffae
ffd4
00a3
ffa7
0016
ff99
ffba
001d
ffd9
006d
ff68
ffad
ffbe
ffc2
0011
ffcb
ffc3
0062
ff83
ffb3
0016
ffa7
ff82
0017
005b
0006
0061
ffb1
ffe3
ffc0
ff64
0068
ff3c
ff29
ffff
ffd1
008c
000e
ff9d
0025
0041
ff8e
ffa5
0008
0037
0048
0018
ff99
ff77
ff44
ffcc
ff6e
ffcc
000e
fff4
ff8f
001f
ffe8
fff9
0008
ff78
ffb4
ffb7
ffd8
ff55
ffde
ffa9
ff23
0022
ffc1
ffd3
fff4
0095
ffcd
ff99
ffb8
008d
ffc4
0024
0015
0046
ff9c
ff9a
ffe7
0089
ffdd
ff73
ffa9
0004
ff6b
ffbb
ffea
ffe7
ff73
ff5e
fff3
ffa3
ff78
ff89
ffbc
ff55
fffc
ffa6
004e
ffd2
ff48
ffaf
ff1f
ffd6
ffda
ff95
fff5
ffaf
0026
0027
0034
000a
000f
ffb1
0004
ff9c
ffe0
003d
0039
000b
ff88
0052
ff95
ff53
002b
ffcd
fffb
fefa
0005
ffca
ffe9
fff2
002e
ffd6
ff99
0004
ffba
ff5d
ff45
ffcc
fffd
ff93
ffcd
005d
ffc0
0009
ff56
ffae
0032
ff91
ffe7
ff84
0000
ff8a
ffe7
0004
ffb9
ffa0
ffa5
ff9c
ffa9
0028
0011
0045
ffca
005f
0045
ffff
fff6
0043
002f
ffb6
ffb1
ff9d
ffbd
0034
ffba
000b
ffe7
ffc2
ff4d
0054
ffc1
0018
fff1
fff8
ffc0
002d
ffb9
ff8d
ff6e
ff3c
ff79
ff86
0009
ffbd
0005
0038
fff9
0015
ffe9
ffe1
ffe6
0066
ff7a
0010
000c
001a
004e
ffa3
ff93
0061
0006
fff2
000e
ffe9
0003
ffc4
ffa5
ffe7
ffc8
ffc2
fffa
ff8e
ffb5
0024
ffb4
000f
fffa
001c
ff8d
fffe
ff55
ffac
ffef
0020
000e
ffd4
ffd6
ffd2
ffe1
0039
ff97
0042
ffb4
001a
0008
ff8f
fffe
ff9b
ff73
ffb5
ffdb
00aa
ffae
001d
ffa0
ffc1
0024
ffe0
0074
ff6f
ffb4
ffc5
ffc9
0018
ffd2
ffca
0069
ff8a
ffba
001d
ffae
ff89
001e
0062
000d
0068
ffb8
ffea
ffc7
ff6b
006f
ff43
ff30
0006
ffd8
0093
0015
ffa4
002c
0048
ff95
ffac
000f
003e
004f
001f
ffa0
ff7e
ff4b
ffd3
ff75
ffd3
0015
fffb
ff96
0026
ffef
0000
000f
ff7f
ffbb
ffbe
ffdf
ff5c
ffe5
ffb0
ff2a
0029
ffc8
ffda
fffb
009c
ffd4
ffa0
ffbf
0094
ffcb
002b
001c
004d
ffa3
ffa1
ffee
0090
ffe4
ff7a
ffb0
000b
ff72
ffc2
fff1
ffee
ff7a
ff65
fffa
ffaa
ff7f
ff90
ffc3
ff5c
0003
ffad
0055
ffd9
ff4f
ffb6
ff26
ffdd
ffe1
ff9c
fffc
ffb6
002d
002e
003b
0011
0016
ffb8
000b
ffa3
ffe7
0044
0040
0012
ff8f
0059
ff9c
ff5a
0032
ffd4
0002
ff01
000c
ffd1
fff0
fff9
0035
ffdd
ffa0
000b
ffc1
ff64
ff4c
ffd3
0004
ff9a
ffd4
0064
ffc7
0010
ff5d
ffb5
0039
ff98
ffee
ff8b
0007
ff91
ffee
000b
ffc0
ffa7
ffac
ffa3
ffb0
002f
0018
004c
ffd1
0066
004c
0006
fffd
004a
0036
ffbd
ffb8
ffa4
ffc4
003b
ffc1
0012
ffee
ffc9
ff54
005b
ffc8
001f
fff8
ffff
ffc7
0034
ffc0
ff94
ff75
ff43
ff80
ff8d
0010
ffc4
000c
003f
0000
001c
fff0
ffe8
ffed
006d
ff81
0017
0013
0021
0055
ffaa
ff9a
0068
000d
fff9
0015
fff0
000a
ffcb
ffac
ffee
ffcf
ffc9
0001
ff95
ffbc
002b
ffbb
0016
0001
0023
ff94
0005
ff5c
ffb3
fff6
0027
0015
ffdb
ffdd
ffd9
ffe8
0040
ff9e
0049
ffbb
0021
000f
ff96
0005
ffa2
ff7a
ffbc
ffe2
00b1
ffb5
0024
ffa7
ffc8
002b
ffe7
007b
ff76
ffbb
ffcc
ffd0
001f
ffd9
ffd1
0070
ff91
ffc1
0024
ffb5
ff90
0025
0069
0014
006f
ffbf
fff1
ffce
ff72
0076
ff4a
ff37
000d
ffdf
009a
001c
ffab
0033
004f
ff9c
ffb3
0016
0045
0056
0026
ffa7
ff85
ff52
ffda
ff7c
ffda
001c
0002
ff9d
002d
fff6
0007
0016
ff86
ffc2
ffc5
ffe6
ff63
ffec
ffb7
ff31
0030
ffcf
ffe1
0002
00a3
ffdb
ffa7
ffc6
009b
ffd2
0032
0023
0054
ffaa
ffa8
fff5
0097
ffeb
ff81
ffb7
0012
ff79
ffc9
fff8
fff5
ff81
ff6c
0001
ffb1
ff86
ff97
ffca
ff63
000a
ffb4
005c
ffe0
ff56
ffbd
ff2d
ffe4
ffe8
ffa3
0003
ffbd
0034
0035
0042
0018
001d
ffbf
0012
ffaa
ffee
004b
0047
0019
ff96
0060
ffa3
ff61
0039
ffdb
0009
ff08
0013
ffd8
fff7
0000
003c
ffe4
ffa7
0012
ffc8
ff6b
ff53
ffda
000b
ffa1
ffdb
006b
ffce
0017
ff64
ffbc
0040
ff9f
fff5
ff92
000e
ff98
fff5
0012
ffc7
ffae
ffb3
ffaa
ffb7
0036
001f
0053
ffd8
006d
0053
000d
0004
0051
003d
ffc4
ffbf
ffab
ffcb
0042
ffc8
0019
fff5
ffd0
ff5b
0062
ffcf
0026
ffff
0006
ffce
003b
ffc7
ff9b
ff7c
ff4a
ff87
ff94
0017
ffcb
0013
0046
0007
0023
fff7
ffef
fff4
0074
ff88
001e
001a
0028
005c
ffb1
ffa1
006f
0014
0000
001c
fff7
0011
ffd2
ffb3
fff5
ffd6
ffd0
0008
ff9c
ffc3
0032
ffc2
001d
0008
002a
ff9b
000c
ff63
ffba
fffd
002e
001c
ffe2
ffe4
ffe0
ffef
0047
ffa5
0050
ffc2
0028
0016
ff9d
000c
ffa9
ff81
ffc3
ffe9
00b8
ffbc
002b
ffae
ffcf
0032
ffee
0082
ff7d
ffc2
ffd3
ffd7
0026
ffe0
ffd8
0077
ff98
ffc8
002b
ffbc
ff97
002c
0070
001b
0076
ffc6
fff8
ffd5
ff79
007d
ff51
ff3e
0014
ffe6
00a1
0023
ffb2
003a
0056
ffa3
ffba
001d
004c
005d
002d
ffae
ff8c
ff59
ffe1
ff83
ffe1
0023
0009
ffa4
0034
fffd
000e
001d
ff8d
ffc9
ffcc
ffed
ff6a
fff3
ffbe
ff38
0037
ffd6
ffe8
0009
00aa
ffc2
ff8e
ffad
0082
ffb9
0019
000a
003b
ff91
ff8f
ffdc
007e
ffd2
ff68
ff9e
fff9
ff60
ffb0
ffdf
ffdc
ff68
ff53
ffe8
ff98
ff6d
ff7e
ffb1
ff4a
fff1
ff9b
0043
ffc7
ff3d
ffa4
ff14
ffcb
ffcf
ff8a
ffea
ffa4
001b
001c
0029
ffff
0004
ffa6
fff9
ff91
ffd5
0032
002e
0000
ff7d
0047
ff8a
ff48
0020
ffc2
fff0
feef
fffa
ffbf
ffde
ffe7
0023
ffcb
ff8e
fff9
ffaf
ff52
ff3a
ffc1
fff2
ff88
ffc2
0052
ffb5
fffe
ff4b
ffa3
0027
ff86
ffdc
ff79
fff5
ff7f
ffdc
fff9
ffae
ff95
ff9a
ff91
ff9e
001d
0006
003a
ffbf
0054
003a
fff4
ffeb
0038
0024
ffab
ffa6
ff92
ffb2
0029
ffaf
0000
ffdc
ffb7
ff42
0049
ffb6
000d
ffe6
ffed
ffb5
0022
ffae
ff82
ff63
ff31
ff6e
ff7b
fffe
ffb2
fffa
002d
ffee
000a
ffde
ffd6
ffdb
005b
ff6f
0005
0001
000f
0043
ff98
ff88
0056
fffb
ffe7
0003
ffde
fff8
ffb9
ff9a
ffdc
ffbd
ffb7
ffef
ff83
ffaa
0019
ffa9
0004
ffef
0011
ff82
fff3
ff4a
ffa1
ffe4
0015
0003
ffc9
ffcb
ffc7
ffd6
002e
ff8c
0037
ffa9
000f
fffd
ff84
fff3
ff90
ff68
ffaa
ffd0
009f
ffa3
0012
ff95
ffb6
0019
ffd5
0069
ff64
ffa9
ffba
ffbe
000d
ffc7
ffbf
005e
ff7f
ffaf
0012
ffa3
ff7e
0013
0057
0002
005d
ffad
ffdf
ffbc
ff60
0064
ff38
ff25
fffb
ffcd
0088
000a
ff99
0021
003d
ff8a
ffa1
0004
0033
0044
0014
ff95
ff73
ff40
ffc8
ff6a
ffc8
000a
fff0
ff8b
001b
ffe4
fff5
0004
ff74
ffb0
ffb3
ffd4
ff51
ffda
ffa5
ff1f
001e
ffbd
ffcf
fff0
0091
ffc9
ff95
ffb4
0089
ffc0
0020
0011
0042
ff98
ff96
ffe3
0085
ffd9
ff6f
ffa5
0000
ff67
ffb7
ffe6
ffe3
ff6f
ff5a
ffef
ff9f
ff74
ff85
ffb8
ff51
fff8
ffa2
004a
ffce
ff44
ffab
ff1b
ffd2
ffd6
ff91
fff1
ffab
0022
0023
0030
0006
000b
ffad
0000
ff98
ffdc
0039
0035
0007
ff84
004e
ff91
ff4f
0027
ffc9
fff7
fef6
0001
ffc6
ffe5
ffee
002a
ffd2
ff95
0000
ffb6
ff59
ff41
ffc8
fff9
ff8f
ffc9
0059
ffbc
0005
ff52
ffaa
002e
ff8d
ffe3
ff80
fffc
ff86
ffe3
0000
ffb5
ff9c
ffa1
ff98
ffa5
0024
000d
0041
ffc6
005b
0041
fffb
fff2
003f
002b
ffb2
ffad
ff99
ffb9
0030
ffb6
0007
ffe3
ffbe
ff49
0050
ffbd
0014
ffed
fff4
ffbc
0029
ffb5
ff89
ff6a
ff38
ff75
ff82
0005
ffb9
0001
0034
fff5
0011
ffe5
ffdd
ffe2
0062
ff76
000c
0008
0016
004a
ff9f
ff8f
005d
0002
ffee
000a
ffe5
ffff
ffc0
ffa1
ffe3
ffc4
ffbe
fff6
ff8a
ffb1
0020
ffb0
000b
fff6
0018
ff89
fffa
ff51
ffa8
ffeb
001c
000a
ffd0
ffd2
ffce
ffdd
0035
ff93
003e
ffb0
0016
0004
ff8b
fffa
ff97
ff6f
ffb1
ffd7
00a6
ffaa
0019
ff9c
ffbd
0020
ffdc
0070
ff6b
ffb0
ffc1
ffc5
0014
ffce
ffc6
0065
ff86
ffb6
0019
ffaa
ff85
001a
005e
0009
0064
ffb4
ffe6
ffc3
ff67
006b
ff3f
ff2c
0002
ffd4
008f
0011
ffa0
0028
0044
ff91
ffa8
000b
003a
004b
001b
ff9c
ff7a
ff47
ffcf
ff71
ffcf
0011
fff7
ff92
0022
ffeb
fffc
000b
ff7b
ffb7
ffba
ffdb
ff58
ffe1
ffac
ff26
0025
ffc4
ffd6
fff7
0098
ffd0
ff9c
ffbb
0090
ffc7
0027
0018
0049
ff9f
ff9d
ffea
008c
ffe0
ff76
ffac
0007
ff6e
ffbe
ffed
ffea
ff76
ff61
fff6
ffa6
ff7b
ff8c
ffbf
ff58
ffff
ffa9
0051
ffd5
ff4b
ffb2
ff22
ffd9
ffdd
ff98
fff8
ffb2
0029
002a
0037
000d
0012
ffb4
0007
ff9f
ffe3
0040
003c
000e
ff8b
0055
ff98
ff56
002e
ffd0
fffe
fefd
0008
ffcd
ffec
fff5
0031
ffd9
ff9c
0007
ffbd
ff60
ff48
ffcf
0000
ff96
ffd0
0060
ffc3
000c
ff59
ffb1
0035
ff94
ffea
ff87
0003
ff8d
ffea
0007
ffbc
ffa3
ffa8
ff9f
ffac
002b
0014
0048
ffcd
0062
0048
0002
fff9
0046
0032
ffb9
ffb4
ffa0
ffc0
0037
ffbd
000e
ffea
ffc5
ff50
0057
ffc4
001b
fff4
fffb
ffc3
0030
ffbc
ff90
ff71
ff3f
ff7c
ff89
000c
ffc0
0008
003b
fffc
0018
ffec
ffe4
ffe9
0069
ff7d
0013
000f
001d
0051
ffa6
ff96
0064
0009
fff5
0011
ffec
0006
ffc7
ffa8
ffea
ffcb
ffc5
fffd
ff91
ffb8
0027
ffb7
0012
fffd
001f
ff90
0001
ff58
ffaf
fff2
0023
0011
ffd7
ffd9
ffd5
ffe4
003c
ff9a
0045
ffb7
001d
000b
ff92
0001
ff9e
ff76
ffb8
ffde
00ad
ffb1
0020
ffa3
ffc4
0027
ffe3
0077
ff72
ffb7
ffc8
ffcc
001b
ffd5
ffcd
006c
ff8d
ffbd
0020
ffb1
ff8c
0021
0065
0010
006b
ffbb
ffed
ffca
ff6e
0072
ff46
ff33
0009
ffdb
0096
0018
ffa7
002f
004b
ff98
ffaf
0012
0041
0052
0022
ffa3
ff81
ff4e
ffd6
ff78
ffd6
0018
fffe
ff99
0029
fff2
0003
0012
ff82
ffbe
ffc1
ffe2
ff5f
ffe8
ffb3
ff2d
002c
ffcb
ffdd
fffe
009f
ffd7
ffa3
ffc2
0097
ffce
002e
001f
0050
ffa6
ffa4
fff1
0093
ffe7
ff7d
ffb3
000e
ff75
ffc5
fff4
fff1
ff7d
ff68
fffd
ffad
ff82
ff93
ffc6
ff5f
0006
ffb0
0058
ffdc
ff52
ffb9
ff29
ffe0
ffe4
ff9f
ffff
ffb9
0030
0031
003e
0014
0019
ffbb
000e
ffa6
ffea
0047
0043
0015
ff92
005c
ff9f
ff5d
0035
ffd7
0005
ff04
000f
ffd4
fff3
fffc
0038
ffe0
ffa3
000e
ffc4
ff67
ff4f
ffd6
0007
ff9d
ffd7
0067
ffca
0013
ff60
ffb8
003c
ff9b
fff1
ff8e
000a
ff94
fff1
000e
ffc3
ffaa
ffaf
ffa6
ffb3
0032
001b
004f
ffd4
0069
004f
0009
0000
004d
0039
ffc0
ffbb
ffa7
ffc7
003e
ffc4
0015
fff1
ffcc
ff57
005e
ffcb
0022
fffb
0002
ffca
0037
ffc3
ff97
ff78
ff46
ff83
ff90
0013
ffc7
000f
0042
0003
001f
fff3
ffeb
fff0
0070
ff84
001a
0016
0024
0058
ffad
ff9d
006b
0010
fffc
0018
fff3
000d
ffce
ffaf
fff1
ffd2
ffcc
0004
ff98
ffbf
002e
ffbe
0019
0004
0026
ff97
0008
ff5f
ffb6
fff9
002a
0018
ffde
ffe0
ffdc
ffeb
0043
ffa1
004c
ffbe
0024
0012
ff99
0008
ffa5
ff7d
ffbf
ffe5
00b4
ffb8
0027
ffaa
ffcb
002e
ffea
007e
ff79
ffbe
ffcf
ffd3
0022
ffdc
ffd4
0073
ff94
ffc4
0027
ffb8
ff93
0028
006c
0017
0072
ffc2
fff4
ffd1
ff75
0079
ff4d
ff3a
0010
ffe2
009d
001f
ffae
0036
0052
ff9f
ffb6
0019
0048
0059
0029
ffaa
ff88
ff55
ffdd
ff7f
ffdd
001f
0005
ffa0
0030
fff9
000a
0019
ff89
ffc5
ffc8
ffe9
ff66
ffef
ffba
ff34
0033
ffd2
ffe4
0005
00a6
ffbe
ff8a
ffa9
007e
ffb5
0015
0006
0037
ff8d
ff8b
ffd8
007a
ffce
ff64
ff9a
fff5
ff5c
ffac
ffdb
ffd8
ff64
ff4f
ffe4
ff94
ff69
ff7a
ffad
ff46
ffed
ff97
003f
ffc3
ff39
ffa0
ff10
ffc7
ffcb
ff86
ffe6
ffa0
0017
0018
0025
fffb
0000
ffa2
fff5
ff8d
ffd1
002e
002a
fffc
ff79
0043
ff86
ff44
001c
ffbe
ffec
feeb
fff6
ffbb
ffda
ffe3
001f
ffc7
ff8a
fff5
ffab
ff4e
ff36
ffbd
ffee
ff84
ffbe
004e
ffb1
fffa
ff47
ff9f
0023
ff82
ffd8
ff75
fff1
ff7b
ffd8
fff5
ffaa
ff91
ff96
ff8d
ff9a
0019
0002
0036
ffbb
0050
0036
fff0
ffe7
0034
0020
ffa7
ffa2
ff8e
ffae
0025
ffab
fffc
ffd8
ffb3
ff3e
0045
ffb2
0009
ffe2
ffe9
ffb1
001e
ffaa
ff7e
ff5f
ff2d
ff6a
ff77
fffa
ffae
fff6
0029
ffea
0006
ffda
ffd2
ffd7
0057
ff6b
0001
fffd
000b
003f
ff94
ff84
0052
fff7
ffe3
ffff
ffda
fff4
ffb5
ff96
ffd8
ffb9
ffb3
ffeb
ff7f
ffa6
0015
ffa5
0000
ffeb
000d
ff7e
ffef
ff46
ff9d
ffe0
0011
ffff
ffc5
ffc7
ffc3
ffd2
002a
ff88
0033
ffa5
000b
fff9
ff80
ffef
ff8c
ff64
ffa6
ffcc
009b
ff9f
000e
ff91
ffb2
0015
ffd1
0065
ff60
ffa5
ffb6
ffba
0009
ffc3
ffbb
005a
ff7b
ffab
000e
ff9f
ff7a
000f
0053
fffe
0059
ffa9
ffdb
ffb8
ff5c
0060
ff34
ff21
fff7
ffc9
0084
0006
ff95
001d
0039
ff86
ff9d
0000
002f
0040
0010
ff91
ff6f
ff3c
ffc4
ff66
ffc4
0006
ffec
ff87
0017
ffe0
fff1
0000
ff70
ffac
ffaf
ffd0
ff4d
ffd6
ffa1
ff1b
001a
ffb9
ffcb
ffec
008d
ffc5
ff91
ffb0
0085
ffbc
001c
000d
003e
ff94
ff92
ffdf
0081
ffd5
ff6b
ffa1
fffc
ff63
ffb3
ffe2
ffdf
ff6b
ff56
ffeb
ff9b
ff70
ff81
ffb4
ff4d
fff4
ff9e
0046
ffca
ff40
ffa7
ff17
ffce
ffd2
ff8d
ffed
ffa7
001e
001f
002c
0002
0007
ffa9
fffc
ff94
ffd8
0035
0031
0003
ff80
004a
ff8d
ff4b
0023
ffc5
fff3
fef2
fffd
ffc2
ffe1
ffea
0026
ffce
ff91
fffc
ffb2
ff55
ff3d
ffc4
fff5
ff8b
ffc5
0055
ffb8
0001
ff4e
ffa6
002a
ff89
ffdf
ff7c
fff8
ff82
ffdf
fffc
ffb1
ff98
ff9d
ff94
ffa1
0020
0009
003d
ffc2
0057
003d
fff7
ffee
003b
0027
ffae
ffa9
ff95
ffb5
002c
ffb2
0003
ffdf
ffba
ff45
004c
ffb9
0010
ffe9
fff0
ffb8
0025
ffb1
ff85
ff66
ff34
ff71
ff7e
0001
ffb5
fffd
0030
fff1
000d
ffe1
ffd9
ffde
005e
ff72
0008
0004
0012
0046
ff9b
ff8b
0059
fffe
ffea
0006
ffe1
fffb
ffbc
ff9d
ffdf
ffc0
ffba
fff2
ff86
ffad
001c
ffac
0007
fff2
0014
ff85
fff6
ff4d
ffa4
ffe7
0018
0006
ffcc
ffce
ffca
ffd9
0031
ff8f
003a
ffac
0012
0000
ff87
fff6
ff93
ff6b
ffad
ffd3
00a2
ffa6
0015
ff98
ffb9
001c
ffd8
006c
ff67
ffac
ffbd
ffc1
0010
ffca
ffc2
0061
ff82
ffb2
0015
ffa6
ff81
0016
005a
0005
0060
ffb0
ffe2
ffbf
ff63
0067
ff3b
ff28
fffe
ffd0
008b
000d
ff9c
0024
0040
ff8d
ffa4
0007
0036
0047
0017
ff98
ff76
ff43
ffcb
ff6d
ffcb
000d
fff3
ff8e
001e
ffe7
fff8
0007
ff77
ffb3
ffb6
ffd7
ff54
ffdd
ffa8
ff22
0021
ffc0
ffd2
fff3
0094
ffcc
ff98
ffb7
008c
ffc3
0023
0014
0045
ff9b
ff99
ffe6
0088
ffdc
ff72
ffa8
0003
ff6a
ffba
ffe9
ffe6
ff72
ff5d
fff2
ffa2
ff77
ff88
ffbb
ff54
fffb
ffa5
004d
ffd1
ff47
ffae
ff1e
ffd5
ffd9
ff94
fff4
ffae
0025
0026
0033
0009
000e
ffb0
0003
ff9b
ffdf
003c
0038
000a
ff87
0051
ff94
ff52
002a
ffcc
fffa
fef9
0004
ffc9
ffe8
fff1
002d
ffd5
ff98
0003
ffb9
ff5c
ff44
ffcb
fffc
ff92
ffcc
005c
ffbf
0008
ff55
ffad
0031
ff90
ffe6
ff83
ffff
ff89
ffe6
0003
ffb8
ff9f
ffa4
ff9b
ffa8
0027
0010
0044
ffc9
005e
0044
fffe
fff5
0042
002e
ffb5
ffb0
ff9c
ffbc
0033
ffb9
000a
ffe6
ffc1
ff4c
0053
ffc0
0017
fff0
fff7
ffbf
002c
ffb8
ff8c
ff6d
ff3b
ff78
ff85
0008
ffbc
0004
0037
fff8
0014
ffe8
ffe0
ffe5
0065
ff79
000f
000b
0019
004d
ffa2
ff92
0060
0005
fff1
000d
ffe8
0002
ffc3
ffa4
ffe6
ffc7
ffc1
fff9
ff8d
ffb4
0023
ffb3
000e
fff9
001b
ff8c
fffd
ff54
ffab
ffee
001f
000d
ffd3
ffd5
ffd1
ffe0
0038
ff96
0041
ffb3
0019
0007
ff8e
fffd
ff9a
ff72
ffb4
ffda
00a9
ffad
001c
ff9f
ffc0
0023
ffdf
0073
ff6e
ffb3
ffc4
ffc8
0017
ffd1
ffc9
0068
ff89
ffb9
001c
ffad
ff88
001d
0061
000c
0067
ffb7
ffe9
ffc6
ff6a
006e
ff42
ff2f
0005
ffd7
0092
0014
ffa3
002b
0047
ff94
ffab
000e
003d
004e
001e
ff9f
ff7d
ff4a
ffd2
ff74
ffd2
0014
fffa
ff95
0025
ffee
ffff
000e
ff7e
ffba
ffbd
ffde
ff5b
ffe4
ffaf
ff29
0028
ffc7
ffd9
fffa
009b
ffd3
ff9f
ffbe
0093
ffca
002a
001b
004c
ffa2
ffa0
ffed
008f
ffe3
ff79
ffaf
000a
ff71
ffc1
fff0
ffed
ff79
ff64
fff9
ffa9
ff7e
ff8f
ffc2
ff5b
0002
ffac
0054
ffd8
ff4e
ffb5
ff25
ffdc
ffe0
ff9b
fffb
ffb5
002c
002d
003a
0010
0015
ffb7
000a
ffa2
ffe6
0043
003f
0011
ff8e
0058
ff9b
ff59
0031
ffd3
0001
ff00
000b
ffd0
ffef
fff8
0034
ffdc
ff9f
000a
ffc0
ff63
ff4b
ffd2
0003
ff99
ffd3
0063
ffc6
000f
ff5c
ffb4
0038
ff97
ffed
ff8a
0006
ff90
ffed
000a
ffbf
ffa6
ffab
ffa2
ffaf
002e
0017
004b
ffd0
0065
004b
0005
fffc
0049
0035
ffbc
ffb7
ffa3
ffc3
003a
ffc0
0011
ffed
ffc8
ff53
005a
ffc7
001e
fff7
fffe
ffc6
0033
ffbf
ff93
ff74
ff42
ff7f
ff8c
000f
ffc3
000b
003e
ffff
001b
ffef
ffe7
ffec
006c
ff80
0016
0012
0020
0054
ffa9
ff99
0067
000c
fff8
0014
ffef
0009
ffca
ffab
ffed
ffce
ffc8
0000
ff94
ffbb
002a
ffba
0015
0000
0022
ff93
0004
ff5b
ffb2
fff5
0026
0014
ffda
ffdc
ffd8
ffe7
003f
ff9d
0048
ffba
0020
000e
ff95
0004
ffa1
ff79
ffbb
ffe1
00b0
ffb4
0023
ffa6
ffc7
002a
ffe6
007a
ff75
ffba
ffcb
ffcf
001e
ffd8
ffd0
006f
ff90
ffc0
0023
ffb4
ff8f
0024
0068
0013
006e
ffbe
fff0
ffcd
ff71
0075
ff49
ff36
000c
ffde
0099
001b
ffaa
0032
004e
ff9b
ffb2
0015
0044
0055
0025
ffa6
ff84
ff51
ffd9
ff7b
ffd9
001b
0001
ff9c
002c
fff5
0006
0015
ff85
ffc1
ffc4
ffe5
ff62
ffeb
ffb6
ff30
002f
ffce
ffe0
0001
00a2
ffda
ffa6
ffc5
009a
ffd1
0031
0022
0053
ffa9
ffa7
fff4
0096
ffea
ff80
ffb6
0011
ff78
ffc8
fff7
fff4
ff80
ff6b
0000
ffb0
ff85
ff96
ffc9
ff62
0009
ffb3
005b
ffdf
ff55
ffbc
ff2c
ffe3
ffe7
ffa2
0002
ffbc
0033
0034
0041
0017
001c
ffbe
0011
ffa9
ffed
004a
0046
0018
ff95
005f
ffa2
ff60
0038
ffda
0008
ff07
0012
ffd7
fff6
ffff
003b
ffe3
ffa6
0011
ffc7
ff6a
ff52
ffd9
000a
ffa0
ffda
006a
ffcd
0016
ff63
ffbb
003f
ff9e
fff4
ff91
000d
ff97
fff4
0011
ffc6
ffad
ffb2
ffa9
ffb6
0035
001e
0052
ffd7
006c
0052
000c
0003
0050
003c
ffc3
ffbe
ffaa
ffca
0041
ffc7
0018
fff4
ffcf
ff5a
0061
ffce
0025
fffe
0005
ffcd
003a
ffc6
ff9a
ff7b
ff49
ff86
ff93
0016
ffca
0012
0045
0006
0022
fff6
ffee
fff3
0073
ff87
001d
0019
0027
005b
ffb0
ffa0
006e
0013
ffff
001b
fff6
0010
ffd1
ffb2
fff4
ffd5
ffcf
0007
ff9b
ffc2
0031
ffc1
001c
0007
0029
ff9a
000b
ff62
ffb9
fffc
002d
001b
ffe1
ffe3
ffdf
ffee
0046
ffa4
004f
ffc1
0027
0015
ff9c
000b
ffa8
ff80
ffc2
ffe8
00b7
ffbb
002a
ffad
ffce
0031
ffed
0081
ff7c
ffc1
ffd2
ffd6
0025
ffdf
ffd7
0076
ff97
ffc7
002a
ffbb
ff96
002b
006f
001a
0075
ffc5
fff7
ffd4
ff78
007c
ff50
ff3d
0013
ffe5
00a0
0022
ffb1
0039
0055
ffa2
ffb9
001c
004b
005c
002c
ffad
ff8b
ff58
ffe0
ff82
ffe0
0022
0008
ffa3
0033
fffc
000d
001c
ff8c
ffc8
ffcb
ffec
ff69
fff2
ffbd
ff37
0036
ffd5
ffe7
0008
00a9
ffc1
ff8d
ffac
0081
ffb8
0018
0009
003a
ff90
ff8e
ffdb
007d
ffd1
ff67
ff9d
fff8
ff5f
ffaf
ffde
ffdb
ff67
ff52
ffe7
ff97
ff6c
ff7d
ffb0
ff49
fff0
ff9a
0042
ffc6
ff3c
ffa3
ff13
ffca
ffce
ff89
ffe9
ffa3
001a
001b
0028
fffe
0003
ffa5
fff8
ff90
ffd4
0031
002d
ffff
ff7c
0046
ff89
ff47
001f
ffc1
ffef
feee
fff9
ffbe
ffdd
ffe6
0022
ffca
ff8d
fff8
ffae
ff51
ff39
ffc0
fff1
ff87
ffc1
0051
ffb4
fffd
ff4a
ffa2
0026
ff85
ffdb
ff78
fff4
ff7e
ffdb
fff8
ffad
ff94
ff99
ff90
ff9d
001c
0005
0039
ffbe
0053
0039
fff3
ffea
0037
0023
ffaa
ffa5
ff91
ffb1
0028
ffae
ffff
ffdb
ffb6
ff41
0048
ffb5
000c
ffe5
ffec
ffb4
0021
ffad
ff81
ff62
ff30
ff6d
ff7a
fffd
ffb1
fff9
002c
ffed
0009
ffdd
ffd5
ffda
005a
ff6e
0004
0000
000e
0042
ff97
ff87
0055
fffa
ffe6
0002
ffdd
fff7
ffb8
ff99
ffdb
ffbc
ffb6
ffee
ff82
ffa9
0018
ffa8
0003
ffee
0010
ff81
fff2
ff49
ffa0
ffe3
0014
0002
ffc8
ffca
ffc6
ffd5
002d
ff8b
0036
ffa8
000e
fffc
ff83
fff2
ff8f
ff67
ffa9
ffcf
009e
ffa2
0011
ff94
ffb5
0018
ffd4
0068
ff63
ffa8
ffb9
ffbd
000c
ffc6
ffbe
005d
ff7e
ffae
0011
ffa2
ff7d
0012
0056
0001
005c
ffac
ffde
ffbb
ff5f
0063
ff37
ff24
fffa
ffcc
0087
0009
ff98
0020
003c
ff89
ffa0
0003
0032
0043
0013
ff94
ff72
ff3f
ffc7
ff69
ffc7
0009
ffef
ff8a
001a
ffe3
fff4
0003
ff73
ffaf
ffb2
ffd3
ff50
ffd9
ffa4
ff1e
001d
ffbc
ffce
ffef
0090
ffc8
ff94
ffb3
0088
ffbf
001f
0010
0041
ff97
ff95
ffe2
0084
ffd8
ff6e
ffa4
ffff
ff66
ffb6
ffe5
ffe2
ff6e
ff59
ffee
ff9e
ff73
ff84
ffb7
ff50
fff7
ffa1
0049
ffcd
ff43
ffaa
ff1a
ffd1
ffd5
ff90
fff0
ffaa
0021
0022
002f
0005
000a
ffac
ffff
ff97
ffdb
0038
0034
0006
ff83
004d
ff90
ff4e
0026
ffc8
fff6
fef5
0000
ffc5
ffe4
ffed
0029
ffd1
ff94
ffff
ffb5
ff58
ff40
ffc7
fff8
ff8e
ffc8
0058
ffbb
0004
ff51
ffa9
002d
ff8c
ffe2
ff7f
fffb
ff85
ffe2
ffff
ffb4
ff9b
ffa0
ff97
ffa4
0023
000c
0040
ffc5
005a
0040
fffa
fff1
003e
002a
ffb1
ffac
ff98
ffb8
002f
ffb5
0006
ffe2
ffbd
ff48
004f
ffbc
0013
ffec
fff3
ffbb
0028
ffb4
ff88
ff69
ff37
ff74
ff81
0004
ffb8
0000
0033
fff4
0010
ffe4
ffdc
ffe1
0061
ff75
000b
0007
0015
0049
ff9e
ff8e
005c
0001
ffed
0009
ffe4
fffe
ffbf
ffa0
ffe2
ffc3
ffbd
fff5
ff89
ffb0
001f
ffaf
000a
fff5
0017
ff88
fff9
ff50
ffa7
ffea
001b
0009
ffcf
ffd1
ffcd
ffdc
0034
ff92
003d
ffaf
0015
0003
ff8a
fff9
ff96
ff6e
ffb0
ffd6
00a5
ffa9
0018
ff9b
ffbc
001f
ffdb
006f
ff6a
ffaf
ffc0
ffc4
0013
ffcd
ffc5
0064
ff85
ffb5
0018
ffa9
ff84
0019
005d
0008
0063
ffb3
ffe5
ffc2
ff66
006a
ff3e
ff2b
0001
ffd3
008e
0010
ff9f
0027
0043
ff90
ffa7
000a
0039
004a
001a
ff9b
ff79
ff46
ffce
ff70
ffce
0010
fff6
ff91
0021
ffea
fffb
000a
ff7a
ffb6
ffb9
ffda
ff57
ffe0
ffab
ff25
0024
ffc3
ffd5
fff6
0097
ffcf
ff9b
ffba
008f
ffc6
0026
0017
0048
ff9e
ff9c
ffe9
008b
ffdf
ff75
ffab
0006
ff6d
ffbd
ffec
ffe9
ff75
ff60
fff5
ffa5
ff7a
ff8b
ffbe
ff57
fffe
ffa8
0050
ffd4
ff4a
ffb1
ff21
ffd8
ffdc
ff97
fff7
ffb1
0028
0029
0036
000c
0011
ffb3
0006
ff9e
ffe2
003f
003b
000d
ff8a
0054
ff97
ff55
002d
ffcf
fffd
fefc
0007
ffcc
ffeb
fff4
0030
ffd8
ff9b
0006
ffbc
ff5f
ff47
ffce
ffff
ff95
ffcf
005f
ffc2
000b
ff58
ffb0
0034
ff93
ffe9
ff86
0002
ff8c
ffe9
0006
ffbb
ffa2
ffa7
ff9e
ffab
002a
0013
0047
ffcc
0061
0047
0001
fff8
0045
0031
ffb8
ffb3
ff9f
ffbf
0036
ffbc
000d
ffe9
ffc4
ff4f
0056
ffc3
001a
fff3
fffa
ffc2
002f
ffbb
ff8f
ff70
ff3e
ff7b
ff88
000b
ffbf
0007
003a
fffb
0017
ffeb
ffe3
ffe8
0068
ff7c
0012
000e
001c
0050
ffa5
ff95
0063
0008
fff4
0010
ffeb
0005
ffc6
ffa7
ffe9
ffca
ffc4
fffc
ff90
ffb7
0026
ffb6
0011
fffc
001e
ff8f
0000
ff57
ffae
fff1
0022
0010
ffd6
ffd8
ffd4
ffe3
003b
ff99
0044
ffb6
001c
000a
ff91
0000
ff9d
ff75
ffb7
ffdd
00ac
ffb0
001f
ffa2
ffc3
0026
ffe2
0076
ff71
ffb6
ffc7
ffcb
001a
ffd4
ffcc
006b
ff8c
ffbc
001f
ffb0
ff8b
0020
0064
000f
006a
ffba
ffec
ffc9
ff6d
0071
ff45
ff32
0008
ffda
0095
0017
ffa6
002e
004a
ff97
ffae
0011
0040
0051
0021
ffa2
ff80
ff4d
ffd5
ff77
ffd5
0017
fffd
ff98
0028
fff1
0002
0011
ff81
ffbd
ffc0
ffe1
ff5e
ffe7
ffb2
ff2c
002b
ffca
ffdc
fffd
009e
ffd6
ffa2
ffc1
0096
ffcd
002d
001e
004f
ffa5
ffa3
fff0
0092
ffe6
ff7c
ffb2
000d
ff74
ffc4
fff3
fff0
ff7c
ff67
fffc
ffac
ff81
ff92
ffc5
ff5e
0005
ffaf
0057
ffdb
ff51
ffb8
ff28
ffdf
ffe3
ff9e
fffe
ffb8
002f
0030
003d
0013
0018
ffba
000d
ffa5
ffe9
0046
0042
0014
ff91
005b
ff9e
ff5c
0034
ffd6
0004
ff03
000e
ffd3
fff2
fffb
0037
ffdf
ffa2
000d
ffc3
ff66
ff4e
ffd5
0006
ff9c
ffd6
0066
ffc9
0012
ff5f
ffb7
003b
ff9a
fff0
ff8d
0009
ff93
fff0
000d
ffc2
ffa9
ffae
ffa5
ffb2
0031
001a
004e
ffd3
0068
004e
0008
ffff
004c
0038
ffbf
ffba
ffa6
ffc6
003d
ffc3
0014
fff0
ffcb
ff56
005d
ffca
0021
fffa
0001
ffc9
0036
ffc2
ff96
ff77
ff45
ff82
ff8f
0012
ffc6
000e
0041
0002
001e
fff2
ffea
ffef
006f
ff83
0019
0015
0023
0057
ffac
ff9c
006a
000f
fffb
0017
fff2
000c
ffcd
ffae
fff0
ffd1
ffcb
0003
ff97
ffbe
002d
ffbd
0018
0003
0025
ff96
0007
ff5e
ffb5
fff8
0029
0017
ffdd
ffdf
ffdb
ffea
0042
ffa0
004b
ffbd
0023
0011
ff98
0007
ffa4
ff7c
ffbe
ffe4
00b3
ffb7
0026
ffa9
ffca
002d
ffe9
007d
ff78
ffbd
ffce
ffd2
0021
ffdb
ffd3
0072
ff93
ffc3
0026
ffb7
ff92
0027
006b
0016
0071
ffc1
fff3
ffd0
ff74
0078
ff4c
ff39
000f
ffe1
009c
001e
ffad
0035
0051
ff9e
ffb5
0018
0047
0058
0028
ffa9
ff87
ff54
ffdc
ff7e
ffdc
001e
0004
ff9f
002f
fff8
0009
0018
ff88
ffc4
ffc7
ffe8
ff65
ffee
ffb9
ff33
0032
ffd1
ffe3
0004
00a5
ffbd
ff89
ffa8
007d
ffb4
0014
0005
0036
ff8c
ff8a
ffd7
0079
ffcd
ff63
ff99
fff4
ff5b
ffab
ffda
ffd7
ff63
ff4e
ffe3
ff93
ff68
ff79
ffac
ff45
ffec
ff96
003e
ffc2
ff38
ff9f
ff0f
ffc6
ffca
ff85
ffe5
ff9f
0016
0017
0024
fffa
ffff
ffa1
fff4
ff8c
ffd0
002d
0029
fffb
ff78
0042
ff85
ff43
001b
ffbd
ffeb
feea
fff5
ffba
ffd9
ffe2
001e
ffc6
ff89
fff4
ffaa
ff4d
ff35
ffbc
ffed
ff83
ffbd
004d
ffb0
fff9
ff46
ff9e
0022
ff81
ffd7
ff74
fff0
ff7a
ffd7
fff4
ffa9
ff90
ff95
ff8c
ff99
0018
0001
0035
ffba
004f
0035
ffef
ffe6
0033
001f
ffa6
ffa1
ff8d
ffad
0024
ffaa
fffb
ffd7
ffb2
ff3d
0044
ffb1
0008
ffe1
ffe8
ffb0
001d
ffa9
ff7d
ff5e
ff2c
ff69
ff76
fff9
ffad
fff5
0028
ffe9
0005
ffd9
ffd1
ffd6
0056
ff6a
0000
fffc
000a
003e
ff93
ff83
0051
fff6
ffe2
fffe
ffd9
fff3
ffb4
ff95
ffd7
ffb8
ffb2
ffea
ff7e
ffa5
0014
ffa4
ffff
ffea
000c
ff7d
ffee
ff45
ff9c
ffdf
0010
fffe
ffc4
ffc6
ffc2
ffd1
0029
ff87
0032
ffa4
000a
fff8
ff7f
ffee
ff8b
ff63
ffa5
ffcb
009a
ff9e
000d
ff90
ffb1
0014
ffd0
0064
ff5f
ffa4
ffb5
ffb9
0008
ffc2
ffba
0059
ff7a
ffaa
000d
ff9e
ff79
000e
0052
fffd
0058
ffa8
ffda
ffb7
ff5b
005f
ff33
ff20
fff6
ffc8
0083
0005
ff94
001c
0038
ff85
ff9c
ffff
002e
003f
000f
ff90
ff6e
ff3b
ffc3
ff65
ffc3
0005
ffeb
ff86
0016
ffdf
fff0
ffff
ff6f
ffab
ffae
ffcf
ff4c
ffd5
ffa0
ff1a
0019
ffb8
ffca
ffeb
008c
ffc4
ff90
ffaf
0084
ffbb
001b
000c
003d
ff93
ff91
ffde
0080
ffd4
ff6a
ffa0
fffb
ff62
ffb2
ffe1
ffde
ff6a
ff55
ffea
ff9a
ff6f
ff80
ffb3
ff4c
fff3
ff9d
0045
ffc9
ff3f
ffa6
ff16
ffcd
ffd1
ff8c
ffec
ffa6
001d
001e
002b
0001
0006
ffa8
fffb
ff93
ffd7
0034
0030
0002
ff7f
0049
ff8c
ff4a
0022
ffc4
fff2
fef1
fffc
ffc1
ffe0
ffe9
0025
ffcd
ff90
fffb
ffb1
ff54
ff3c
ffc3
fff4
ff8a
ffc4
0054
ffb7
0000
ff4d
ffa5
0029
ff88
ffde
ff7b
fff7
ff81
ffde
fffb
ffb0
ff97
ff9c
ff93
ffa0
001f
0008
003c
ffc1
0056
003c
fff6
ffed
003a
0026
ffad
ffa8
ff94
ffb4
002b
ffb1
0002
ffde
ffb9
ff44
004b
ffb8
000f
ffe8
ffef
ffb7
0024
ffb0
ff84
ff65
ff33
ff70
ff7d
0000
ffb4
fffc
002f
fff0
000c
ffe0
ffd8
ffdd
005d
ff71
0007
0003
0011
0045
ff9a
ff8a
0058
fffd
ffe9
0005
ffe0
fffa
ffbb
ff9c
ffde
ffbf
ffb9
fff1
ff85
ffac
001b
ffab
0006
fff1
0013
ff84
fff5
ff4c
ffa3
ffe6
0017
0005
ffcb
ffcd
ffc9
ffd8
0030
ff8e
0039
ffab
0011
ffff
ff86
fff5
ff92
ff6a
ffac
ffd2
00a1
ffa5
0014
ff97
ffb8
001b
ffd7
006b
ff66
ffab
ffbc
ffc0
000f
ffc9
ffc1
0060
ff81
ffb1
0014
ffa5
ff80
0015
0059
0004
005f
ffaf
ffe1
ffbe
ff62
0066
ff3a
ff27
fffd
ffcf
008a
000c
ff9b
0023
003f
ff8c
ffa3
0006
0035
0046
0016
ff97
ff75
ff42
ffca
ff6c
ffca
000c
fff2
ff8d
001d
ffe6
fff7
0006
ff76
ffb2
ffb5
ffd6
ff53
ffdc
ffa7
ff21
0020
ffbf
ffd1
fff2
0093
ffcb
ff97
ffb6
008b
ffc2
0022
0013
0044
ff9a
ff98
ffe5
0087
ffdb
ff71
ffa7
0002
ff69
ffb9
ffe8
ffe5
ff71
ff5c
fff1
ffa1
ff76
ff87
ffba
ff53
fffa
ffa4
004c
ffd0
ff46
ffad
ff1d
ffd4
ffd8
ff93
fff3
ffad
0024
0025
0032
0008
000d
ffaf
0002
ff9a
ffde
003b
0037
0009
ff86
0050
ff93
ff51
0029
ffcb
fff9
fef8
0003
ffc8
ffe7
fff0
002c
ffd4
ff97
0002
ffb8
ff5b
ff43
ffca
fffb
ff91
ffcb
005b
ffbe
0007
ff54
ffac
0030
ff8f
ffe5
ff82
fffe
ff88
ffe5
0002
ffb7
ff9e
ffa3
ff9a
ffa7
0026
000f
0043
ffc8
005d
0043
fffd
fff4
0041
002d
ffb4
ffaf
ff9b
ffbb
0032
ffb8
0009
ffe5
ffc0
ff4b
0052
ffbf
0016
ffef
fff6
ffbe
002b
ffb7
ff8b
ff6c
ff3a
ff77
ff84
0007
ffbb
0003
0036
fff7
0013
ffe7
ffdf
ffe4
0064
ff78
000e
000a
0018
004c
ffa1
ff91
005f
0004
fff0
000c
ffe7
0001
ffc2
ffa3
ffe5
ffc6
ffc0
fff8
ff8c
ffb3
0022
ffb2
000d
fff8
001a
ff8b
fffc
ff53
ffaa
ffed
001e
000c
ffd2
ffd4
ffd0
ffdf
0037
ff95
0040
ffb2
0018
0006
ff8d
fffc
ff99
ff71
ffb3
ffd9
00a8
ffac
001b
ff9e
ffbf
0022
ffde
0072
ff6d
ffb2
ffc3
ffc7
0016
ffd0
ffc8
0067
ff88
ffb8
001b
ffac
ff87
001c
0060
000b
0066
ffb6
ffe8
ffc5
ff69
006d
ff41
ff2e
0004
ffd6
0091
0013
ffa2
002a
0046
ff93
ffaa
000d
003c
004d
001d
ff9e
ff7c
ff49
ffd1
ff73
ffd1
0013
fff9
ff94
0024
ffed
fffe
000d
ff7d
ffb9
ffbc
ffdd
ff5a
ffe3
ffae
ff28
0027
ffc6
ffd8
fff9
009a
ffd2
ff9e
ffbd
0092
ffc9
0029
001a
004b
ffa1
ff9f
ffec
008e
ffe2
ff78
ffae
0009
ff70
ffc0
ffef
ffec
ff78
ff63
fff8
ffa8
ff7d
ff8e
ffc1
ff5a
0001
ffab
0053
ffd7
ff4d
ffb4
ff24
ffdb
ffdf
ff9a
fffa
ffb4
002b
002c
0039
000f
0014
ffb6
0009
ffa1
ffe5
0042
003e
0010
ff8d
0057
ff9a
ff58
0030
ffd2
0000
feff
000a
ffcf
ffee
fff7
0033
ffdb
ff9e
0009
ffbf
ff62
ff4a
ffd1
0002
ff98
ffd2
0062
ffc5
000e
ff5b
ffb3
0037
ff96
ffec
ff89
0005
ff8f
ffec
0009
ffbe
ffa5
ffaa
ffa1
ffae
002d
0016
004a
ffcf
0064
004a
0004
fffb
0048
0034
ffbb
ffb6
ffa2
ffc2
0039
ffbf
0010
ffec
ffc7
ff52
0059
ffc6
001d
fff6
fffd
ffc5
0032
ffbe
ff92
ff73
ff41
ff7e
ff8b
000e
ffc2
000a
003d
fffe
001a
ffee
ffe6
ffeb
006b
ff7f
0015
0011
001f
0053
ffa8
ff98
0066
000b
fff7
0013
ffee
0008
ffc9
ffaa
ffec
ffcd
ffc7
ffff
ff93
ffba
0029
ffb9
0014
ffff
0021
ff92
0003
ff5a
ffb1
fff4
0025
0013
ffd9
ffdb
ffd7
ffe6
003e
ff9c
0047
ffb9
001f
000d
ff94
0003
ffa0
ff78
ffba
ffe0
00af
ffb3
0022
ffa5
ffc6
0029
ffe5
0079
ff74
ffb9
ffca
ffce
001d
ffd7
ffcf
006e
ff8f
ffbf
0022
ffb3
ff8e
0023
0067
0012
006d
ffbd
ffef
ffcc
ff70
0074
ff48
ff35
000b
ffdd
0098
001a
ffa9
0031
004d
ff9a
ffb1
0014
0043
0054
0024
ffa5
ff83
ff50
ffd8
ff7a
ffd8
001a
0000
ff9b
002b
fff4
0005
0014
ff84
ffc0
ffc3
ffe4
ff61
ffea
ffb5
ff2f
002e
ffcd
ffdf
0000
00a1
ffd9
ffa5
ffc4
0099
ffd0
0030
0021
0052
ffa8
ffa6
fff3
0095
ffe9
ff7f
ffb5
0010
ff77
ffc7
fff6
fff3
ff7f
ff6a
ffff
ffaf
ff84
ff95
ffc8
ff61
0008
ffb2
005a
ffde
ff54
ffbb
ff2b
ffe2
ffe6
ffa1
0001
ffbb
0032
0033
0040
0016
001b
ffbd
0010
ffa8
ffec
0049
0045
0017
ff94
005e
ffa1
ff5f
0037
ffd9
0007
ff06
0011
ffd6
fff5
fffe
003a
ffe2
ffa5
0010
ffc6
ff69
ff51
ffd8
0009
ff9f
ffd9
0069
ffcc
0015
ff62
ffba
003e
ff9d
fff3
ff90
000c
ff96
fff3
0010
ffc5
ffac
ffb1
ffa8
ffb5
0034
001d
0051
ffd6
006b
0051
000b
0002
004f
003b
ffc2
ffbd
ffa9
ffc9
0040
ffc6
0017
fff3
ffce
ff59
0060
ffcd
0024
fffd
0004
ffcc
0039
ffc5
ff99
ff7a
ff48
ff85
ff92
0015
ffc9
0011
0044
0005
0021
fff5
ffed
fff2
0072
ff86
001c
0018
0026
005a
ffaf
ff9f
006d
0012
fffe
001a
fff5
000f
ffd0
ffb1
fff3
ffd4
ffce
0006
ff9a
ffc1
0030
ffc0
001b
0006
0028
ff99
000a
ff61
ffb8
fffb
002c
001a
ffe0
ffe2
ffde
ffed
0045
ffa3
004e
ffc0
0026
0014
ff9b
000a
ffa7
ff7f
ffc1
ffe7
00b6
ffba
0029
ffac
ffcd
0030
ffec
0080
ff7b
ffc0
ffd1
ffd5
0024
ffde
ffd6
0075
ff96
ffc6
0029
ffba
ff95
002a
006e
0019
0074
ffc4
fff6
ffd3
ff77
007b
ff4f
ff3c
0012
ffe4
009f
0021
ffb0
0038
0054
ffa1
ffb8
001b
004a
005b
002b
ffac
ff8a
ff57
ffdf
ff81
ffdf
0021
0007
ffa2
0032
fffb
000c
001b
ff8b
ffc7
ffca
ffeb
ff68
fff1
ffbc
ff36
0035
ffd4
ffe6
0007
00a8
ffc0
ff8c
ffab
0080
ffb7
0017
0008
0039
ff8f
ff8d
ffda
007c
ffd0
ff66
ff9c
fff7
ff5e
ffae
ffdd
ffda
ff66
ff51
ffe6
ff96
ff6b
ff7c
ffaf
ff48
ffef
ff99
0041
ffc5
ff3b
ffa2
ff12
ffc9
ffcd
ff88
ffe8
ffa2
0019
001a
0027
fffd
0002
ffa4
fff7
ff8f
ffd3
0030
002c
fffe
ff7b
0045
ff88
ff46
001e
ffc0
ffee
feed
fff8
ffbd
ffdc
ffe5
0021
ffc9
ff8c
fff7
ffad
ff50
ff38
ffbf
fff0
ff86
ffc0
0050
ffb3
fffc
ff49
ffa1
0025
ff84
ffda
ff77
fff3
ff7d
ffda
fff7
ffac
ff93
ff98
ff8f
ff9c
001b
0004
0038
ffbd
0052
0038
fff2
ffe9
0036
0022
ffa9
ffa4
ff90
ffb0
0027
ffad
fffe
ffda
ffb5
ff40
0047
ffb4
000b
ffe4
ffeb
ffb3
0020
ffac
ff80
ff61
ff2f
ff6c
ff79
fffc
ffb0
fff8
002b
ffec
0008
ffdc
ffd4
ffd9
0059
ff6d
0003
ffff
000d
0041
ff96
ff86
0054
fff9
ffe5
0001
ffdc
fff6
ffb7
ff98
ffda
ffbb
ffb5
ffed
ff81
ffa8
0017
ffa7
0002
ffed
000f
ff80
fff1
ff48
ff9f
ffe2
0013
0001
ffc7
ffc9
ffc5
ffd4
002c
ff8a
0035
ffa7
000d
fffb
ff82
fff1
ff8e
ff66
ffa8
ffce
009d
ffa1
0010
ff93
ffb4
0017
ffd3
0067
ff62
ffa7
ffb8
ffbc
000b
ffc5
ffbd
005c
ff7d
ffad
0010
ffa1
ff7c
0011
0055
0000
005b
ffab
ffdd
ffba
ff5e
0062
ff36
ff23
fff9
ffcb
0086
0008
ff97
001f
003b
ff88
ff9f
0002
0031
0042
0012
ff93
ff71
ff3e
ffc6
ff68
ffc6
0008
ffee
ff89
0019
ffe2
fff3
0002
ff72
ffae
ffb1
ffd2
ff4f
ffd8
ffa3
ff1d
001c
ffbb
ffcd
ffee
008f
ffc7
ff93
ffb2
0087
ffbe
001e
000f
0040
ff96
ff94
ffe1
0083
ffd7
ff6d
ffa3
fffe
ff65
ffb5
ffe4
ffe1
ff6d
ff58
ffed
ff9d
ff72
ff83
ffb6
ff4f
fff6
ffa0
0048
ffcc
ff42
ffa9
ff19
ffd0
ffd4
ff8f
ffef
ffa9
0020
0021
002e
0004
0009
ffab
fffe
ff96
ffda
0037
0033
0005
ff82
004c
ff8f
ff4d
0025
ffc7
fff5
fef4
ffff
ffc4
ffe3
ffec
0028
ffd0
ff93
fffe
ffb4
ff57
ff3f
ffc6
fff7
ff8d
ffc7
0057
ffba
0003
ff50
ffa8
002c
ff8b
ffe1
ff7e
fffa
ff84
ffe1
fffe
ffb3
ff9a
ff9f
ff96
ffa3
0022
000b
003f
ffc4
0059
003f
fff9
fff0
003d
0029
ffb0
ffab
ff97
ffb7
002e
ffb4
0005
ffe1
ffbc
ff47
004e
ffbb
0012
ffeb
fff2
ffba
0027
ffb3
ff87
ff68
ff36
ff73
ff80
0003
ffb7
ffff
0032
fff3
000f
ffe3
ffdb
ffe0
0060
ff74
000a
0006
0014
0048
ff9d
ff8d
005b
0000
ffec
0008
ffe3
fffd
ffbe
ff9f
ffe1
ffc2
ffbc
fff4
ff88
ffaf
001e
ffae
0009
fff4
0016
ff87
fff8
ff4f
ffa6
ffe9
001a
0008
ffce
ffd0
ffcc
ffdb
0033
ff91
003c
ffae
0014
0002
ff89
fff8
ff95
ff6d
ffaf
ffd5
00a4
ffa8
0017
ff9a
ffbb
001e
ffda
006e
ff69
ffae
ffbf
ffc3
0012
ffcc
ffc4
0063
ff84
ffb4
0017
ffa8
ff83
0018
005c
0007
0062
ffb2
ffe4
ffc1
ff65
0069
ff3d
ff2a
0000
ffd2
008d
000f
ff9e
0026
0042
ff8f
ffa6
0009
0038
0049
0019
ff9a
ff78
ff45
ffcd
ff6f
ffcd
000f
fff5
ff90
0020
ffe9
fffa
0009
ff79
ffb5
ffb8
ffd9
ff56
ffdf
ffaa
ff24
0023
ffc2
ffd4
fff5
0096
ffce
ff9a
ffb9
008e
ffc5
0025
0016
0047
ff9d
ff9b
ffe8
008a
ffde
ff74
ffaa
0005
ff6c
ffbc
ffeb
ffe8
ff74
ff5f
fff4
ffa4
ff79
ff8a
ffbd
ff56
fffd
ffa7
004f
ffd3
ff49
ffb0
ff20
ffd7
ffdb
ff96
fff6
ffb0
0027
0028
0035
000b
0010
ffb2
0005
ff9d
ffe1
003e
003a
000c
ff89
0053
ff96
ff54
002c
ffce
fffc
fefb
0006
ffcb
ffea
fff3
002f
ffd7
ff9a
0005
ffbb
ff5e
ff46
ffcd
fffe
ff94
ffce
005e
ffc1
000a
ff57
ffaf
0033
ff92
ffe8
ff85
0001
ff8b
ffe8
0005
ffba
ffa1
ffa6
ff9d
ffaa
0029
0012
0046
ffcb
0060
0046
0000
fff7
0044
0030
ffb7
ffb2
ff9e
ffbe
0035
ffbb
000c
ffe8
ffc3
ff4e
0055
ffc2
0019
fff2
fff9
ffc1
002e
ffba
ff8e
ff6f
ff3d
ff7a
ff87
000a
ffbe
0006
0039
fffa
0016
ffea
ffe2
ffe7
0067
ff7b
0011
000d
001b
004f
ffa4
ff94
0062
0007
fff3
000f
ffea
0004
ffc5
ffa6
ffe8
ffc9
ffc3
fffb
ff8f
ffb6
0025
ffb5
0010
fffb
001d
ff8e
ffff
ff56
ffad
fff0
0021
000f
ffd5
ffd7
ffd3
ffe2
003a
ff98
0043
ffb5
001b
0009
ff90
ffff
ff9c
ff74
ffb6
ffdc
00ab
ffaf
001e
ffa1
ffc2
0025
ffe1
0075
ff70
ffb5
ffc6
ffca
0019
ffd3
ffcb
006a
ff8b
ffbb
001e
ffaf
ff8a
001f
0063
000e
0069
ffb9
ffeb
ffc8
ff6c
0070
ff44
ff31
0007
ffd9
0094
0016
ffa5
002d
0049
ff96
ffad
0010
003f
0050
0020
ffa1
ff7f
ff4c
ffd4
ff76
ffd4
0016
fffc
ff97
0027
fff0
0001
0010
ff80
ffbc
ffbf
ffe0
ff5d
ffe6
ffb1
ff2b
002a
ffc9
ffdb
fffc
009d
ffd5
ffa1
ffc0
0095
ffcc
002c
001d
004e
ffa4
ffa2
ffef
0091
ffe5
ff7b
ffb1
000c
ff73
ffc3
fff2
ffef
ff7b
ff66
fffb
ffab
ff80
ff91
ffc4
ff5d
0004
ffae
0056
ffda
ff50
ffb7
ff27
ffde
ffe2
ff9d
fffd
ffb7
002e
002f
003c
0012
0017
ffb9
000c
ffa4
ffe8
0045
0041
0013
ff90
005a
ff9d
ff5b
0033
ffd5
0003
ff02
000d
ffd2
fff1
fffa
0036
ffde
ffa1
000c
ffc2
ff65
ff4d
ffd4
0005
ff9b
ffd5
0065
ffc8
0011
ff5e
ffb6
003a
ff99
ffef
ff8c
0008
ff92
ffef
000c
ffc1
ffa8
ffad
ffa4
ffb1
0030
0019
004d
ffd2
0067
004d
0007
fffe
004b
0037
ffbe
ffb9
ffa5
ffc5
003c
ffc2
0013
ffef
ffca
ff55
005c
ffc9
0020
fff9
0000
ffc8
0035
ffc1
ff95
ff76
ff44
ff81
ff8e
0011
ffc5
000d
0040
0001
001d
fff1
ffe9
ffee
006e
ff82
0018
0014
0022
0056
ffab
ff9b
0069
000e
fffa
0016
fff1
000b
ffcc
ffad
ffef
ffd0
ffca
0002
ff96
ffbd
002c
ffbc
0017
0002
0024
ff95
0006
ff5d
ffb4
fff7
0028
0016
ffdc
ffde
ffda
ffe9
0041
ff9f
004a
ffbc
0022
0010
ff97
0006
ffa3
ff7b
ffbd
ffe3
00b2
ffb6
0025
ffa8
ffc9
002c
ffe8
007c
ff77
ffbc
ffcd
ffd1
0020
ffda
ffd2
0071
ff92
ffc2
0025
ffb6
ff91
0026
006a
0015
0070
ffc0
fff2
ffcf
ff73
0077
ff4b
ff38
000e
ffe0
009b
001d
ffac
0034
0050
ff9d
ffb4
0017
0046
0057
0027
ffa8
ff86
ff53
ffdb
ff7d
ffdb
001d
0003
ff9e
002e
fff7
0008
0017
ff87
ffc3
ffc6
ffe7
ff64
ffed
ffb8
ff32
0031
ffd0
ffe2
0003
00a4
ffdc
ffa8
ffc7
009c
ffd3
0033
0024
0055
ffab
ffa9
fff6
0098
ffec
ff82
ffb8
0013
ff7a
ffca
fff9
fff6
ff82
ff6d
0002
ffb2
ff87
ff98
ffcb
ff64
000b
ffb5
005d
ffe1
ff57
ffbe
ff2e
ffe5
ffe9
ffa4
0004
ffbe
0035
0036
0043
0019
001e
ffc0
0013
ffab
ffef
004c
0048
001a
ff97
0061
ffa4
ff62
003a
ffdc
000a
ff09
0014
ffd9
fff8
0001
003d
ffe5
ffa8
0013
ffc9
ff6c
ff54
ffdb
000c
ffa2
ffdc
006c
ffcf
0018
ff65
ffbd
0041
ffa0
fff6
ff93
000f
ff99
fff6
0013
ffc8
ffaf
ffb4
ffab
ffb8
0037
0020
0054
ffd9
006e
0054
000e
0005
0052
003e
ffc5
ffc0
ffac
ffcc
0043
ffc9
001a
fff6
ffd1
ff5c
0063
ffd0
0027
0000
0007
ffcf
003c
ffc8
ff9c
ff7d
ff4b
ff88
ff95
0018
ffcc
0014
0047
0008
0024
fff8
fff0
fff5
0075
ff89
001f
001b
0029
005d
ffb2
ffa2
0070
0015
0001
001d
fff8
0012
ffd3
ffb4
fff6
ffd7
ffd1
0009
ff9d
ffc4
0033
ffc3
001e
0009
002b
ff9c
000d
ff64
ffbb
fffe
002f
001d
ffe3
ffe5
ffe1
fff0
0048
ffa6
0051
ffc3
0029
0017
ff9e
000d
ffaa
ff82
ffc4
ffea
00b9
ffbd
002c
ffaf
ffd0
0033
ffef
0083
ff7e
ffc3
ffd4
ffd8
0027
ffe1
ffd9
0078
ff99
ffc9
002c
ffbd
ff98
002d
0071
001c
0077
ffc7
fff9
ffd6
ff7a
007e
ff52
ff3f
0015
ffe7
00a2
0024
ffb3
003b
0057
ffa4
ffbb
001e
004d
005e
002e
ffaf
ff8d
ff5a
ffe2
ff84
ffe2
0024
000a
ffa5
0035
fffe
000f
001e
ff8e
ffca
ffcd
ffee
ff6b
fff4
ffbf
ff39
0038
ffd7
ffe9
000a
00ab
ffc3
ff8f
ffae
0083
ffba
001a
000b
003c
ff92
ff90
ffdd
007f
ffd3
ff69
ff9f
fffa
ff61
ffb1
ffe0
ffdd
ff69
ff54
ffe9
ff99
ff6e
ff7f
ffb2
ff4b
fff2
ff9c
0044
ffc8
ff3e
ffa5
ff15
ffcc
ffd0
ff8b
ffeb
ffa5
001c
001d
002a
0000
0005
ffa7
fffa
ff92
ffd6
0033
002f
0001
ff7e
0048
ff8b
ff49
0021
ffc3
fff1
fef0
fffb
ffc0
ffdf
ffe8
0024
ffcc
ff8f
fffa
ffb0
ff53
ff3b
ffc2
fff3
ff89
ffc3
0053
ffb6
ffff
ff4c
ffa4
0028
ff87
ffdd
ff7a
fff6
ff80
ffdd
fffa
ffaf
ff96
ff9b
ff92
ff9f
001e
0007
003b
ffc0
0055
003b
fff5
ffec
0039
0025
ffac
ffa7
ff93
ffb3
002a
ffb0
0001
ffdd
ffb8
ff43
004a
ffb7
000e
ffe7
ffee
ffb6
0023
ffaf
ff83
ff64
ff32
ff6f
ff7c
ffff
ffb3
fffb
002e
ffef
000b
ffdf
ffd7
ffdc
005c
ff70
0006
0002
0010
0044
ff99
ff89
0057
fffc
ffe8
0004
ffdf
fff9
ffba
ff9b
ffdd
ffbe
ffb8
fff0
ff84
ffab
001a
ffaa
0005
fff0
0012
ff83
fff4
ff4b
ffa2
ffe5
0016
0004
ffca
ffcc
ffc8
ffd7
002f
ff8d
0038
ffaa
0010
fffe
ff85
fff4
ff91
ff69
ffab
ffd1
00a0
ffa4
0013
ff96
ffb7
001a
ffd6
006a
ff65
ffaa
ffbb
ffbf
000e
ffc8
ffc0
005f
ff80
ffb0
0013
ffa4
ff7f
0014
0058
0003
005e
ffae
ffe0
ffbd
ff61
0065
ff39
ff26
fffc
ffce
0089
000b
ff9a
0022
003e
ff8b
ffa2
0005
0034
0045
0015
ff96
ff74
ff41
ffc9
ff6b
ffc9
000b
fff1
ff8c
001c
ffe5
fff6
0005
ff75
ffb1
ffb4
ffd5
ff52
ffdb
ffa6
ff20
001f
ffbe
ffd0
fff1
0092
ffca
ff96
ffb5
008a
ffc1
0021
0012
0043
ff99
ff97
ffe4
0086
ffda
ff70
ffa6
0001
ff68
ffb8
ffe7
ffe4
ff70
ff5b
fff0
ffa0
ff75
ff86
ffb9
ff52
fff9
ffa3
004b
ffcf
ff45
ffac
ff1c
ffd3
ffd7
ff92
fff2
ffac
0023
0024
0031
0007
000c
ffae
0001
ff99
ffdd
003a
0036
0008
ff85
004f
ff92
ff50
0028
ffca
fff8
fef7
0002
ffc7
ffe6
ffef
002b
ffd3
ff96
0001
ffb7
ff5a
ff42
ffc9
fffa
ff90
ffca
005a
ffbd
0006
ff53
ffab
002f
ff8e
ffe4
ff81
fffd
ff87
ffe4
0001
ffb6
ff9d
ffa2
ff99
ffa6
0025
000e
0042
ffc7
005c
0042
fffc
fff3
0040
002c
ffb3
ffae
ff9a
ffba
0031
ffb7
0008
ffe4
ffbf
ff4a
0051
ffbe
0015
ffee
fff5
ffbd
002a
ffb6
ff8a
ff6b
ff39
ff76
ff83
0006
ffba
0002
0035
fff6
0012
ffe6
ffde
ffe3
0063
ff77
000d
0009
0017
004b
ffa0
ff90
005e
0003
ffef
000b
ffe6
0000
ffc1
ffa2
ffe4
ffc5
ffbf
fff7
ff8b
ffb2
0021
ffb1
000c
fff7
0019
ff8a
fffb
ff52
ffa9
ffec
001d
000b
ffd1
ffd3
ffcf
ffde
0036
ff94
003f
ffb1
0017
0005
ff8c
fffb
ff98
ff70
ffb2
ffd8
00a7
ffab
001a
ff9d
ffbe
0021
ffdd
0071
ff6c
ffb1
ffc2
ffc6
0015
ffcf
ffc7
0066
ff87
ffb7
001a
ffab
ff86
001b
005f
000a
0065
ffb5
ffe7
ffc4
ff68
006c
ff40
ff2d
0003
ffd5
0090
0012
ffa1
0029
0045
ff92
ffa9
000c
003b
004c
001c
ff9d
ff7b
ff48
ffd0
ff72
ffd0
0012
fff8
ff93
0023
ffec
fffd
000c
ff7c
ffb8
ffbb
ffdc
ff59
ffe2
ffad
ff27
0026
ffc5
ffd7
fff8
0099
ffd1
ff9d
ffbc
0091
ffc8
0028
0019
004a
ffa0
ff9e
ffeb
008d
ffe1
ff77
ffad
0008
ff6f
ffbf
ffee
ffeb
ff77
ff62
fff7
ffa7
ff7c
ff8d
ffc0
ff59
0000
ffaa
0052
ffd6
ff4c
ffb3
ff23
ffda
ffde
ff99
fff9
ffb3
002a
002b
0038
000e
0013
ffb5
0008
ffa0
ffe4
0041
003d
000f
ff8c
0056
ff99
ff57
002f
ffd1
ffff
fefe
0009
ffce
ffed
fff6
0032
ffda
ff9d
0008
ffbe
ff61
ff49
ffd0
0001
ff97
ffd1
0061
ffc4
000d
ff5a
ffb2
0036
ff95
ffeb
ff88
0004
ff8e
ffeb
0008
ffbd
ffa4
ffa9
ffa0
ffad
002c
0015
0049
ffce
0063
0049
0003
fffa
0047
0033
ffba
ffb5
ffa1
ffc1
0038
ffbe
000f
ffeb
ffc6
ff51
0058
ffc5
001c
fff5
fffc
ffc4
0031
ffbd
ff91
ff72
ff40
ff7d
ff8a
000d
ffc1
0009
003c
fffd
0019
ffed
ffe5
ffea
006a
ff7e
0014
0010
001e
0052
ffa7
ff97
0065
000a
fff6
0012
ffed
0007
ffc8
ffa9
ffeb
ffcc
ffc6
fffe
ff92
ffb9
0028
ffb8
0013
fffe
0020
ff91
0002
ff59
ffb0
fff3
0024
0012
ffd8
ffda
ffd6
ffe5
003d
ff9b
0046
ffb8
001e
000c
ff93
0002
ff9f
ff77
ffb9
ffdf
00ae
ffb2
0021
ffa4
ffc5
0028
ffe4
0078
ff73
ffb8
ffc9
ffcd
001c
ffd6
ffce
006d
ff8e
ffbe
0021
ffb2
ff8d
0022
0066
0011
006c
ffbc
ffee
ffcb
ff6f
0073
ff47
ff34
000a
ffdc
0097
0019
ffa8
0030
004c
ff99
ffb0
0013
0042
0053
0023
ffa4
ff82
ff4f
ffd7
ff79
ffd7
0019
ffff
ff9a
002a
fff3
0004
0013
ff83
ffbf
ffc2
ffe3
ff60
ffe9
ffb4
ff2e
002d
ffcc
ffde
ffff
00a0
ffd8
ffa4
ffc3
0098
ffcf
002f
0020
0051
ffa7
ffa5
fff2
0094
ffe8
ff7e
ffb4
000f
ff76
ffc6
fff5
fff2
ff7e
ff69
fffe
ffae
ff83
ff94
ffc7
ff60
0007
ffb1
0059
ffdd
ff53
ffba
ff2a
ffe1
ffe5
ffa0
0000
ffba
0031
0032
003f
0015
001a
ffbc
000f
ffa7
ffeb
0048
0044
0016
ff93
005d
ffa0
ff5e
0036
ffd8
0006
ff05
0010
ffd5
fff4
fffd
0039
ffe1
ffa4
000f
ffc5
ff68
ff50
ffd7
0008
ff9e
ffd8
0068
ffcb
0014
ff61
ffb9
003d
ff9c
fff2
ff8f
000b
ff95
fff2
000f
ffc4
ffab
ffb0
ffa7
ffb4
0033
001c
0050
ffd5
006a
0050
000a
0001
004e
003a
ffc1
ffbc
ffa8
ffc8
003f
ffc5
0016
fff2
ffcd
ff58
005f
ffcc
0023
fffc
0003
ffcb
0038
ffc4
ff98
ff79
ff47
ff84
ff91
0014
ffc8
0010
0043
0004
0020
fff4
ffec
fff1
0071
ff85
001b
0017
0025
0059
ffae
ff9e
006c
0011
fffd
0019
fff4
000e
ffcf
ffb0
fff2
ffd3
ffcd
0005
ff99
ffc0
002f
ffbf
001a
0005
0027
ff98
0009
ff60
ffb7
fffa
002b
0019
ffdf
ffe1
ffdd
ffec
0044
ffa2
004d
ffbf
0025
0013
ff9a
0009
ffa6
ff7e
ffc0
ffe6
00b5
ffb9
0028
ffab
ffcc
002f
ffeb
007f
ff7a
ffbf
ffd0
ffd4
0023
ffdd
ffd5
0074
ff95
ffc5
0028
ffb9
ff94
0029
006d
0018
0073
ffc3
fff5
ffd2
ff76
007a
ff4e
ff3b
0011
ffe3
009e
0020
ffaf
0037
0053
ffa0
ffb7
001a
0049
005a
002a
ffab
ff89
ff56
ffde
ff80
ffde
0020
0006
ffa1
0031
fffa
000b
001a
ff8a
ffc6
ffc9
ffea
ff67
fff0
ffbb
ff35
0034
ffd3
ffe5
0006
00a7
ffbf
ff8b
ffaa
007f
ffb6
0016
0007
0038
ff8e
ff8c
ffd9
007b
ffcf
ff65
ff9b
fff6
ff5d
ffad
ffdc
ffd9
ff65
ff50
ffe5
ff95
ff6a
ff7b
ffae
ff47
ffee
ff98
0040
ffc4
ff3a
ffa1
ff11
ffc8
ffcc
ff87
ffe7
ffa1
0018
0019
0026
fffc
0001
ffa3
fff6
ff8e
ffd2
002f
002b
fffd
ff7a
0044
ff87
ff45
001d
ffbf
ffed
feec
fff7
ffbc
ffdb
ffe4
0020
ffc8
ff8b
fff6
ffac
ff4f
ff37
ffbe
ffef
ff85
ffbf
004f
ffb2
fffb
ff48
ffa0
0024
ff83
ffd9
ff76
fff2
ff7c
ffd9
fff6
ffab
ff92
ff97
ff8e
ff9b
001a
0003
0037
ffbc
0051
0037
fff1
ffe8
0035
0021
ffa8
ffa3
ff8f
ffaf
0026
ffac
fffd
ffd9
ffb4
ff3f
0046
ffb3
000a
ffe3
ffea
ffb2
001f
ffab
ff7f
ff60
ff2e
ff6b
ff78
fffb
ffaf
fff7
002a
ffeb
0007
ffdb
ffd3
ffd8
0058
ff6c
0002
fffe
000c
0040
ff95
ff85
0053
fff8
ffe4
0000
ffdb
fff5
ffb6
ff97
ffd9
ffba
ffb4
ffec
ff80
ffa7
0016
ffa6
0001
ffec
000e
ff7f
fff0
ff47
ff9e
ffe1
0012
0000
ffc6
ffc8
ffc4
ffd3
002b
ff89
0034
ffa6
000c
fffa
ff81
fff0
ff8d
ff65
ffa7
ffcd
009c
ffa0
000f
ff92
ffb3
0016
ffd2
0066
ff61
ffa6
ffb7
ffbb
000a
ffc4
ffbc
005b
ff7c
ffac
000f
ffa0
ff7b
0010
0054
ffff
005a
ffaa
ffdc
ffb9
ff5d
0061
ff35
ff22
fff8
ffca
0085
0007
ff96
001e
003a
ff87
ff9e
0001
0030
0041
0011
ff92
ff70
ff3d
ffc5
ff67
ffc5
0007
ffed
ff88
0018
ffe1
fff2
0001
ff71
ffad
ffb0
ffd1
ff4e
ffd7
ffa2
ff1c
001b
ffba
ffcc
ffed
008e
ffc6
ff92
ffb1
0086
ffbd
001d
000e
003f
ff95
ff93
ffe0
0082
ffd6
ff6c
ffa2
fffd
ff64
ffb4
ffe3
ffe0
ff6c
ff57
ffec
ff9c
ff71
ff82
ffb5
ff4e
fff5
ff9f
0047
ffcb
ff41
ffa8
ff18
ffcf
ffd3
ff8e
ffee
ffa8
001f
0020
002d
0003
0008
ffaa
fffd
ff95
ffd9
0036
0032
0004
ff81
004b
ff8e
ff4c
0024
ffc6
fff4
fef3
fffe
ffc3
ffe2
ffeb
0027
ffcf
ff92
fffd
ffb3
ff56
ff3e
ffc5
fff6
ff8c
ffc6
0056
ffb9
0002
ff4f
ffa7
002b
ff8a
ffe0
ff7d
fff9
ff83
ffe0
fffd
ffb2
ff99
ff9e
ff95
ffa2
0021
000a
003e
ffc3
0058
003e
fff8
ffef
003c
0028
ffaf
ffaa
ff96
ffb6
002d
ffb3
0004
ffe0
ffbb
ff46
004d
ffba
0011
ffea
fff1
ffb9
0026
ffb2
ff86
ff67
ff35
ff72
ff7f
0002
ffb6
fffe
0031
fff2
000e
ffe2
ffda
ffdf
005f
ff73
0009
0005
0013
0047
ff9c
ff8c
005a
ffff
ffeb
0007
ffe2
fffc
ffbd
ff9e
ffe0
ffc1
ffbb
fff3
ff87
ffae
001d
ffad
0008
fff3
0015
ff86
fff7
ff4e
ffa5
ffe8
0019
0007
ffcd
ffcf
ffcb
ffda
0032
ff90
003b
ffad
0013
0001
ff88
fff7
ff94
ff6c
ffae
ffd4
00a3
ffa7
0016
ff99
ffba
001d
ffd9
006d
ff68
ffad
ffbe
ffc2
0011
ffcb
ffc3
0062
ff83
ffb3
0016
ffa7
ff82
0017
005b
0006
0061
ffb1
ffe3
ffc0
ff64
0068
ff3c
ff29
ffff
ffd1
008c
000e
ff9d
0025
0041
ff8e
ffa5
0008
0037
0048
0018
ff99
ff77
ff44
ffcc
ff6e
ffcc
000e
fff4
ff8f
001f
ffe8
fff9
0008
ff78
ffb4
ffb7
ffd8
ff55
ffde
ffa9
ff23
0022
ffc1
ffd3
fff4
0095
ffcd
ff99
ffb8
008d
ffc4
0024
0015
0046
ff9c
ff9a
ffe7
0089
ffdd
ff73
ffa9
0004
ff6b
ffbb
ffea
ffe7
ff73
ff5e
fff3
ffa3
ff78
ff89
ffbc
ff55
fffc
ffa6
004e
ffd2
ff48
ffaf
ff1f
ffd6
ffda
ff95
fff5
ffaf
0026
0027
0034
000a
000f
ffb1
0004
ff9c
ffe0
003d
0039
000b
ff88
0052
ff95
ff53
002b
ffcd
fffb
fefa
0005
ffca
ffe9
fff2
002e
ffd6
ff99
0004
ffba
ff5d
ff45
ffcc
fffd
ff93
ffcd
005d
ffc0
0009
ff56
ffae
0032
ff91
ffe7
ff84
0000
ff8a
ffe7
0004
ffb9
ffa0
ffa5
ff9c
ffa9
0028
0011
0045
ffca
005f
0045
ffff
fff6
0043
002f
ffb6
ffb1
ff9d
ffbd
0034
ffba
000b
ffe7
ffc2
ff4d
0054
ffc1
0018
fff1
fff8
ffc0
002d
ffb9
ff8d
ff6e
ff3c
ff79
ff86
0009
ffbd
0005
0038
fff9
0015
ffe9
ffe1
ffe6
0066
ff7a
0010
000c
001a
004e
ffa3
ff93
0061
0006
fff2
000e
ffe9
0003
ffc4
ffa5
ffe7
ffc8
ffc2
fffa
ff8e
ffb5
0024
ffb4
000f
fffa
001c
ff8d
fffe
ff55
ffac
ffef
0020
000e
ffd4
ffd6
ffd2
ffe1
0039
ff97
0042
ffb4
001a
0008
ff8f
fffe
ff9b
ff73
ffb5
ffdb
00aa
ffae
001d
ffa0
ffc1
0024
ffe0
0074
ff6f
ffb4
ffc5
ffc9
0018
ffd2
ffca
0069
ff8a
ffba
001d
ffae
ff89
001e
0062
000d
0068
ffb8
ffea
ffc7
ff6b
006f
ff43
ff30
0006
ffd8
0093
0015
ffa4
002c
0048
ff95
ffac
000f
003e
004f
001f
ffa0
ff7e
ff4b
ffd3
ff75
ffd3
0015
fffb
ff96
0026
ffef
0000
000f
ff7f
ffbb
ffbe
ffdf
ff5c
ffe5
ffb0
ff2a
0029
ffc8
ffda
fffb
009c
ffd4
ffa0
ffbf
0094
ffcb
002b
001c
004d
ffa3
ffa1
ffee
0090
ffe4
ff7a
ffb0
000b
ff72
ffc2
fff1
ffee
ff7a
ff65
fffa
ffaa
ff7f
ff90
ffc3
ff5c
0003
ffad
0055
ffd9
ff4f
ffb6
ff26
ffdd
ffe1
ff9c
fffc
ffb6
002d
002e
003b
0011
0016
ffb8
000b
ffa3
ffe7
0044
0040
0012
ff8f
0059
ff9c
ff5a
0032
ffd4
0002
ff01
000c
ffd1
fff0
fff9
0035
ffdd
ffa0
000b
ffc1
ff64
ff4c
ffd3
0004
ff9a
ffd4
0064
ffc7
0010
ff5d
ffb5
0039
ff98
ffee
ff8b
0007
ff91
ffee
000b
ffc0
ffa7
ffac
ffa3
ffb0
002f
0018
004c
ffd1
0066
004c
0006
fffd
004a
0036
ffbd
ffb8
ffa4
ffc4
003b
ffc1
0012
ffee
ffc9
ff54
005b
ffc8
001f
fff8
ffff
ffc7
0034
ffc0
ff94
ff75
ff43
ff80
ff8d
0010
ffc4
000c
003f
0000
001c
fff0
ffe8
ffed
006d
ff81
0017
0013
0021
0055
ffaa
ff9a
0068
000d
fff9
0015
fff0
000a
ffcb
ffac
ffee
ffcf
ffc9
0001
ff95
ffbc
002b
ffbb
0016
0001
0023
ff94
0005
ff5c
ffb3
fff6
0027
0015
ffdb
ffdd
ffd9
ffe8
0040
ff9e
0049
ffbb
0021
000f
ff96
0005
ffa2
ff7a
ffbc
ffe2
00b1
ffb5
0024
ffa7
ffc8
002b
ffe7
007b
ff76
ffbb
ffcc
ffd0
001f
ffd9
ffd1
0070
ff91
ffc1
0024
ffb5
ff90
0025
0069
0014
006f
ffbf
fff1
ffce
ff72
0076
ff4a
ff37
000d
ffdf
009a
001c
ffab
0033
004f
ff9c
ffb3
0016
0045
0056
0026
ffa7
ff85
ff52
ffda
ff7c
ffda
001c
0002
ff9d
002d
fff6
0007
0016
ff86
ffc2
ffc5
ffe6
ff63
ffec
ffb7
ff31
0030
ffcf
ffe1
0002
00a3
ffdb
ffa7
ffc6
009b
ffd2
0032
0023
0054
ffaa
ffa8
fff5
0097
ffeb
ff81
ffb7
0012
ff79
ffc9
fff8
fff5
ff81
ff6c
0001
ffb1
ff86
ff97
ffca
ff63
000a
ffb4
005c
ffe0
ff56
ffbd
ff2d
ffe4
ffe8
ffa3
0003
ffbd
0034
0035
0042
0018
001d
ffbf
0012
ffaa
ffee
004b
0047
0019
ff96
0060
ffa3
ff61
0039
ffdb
0009
ff08
0013
ffd8
fff7
0000
003c
ffe4
ffa7
0012
ffc8
ff6b
ff53
ffda
000b
ffa1
ffdb
006b
ffce
0017
ff64
ffbc
0040
ff9f
fff5
ff92
000e
ff98
fff5
0012
ffc7
ffae
ffb3
ffaa
ffb7
0036
001f
0053
ffd8
006d
0053
000d
0004
0051
003d
ffc4
ffbf
ffab
ffcb
0042
ffc8
0019
fff5
ffd0
ff5b
0062
ffcf
0026
ffff
0006
ffce
003b
ffc7
ff9b
ff7c
ff4a
ff87
ff94
0017
ffcb
0013
0046
0007
0023
fff7
ffef
fff4
0074
ff88
001e
001a
0028
005c
ffb1
ffa1
006f
0014
0000
001c
fff7
0011
ffd2
ffb3
fff5
ffd6
ffd0
0008
ff9c
ffc3
0032
ffc2
001d
0008
002a
ff9b
000c
ff63
ffba
fffd
002e
001c
ffe2
ffe4
ffe0
ffef
0047
ffa5
0050
ffc2
0028
0016
ff9d
000c
ffa9
ff81
ffc3
ffe9
00b8
ffbc
002b
ffae
ffcf
0032
ffee
0082
ff7d
ffc2
ffd3
ffd7
0026
ffe0
ffd8
0077
ff98
ffc8
002b
ffbc
ff97
002c
0070
001b
0076
ffc6
fff8
ffd5
ff79
007d
ff51
ff3e
0014
ffe6
00a1
0023
ffb2
003a
0056
ffa3
ffba
001d
004c
005d
002d
ffae
ff8c
ff59
ffe1
ff83
ffe1
0023
0009
ffa4
0034
fffd
000e
001d
ff8d
ffc9
ffcc
ffed
ff6a
fff3
ffbe
ff38
0037
ffd6
ffe8
0009
00aa
ffc2
ff8e
ffad
0082
ffb9
0019
000a
003b
ff91
ff8f
ffdc
007e
ffd2
ff68
ff9e
fff9
ff60
ffb0
ffdf
ffdc
ff68
ff53
ffe8
ff98
ff6d
ff7e
ffb1
ff4a
fff1
ff9b
0043
ffc7
ff3d
ffa4
ff14
ffcb
ffcf
ff8a
ffea
ffa4
001b
001c
0029
ffff
0004
ffa6
fff9
ff91
ffd5
0032
002e
0000
ff7d
0047
ff8a
ff48
0020
ffc2
fff0
feef
fffa
ffbf
ffde
ffe7
0023
ffcb
ff8e
fff9
ffaf
ff52
ff3a
ffc1
fff2
ff88
ffc2
0052
ffb5
fffe
ff4b
ffa3
0027
ff86
ffdc
ff79
fff5
ff7f
ffdc
fff9
ffae
ff95
ff9a
ff91
ff9e
001d
0006
003a
ffbf
0054
003a
fff4
ffeb
0038
0024
ffab
ffa6
ff92
ffb2
0029
ffaf
0000
ffdc
ffb7
ff42
0049
ffb6
000d
ffe6
ffed
ffb5
0022
ffae
ff82
ff63
ff31
ff6e
ff7b
fffe
ffb2
fffa
002d
ffee
000a
ffde
ffd6
ffdb
005b
ff6f
0005
0001
000f
0043
ff98
ff88
0056
fffb
ffe7
0003
ffde
fff8
ffb9
ff9a
ffdc
ffbd
ffb7
ffef
ff83
ffaa
0019
ffa9
0004
ffef
0011
ff82
fff3
ff4a
ffa1
ffe4
0015
0003
ffc9
ffcb
ffc7
ffd6
002e
ff8c
0037
ffa9
000f
fffd
ff84
fff3
ff90
ff68
ffaa
ffd0
009f
ffa3
0012
ff95
ffb6
0019
ffd5
0069
ff64
ffa9
ffba
ffbe
000d
ffc7
ffbf
005e
ff7f
ffaf
0012
ffa3
ff7e
0013
0057
0002
005d
ffad
ffdf
ffbc
ff60
0064
ff38
ff25
fffb
ffcd
0088
000a
ff99
0021
003d
ff8a
ffa1
0004
0033
0044
0014
ff95
ff73
ff40
ffc8
ff6a
ffc8
000a
fff0
ff8b
001b
ffe4
fff5
0004
ff74
ffb0
ffb3
ffd4
ff51
ffda
ffa5
ff1f
001e
ffbd
ffcf
fff0
0091
ffc9
ff95
ffb4
0089
ffc0
0020
0011
0042
ff98
ff96
ffe3
0085
ffd9
ff6f
ffa5
0000
ff67
ffb7
ffe6
ffe3
ff6f
ff5a
ffef
ff9f
ff74
ff85
ffb8
ff51
fff8
ffa2
004a
ffce
ff44
ffab
ff1b
ffd2
ffd6
ff91
fff1
ffab
0022
0023
0030
0006
000b
ffad
0000
ff98
ffdc
0039
0035
0007
ff84
004e
ff91
ff4f
0027
ffc9
fff7
fef6
0001
ffc6
ffe5
ffee
002a
ffd2
ff95
0000
ffb6
ff59
ff41
ffc8
fff9
ff8f
ffc9
0059
ffbc
0005
ff52
ffaa
002e
ff8d
ffe3
ff80
fffc
ff86
ffe3
0000
ffb5
ff9c
ffa1
ff98
ffa5
0024
000d
0041
ffc6
005b
0041
fffb
fff2
003f
002b
ffb2
ffad
ff99
ffb9
0030
ffb6
0007
ffe3
ffbe
ff49
0050
ffbd
0014
ffed
fff4
ffbc
0029
ffb5
ff89
ff6a
ff38
ff75
ff82
0005
ffb9
0001
0034
fff5
0011
ffe5
ffdd
ffe2
0062
ff76
000c
0008
0016
004a
ff9f
ff8f
005d
0002
ffee
000a
ffe5
ffff
ffc0
ffa1
ffe3
ffc4
ffbe
fff6
ff8a
ffb1
0020
ffb0
000b
fff6
0018
ff89
fffa
ff51
ffa8
ffeb
001c
000a
ffd0
ffd2
ffce
ffdd
0035
ff93
003e
ffb0
0016
0004
ff8b
fffa
ff97
ff6f
ffb1
ffd7
00a6
ffaa
0019
ff9c
ffbd
0020
ffdc
0070
ff6b
ffb0
ffc1
ffc5
0014
ffce
ffc6
0065
ff86
ffb6
0019
ffaa
ff85
001a
005e
0009
0064
ffb4
ffe6
ffc3
ff67
006b
ff3f
ff2c
0002
ffd4
008f
0011
ffa0
0028
0044
ff91
ffa8
000b
003a
004b
001b
ff9c
ff7a
ff47
ffcf
ff71
ffcf
0011
fff7
ff92
0022
ffeb
fffc
000b
ff7b
ffb7
ffba
ffdb
ff58
ffe1
ffac
ff26
0025
ffc4
ffd6
fff7
0098
ffd0
ff9c
ffbb
0090
ffc7
0027
0018
0049
ff9f
ff9d
ffea
008c
ffe0
ff76
ffac
0007
ff6e
ffbe
ffed
ffea
ff76
ff61
fff6
ffa6
ff7b
ff8c
ffbf
ff58
ffff
ffa9
0051
ffd5
ff4b
ffb2
ff22
ffd9
ffdd
ff98
fff8
ffb2
0029
002a
0037
000d
0012
ffb4
0007
ff9f
ffe3
0040
003c
000e
ff8b
0055
ff98
ff56
002e
ffd0
fffe
fefd
0008
ffcd
ffec
fff5
0031
ffd9
ff9c
0007
ffbd
ff60
ff48
ffcf
0000
ff96
ffd0
0060
ffc3
000c
ff59
ffb1
0035
ff94
ffea
ff87
0003
ff8d
ffea
0007
ffbc
ffa3
ffa8
ff9f
ffac
002b
0014
0048
ffcd
0062
0048
0002
fff9
0046
0032
ffb9
ffb4
ffa0
ffc0
0037
ffbd
000e
ffea
ffc5
ff50
0057
ffc4
001b
fff4
fffb
ffc3
0030
ffbc
ff90
ff71
ff3f
ff7c
ff89
000c
ffc0
0008
003b
fffc
0018
ffec
ffe4
ffe9
0069
ff7d
0013
000f
001d
0051
ffa6
ff96
0064
0009
fff5
0011
ffec
0006
ffc7
ffa8
ffea
ffcb
ffc5
fffd
ff91
ffb8
0027
ffb7
0012
fffd
001f
ff90
0001
ff58
ffaf
fff2
0023
0011
ffd7
ffd9
ffd5
ffe4
003c
ff9a
0045
ffb7
001d
000b
ff92
0001
ff9e
ff76
ffb8
ffde
00ad
ffb1
0020
ffa3
ffc4
0027
ffe3
0077
ff72
ffb7
ffc8
ffcc
001b
ffd5
ffcd
006c
ff8d
ffbd
0020
ffb1
ff8c
0021
0065
0010
006b
ffbb
ffed
ffca
ff6e
0072
ff46
ff33
0009
ffdb
0096
0018
ffa7
002f
004b
ff98
ffaf
0012
0041
0052
0022
ffa3
ff81
ff4e
ffd6
ff78
ffd6
0018
fffe
ff99
0029
fff2
0003
0012
ff82
ffbe
ffc1
ffe2
ff5f
ffe8
ffb3
ff2d
002c
ffcb
ffdd
fffe
009f
ffd7
ffa3
ffc2
0097
ffce
002e
001f
0050
ffa6
ffa4
fff1
0093
ffe7
ff7d
ffb3
000e
ff75
ffc5
fff4
fff1
ff7d
ff68
fffd
ffad
ff82
ff93
ffc6
ff5f
0006
ffb0
0058
ffdc
ff52
ffb9
ff29
ffe0
ffe4
ff9f
ffff
ffb9
0030
0031
003e
0014
0019
ffbb
000e
ffa6
ffea
0047
0043
0015
ff92
005c
ff9f
ff5d
0035
ffd7
0005
ff04
000f
ffd4
fff3
fffc
0038
ffe0
ffa3
000e
ffc4
ff67
ff4f
ffd6
0007
ff9d
ffd7
0067
ffca
0013
ff60
ffb8
003c
ff9b
fff1
ff8e
000a
ff94
fff1
000e
ffc3
ffaa
ffaf
ffa6
ffb3
0032
001b
004f
ffd4
0069
004f
0009
0000
004d
0039
ffc0
ffbb
ffa7
ffc7
003e
ffc4
0015
fff1
ffcc
ff57
005e
ffcb
0022
fffb
0002
ffca
0037
ffc3
ff97
ff78
ff46
ff83
ff90
0013
ffc7
000f
0042
0003
001f
fff3
ffeb
fff0
0070
ff84
001a
0016
0024
0058
ffad
ff9d
006b
0010
fffc
0018
fff3
000d
ffce
ffaf
fff1
ffd2
ffcc
0004
ff98
ffbf
002e
ffbe
0019
0004
0026
ff97
0008
ff5f
ffb6
fff9
002a
0018
ffde
ffe0
ffdc
ffeb
0043
ffa1
004c
ffbe
0024
0012
ff99
0008
ffa5
ff7d
ffbf
ffe5
00b4
ffb8
0027
ffaa
ffcb
002e
ffea
007e
ff79
ffbe
ffcf
ffd3
0022
ffdc
ffd4
0073
ff94
ffc4
0027
ffb8
ff93
0028
006c
0017
0072
ffc2
fff4
ffd1
ff75
0079
ff4d
ff3a
0010
ffe2
009d
001f
ffae
0036
0052
ff9f
ffb6
0019
0048
0059
0029
ffaa
ff88
ff55
ffdd
ff7f
ffdd
001f
0005
ffa0
0030
fff9
000a
0019
ff89
ffc5
ffc8
ffe9
ff66
ffef
ffba
ff34
0033
ffd2
ffe4
0005
00a6
ffbe
ff8a
ffa9
007e
ffb5
0015
0006
0037
ff8d
ff8b
ffd8
007a
ffce
ff64
ff9a
fff5
ff5c
ffac
ffdb
ffd8
ff64
ff4f
ffe4
ff94
ff69
ff7a
ffad
ff46
ffed
ff97
003f
ffc3
ff39
ffa0
ff10
ffc7
ffcb
ff86
ffe6
ffa0
0017
0018
0025
fffb
0000
ffa2
fff5
ff8d
ffd1
002e
002a
fffc
ff79
0043
ff86
ff44
001c
ffbe
ffec
feeb
fff6
ffbb
ffda
ffe3
001f
ffc7
ff8a
fff5
ffab
ff4e
ff36
ffbd
ffee
ff84
ffbe
004e
ffb1
fffa
ff47
ff9f
0023
ff82
ffd8
ff75
fff1
ff7b
ffd8
fff5
ffaa
ff91
ff96
ff8d
ff9a
0019
0002
0036
ffbb
0050
0036
fff0
ffe7
0034
0020
ffa7
ffa2
ff8e
ffae
0025
ffab
fffc
ffd8
ffb3
ff3e
0045
ffb2
0009
ffe2
ffe9
ffb1
001e
ffaa
ff7e
ff5f
ff2d
ff6a
ff77
fffa
ffae
fff6
0029
ffea
0006
ffda
ffd2
ffd7
0057
ff6b
0001
fffd
000b
003f
ff94
ff84
0052
fff7
ffe3
ffff
ffda
fff4
ffb5
ff96
ffd8
ffb9
ffb3
ffeb
ff7f
ffa6
0015
ffa5
0000
ffeb
000d
ff7e
ffef
ff46
ff9d
ffe0
0011
ffff
ffc5
ffc7
ffc3
ffd2
002a
ff88
0033
ffa5
000b
fff9
ff80
ffef
ff8c
ff64
ffa6
ffcc
009b
ff9f
000e
ff91
ffb2
0015
ffd1
0065
ff60
ffa5
ffb6
ffba
0009
ffc3
ffbb
005a
ff7b
ffab
000e
ff9f
ff7a
000f
0053
fffe
0059
ffa9
ffdb
ffb8
ff5c
0060
ff34
ff21
fff7
ffc9
0084
0006
ff95
001d
0039
ff86
ff9d
0000
002f
0040
0010
ff91
ff6f
ff3c
ffc4
ff66
ffc4
0006
ffec
ff87
0017
ffe0
fff1
0000
ff70
ffac
ffaf
ffd0
ff4d
ffd6
ffa1
ff1b
001a
ffb9
ffcb
ffec
008d
ffc5
ff91
ffb0
0085
ffbc
001c
000d
003e
ff94
ff92
ffdf
0081
ffd5
ff6b
ffa1
fffc
ff63
ffb3
ffe2
ffdf
ff6b
ff56
ffeb
ff9b
ff70
ff81
ffb4
ff4d
fff4
ff9e
0046
ffca
ff40
ffa7
ff17
ffce
ffd2
ff8d
ffed
ffa7
001e
001f
002c
0002
0007
ffa9
fffc
ff94
ffd8
0035
0031
0003
ff80
004a
ff8d
ff4b
0023
ffc5
fff3
fef2
fffd
ffc2
ffe1
ffea
0026
ffce
ff91
fffc
ffb2
ff55
ff3d
ffc4
fff5
ff8b
ffc5
0055
ffb8
0001
ff4e
ffa6
002a
ff89
ffdf
ff7c
fff8
ff82
ffdf
fffc
ffb1
ff98
ff9d
ff94
ffa1
0020
0009
003d
ffc2
0057
003d
fff7
ffee
003b
0027
ffae
ffa9
ff95
ffb5
002c
ffb2
0003
ffdf
ffba
ff45
004c
ffb9
0010
ffe9
fff0
ffb8
0025
ffb1
ff85
ff66
ff34
ff71
ff7e
0001
ffb5
fffd
0030
fff1
000d
ffe1
ffd9
ffde
005e
ff72
0008
0004
0012
0046
ff9b
ff8b
0059
fffe
ffea
0006
ffe1
fffb
ffbc
ff9d
ffdf
ffc0
ffba
fff2
ff86
ffad
001c
ffac
0007
fff2
0014
ff85
fff6
ff4d
ffa4
ffe7
0018
0006
ffcc
ffce
ffca
ffd9
0031
ff8f
003a
ffac
0012
0000
ff87
fff6
ff93
ff6b
ffad
ffd3
00a2
ffa6
0015
ff98
ffb9
001c
ffd8
006c
ff67
ffac
ffbd
ffc1
0010
ffca
ffc2
0061
ff82
ffb2
0015
ffa6
ff81
0016
005a
0005
0060
ffb0
ffe2
ffbf
ff63
0067
ff3b
ff28
fffe
ffd0
008b
000d
ff9c
0024
0040
ff8d
ffa4
0007
0036
0047
0017
ff98
ff76
ff43
ffcb
ff6d
ffcb
000d
fff3
ff8e
001e
ffe7
fff8
0007
ff77
ffb3
ffb6
ffd7
ff54
ffdd
ffa8
ff22
0021
ffc0
ffd2
fff3
0094
ffcc
ff98
ffb7
008c
ffc3
0023
0014
0045
ff9b
ff99
ffe6
0088
ffdc
ff72
ffa8
0003
ff6a
ffba
ffe9
ffe6
ff72
ff5d
fff2
ffa2
ff77
ff88
ffbb
ff54
fffb
ffa5
004d
ffd1
