fff5
ffa5
002c
0001
0057
ffa6
ffad
ff86
ffb8
0016
ffff
002d
003d
ff2e
ffdf
001a
0011
ffa4
0011
0013
ffcf
0056
001e
0035
0052
fff2
0049
fff2
ffc5
ffdb
fec1
0017
ffd0
ffa7
ff75
ffed
0013
ffe5
ffd2
ffcc
0006
fff1
ffda
ffbf
fff1
0097
ffb9
003e
0006
0035
0015
0007
ffed
ffe8
0048
001d
ff60
0003
ff86
ffbb
ffe6
ffec
ffb7
0007
ffeb
ffcc
ffb9
ff74
ffc3
ffad
fff7
ffdf
0015
ffe9
0005
002f
ffc2
0021
0018
ff8f
ffca
ffde
ffec
ff9f
ff74
0019
fff4
002d
ffec
0041
002a
ffe7
0002
0016
ffcc
ffe9
ffb3
ffc2
0035
003b
feee
ffb1
0025
ffe6
0009
0025
fffd
0048
ffe7
ffdd
ff80
0005
ffb5
ffe1
fffe
ffa7
ffbb
ff65
ffd0
002a
fff0
ffe6
001b
ff60
0006
ffc7
ffef
002c
002b
ffe6
ffc5
0023
ffb5
fff0
ff70
ffdc
fff6
ffc4
0008
ff91
fff5
ff72
ff7c
fff5
fffa
0017
ffc5
ffe4
fff2
0021
fffb
fffb
0003
000a
ffe0
003b
001c
fff5
fff4
ff87
0021
ffc9
001f
0042
0061
0005
0010
ffe2
ffc9
0023
0013
000d
ffb9
ffbc
000d
0040
ffab
0032
ffc0
0015
0006
ffa7
001f
0056
ff07
0023
ffb3
002c
0028
005e
ffd8
0024
0012
fff7
ffea
fff4
fffd
ff7e
0030
001d
ffd4
004f
003e
ff39
0052
002c
ffc7
0012
002f
ffe9
0013
ffb4
fff0
0001
0044
ffb4
ffd0
ffc9
ffcb
004c
0014
0022
fffc
ffb7
fff6
ffb4
001f
ffa8
002e
ffed
ffe8
0024
ffcd
ff90
ff9e
ff82
ffb6
0010
0048
0019
003c
ff8d
0016
ffa9
0034
ff74
ffea
fffe
ffe3
fff5
ffab
ffb8
ff71
0000
005e
004a
