0017
ffbd
ffbd
fff0
0038
0031
0007
ffd2
0015
0037
0002
fffe
0004
0011
002b
ffed
0013
ffc7
ffd9
fff5
001d
ffe1
fffc
ffdb
0029
fff4
fff3
ffeb
0032
fffd
ffc1
000e
fff4
0040
ffdc
004c
ffc6
0013
fffa
001e
002a
ffdd
0011
001e
001a
0020
002e
fff0
0013
ffee
fff3
000b
fffb
0010
0008
000f
ffc9
000c
ffe2
ffd2
000d
ffda
ffeb
0020
