0078
0011
000d
0031
00b9
fff0
0028
ffec
004e
0032
0080
0061
003a
003a
0038
005a
ffd1
0056
001a
002e
002c
ffd0
0060
000f
0032
ffeb
004f
ffe3
006b
0074
0060
0022
ffe1
0039
fff4
0062
fff9
ffdb
ffea
0011
0063
0035
0028
00a9
003e
0011
0000
0062
008b
006c
0008
00f9
ffcc
fffd
0057
ffc6
0035
ffcc
ff89
003c
0035
0023
ffdf
007e
005e
fffb
0000
0031
0054
0051
0055
005d
fff3
0058
ffd3
0017
001b
0050
0025
0027
0065
0054
0034
ffe3
0010
ffd4
ffed
fff9
ffff
0039
0038
003b
ffee
0018
0039
0022
0077
0014
005e
002a
0024
001c
0098
ffc8
002c
ffcc
0082
0059
0076
000a
0044
0002
0012
005a
0009
005a
0020
0029
fff2
0036
0091
ffc9
0027
002a
ffff
fff7
0063
0058
ffde
0061
0054
004b
0029
004f
0002
004e
0018
ffb6
0039
003e
0060
004d
003c
0044
0027
0009
0045
0087
007a
0044
0008
002f
0077
004a
ffc2
ffd6
ffc0
007a
0079
0087
004f
0013
ffec
ffed
ffee
0023
0076
fff4
008c
ffdb
0060
ffdc
002a
0034
fffc
0007
ff9e
0083
00bd
fffb
0031
0012
0021
002a
ffd8
007b
0006
ffef
0083
0049
00b9
006a
005a
0060
0099
0004
ffba
fffa
005f
004c
0094
ffae
000f
002d
0017
0033
004a
ffed
002c
0049
0070
006d
0054
0053
0020
0008
0046
ffe7
0039
00c6
ffec
0002
0079
0036
fff6
001c
0045
0011
fff7
0065
0024
0098
0001
0033
000f
ffee
ffe0
0008
0088
0044
006c
005b
003e
0028
001f
fff7
001f
ffc5
000a
fff0
0034
ffee
004c
002a
0081
00cb
