fff2
ffa2
0029
fffe
0054
ffa3
ffaa
ff83
ffb5
0013
fffc
002a
003a
ff2b
ffdc
0017
000e
ffa1
000e
0010
ffcc
0053
001b
0032
004f
ffef
0046
ffef
ffc2
ffd8
febe
0014
ffcd
ffa4
ff72
ffea
0010
ffe2
ffcf
ffc9
0003
ffee
ffd7
ffbc
ffee
0094
ffb6
003b
0003
0032
0012
0004
ffea
ffe5
0045
001a
ff5d
0000
ff83
ffb8
ffe3
ffe9
ffb4
0004
ffe8
ffc9
ffb6
ff71
ffc0
ffaa
fff4
ffdc
0012
ffe6
0002
002c
ffbf
001e
0015
ff8c
ffc7
ffdb
ffe9
ff9c
ff71
0016
fff1
002a
ffe9
003e
0027
ffe4
ffff
0013
ffc9
ffe6
ffb0
ffbf
0032
0038
feeb
ffae
0022
ffe3
0006
0022
fffa
0045
ffe4
ffda
ff7d
0002
ffb2
ffde
fffb
ffa4
ffb8
ff62
ffcd
0027
ffed
ffe3
0018
ff5d
0003
ffc4
ffec
0029
0028
ffe3
ffc2
0020
ffb2
ffed
ff6d
ffd9
fff3
ffc1
0005
ff8e
fff2
ff6f
ff79
fff2
fff7
0014
ffc2
ffe1
ffef
001e
fff8
fff8
0000
0007
ffdd
0038
0019
fff2
fff1
ff84
001e
ffc6
001c
003f
005e
0002
000d
ffdf
ffc6
0020
0010
000a
ffb6
ffb9
000a
003d
ffa8
002f
ffbd
0012
0003
ffa4
001c
0053
ff04
0020
ffb0
0029
0025
005b
ffd5
0021
000f
fff4
ffe7
fff1
fffa
ff7b
002d
001a
ffd1
004c
003b
ff36
004f
0029
ffc4
000f
002c
ffe6
0010
ffb1
ffed
fffe
0041
ffb1
ffcd
ffc6
ffc8
0049
0011
001f
fff9
ffb4
fff3
ffb1
001c
ffa5
002b
ffea
ffe5
0021
ffca
ff8d
ff9b
ff7f
ffb3
000d
0045
0016
0039
ff8a
0013
ffa6
0031
ff71
ffe7
fffb
ffe0
fff2
ffa8
ffb5
ff6e
fffd
005b
0047
fff9
ffa9
0030
0005
005b
ffaa
ffb1
ff8a
ffbc
001a
0003
0031
0041
ff32
ffe3
001e
0015
ffa8
0015
0017
ffd3
005a
0022
0039
0056
fff6
004d
fff6
ffc9
ffdf
fec5
001b
ffd4
ffab
ff79
fff1
0017
ffe9
ffd6
ffd0
000a
fff5
ffde
ffc3
fff5
009b
ffbd
0042
000a
0039
0019
000b
fff1
ffec
004c
0021
ff64
0007
ff8a
ffbf
ffea
fff0
ffbb
000b
ffef
ffd0
ffbd
ff78
ffc7
ffb1
fffb
ffe3
0019
ffed
0009
0033
ffc6
0025
001c
ff93
ffce
ffe2
fff0
ffa3
ff78
001d
fff8
0031
fff0
0045
002e
ffeb
0006
001a
ffd0
ffed
ffb7
ffc6
0039
003f
fef2
ffb5
0029
ffea
000d
0029
0001
004c
ffeb
ffe1
ff84
0009
ffb9
ffe5
0002
ffab
ffbf
ff69
ffd4
002e
fff4
ffea
001f
ff64
000a
ffcb
fff3
0030
002f
ffea
ffc9
0027
ffb9
fff4
ff74
ffe0
fffa
ffc8
000c
ff95
fff9
ff76
ff80
fff9
fffe
001b
ffc9
ffe8
fff6
0025
ffff
ffff
0007
000e
ffe4
003f
0020
fff9
fff8
ff8b
0025
ffcd
0023
0046
0065
0009
0014
ffe6
ffcd
0027
0017
0011
ffbd
ffc0
0011
0044
ffaf
0036
ffc4
0019
000a
ffab
0023
005a
ff0b
0027
ffb7
0030
002c
0062
ffdc
0028
0016
fffb
ffee
fff8
0001
ff82
0034
0021
ffd8
0053
0042
ff3d
0056
0030
ffcb
0016
0033
ffed
0017
ffb8
fff4
0005
0048
ffb8
ffd4
ffcd
ffcf
0050
0018
0026
0000
ffbb
fffa
ffb8
0023
ffac
0032
fff1
ffec
0028
ffd1
ff94
ffa2
ff86
ffba
0014
004c
001d
0040
ff91
001a
ffad
0038
ff78
ffee
0002
ffe7
fff9
ffaf
ffbc
ff75
0004
0062
004e
0000
ffb0
0037
000c
0062
ffb1
ffb8
ff91
ffc3
0021
000a
0038
0048
ff39
ffea
0025
001c
ffaf
001c
001e
ffda
0061
0029
0040
005d
fffd
0054
fffd
ffd0
ffe6
fecc
0022
ffdb
ffb2
ff80
fff8
001e
fff0
ffdd
ffd7
0011
fffc
ffe5
ffca
fffc
00a2
ffc4
0049
0011
0040
0020
0012
fff8
fff3
0053
0028
ff6b
000e
ff91
ffc6
fff1
fff7
ffc2
0012
fff6
ffd7
ffc4
ff7f
ffce
ffb8
0002
ffea
0020
fff4
0010
003a
ffcd
002c
0023
ff9a
ffd5
ffe9
fff7
ffaa
ff7f
0024
ffff
0038
fff7
004c
0035
fff2
000d
0021
ffd7
fff4
ffbe
ffcd
0040
0046
fef9
ffbc
0030
fff1
0014
0030
0008
0053
fff2
ffe8
ff8b
0010
ffc0
ffec
0009
ffb2
ffc6
ff70
ffdb
0035
fffb
fff1
0026
ff6b
0011
ffd2
fffa
0037
0036
fff1
ffd0
002e
ffc0
fffb
ff7b
ffe7
0001
ffcf
0013
ff9c
0000
ff7d
ff87
0000
0005
0022
ffd0
ffef
fffd
002c
0006
0006
000e
0015
ffeb
0046
0027
0000
ffff
ff92
002c
ffd4
002a
004d
006c
0010
001b
ffed
ffd4
002e
001e
0018
ffc4
ffc7
0018
004b
ffb6
003d
ffcb
0020
0011
ffb2
002a
0061
ff12
002e
ffbe
0037
0033
0069
ffe3
002f
001d
0002
fff5
ffff
0008
ff89
003b
0028
ffdf
005a
0049
ff44
005d
0037
ffd2
001d
003a
fff4
001e
ffbf
fffb
000c
004f
ffbf
ffdb
ffd4
ffd6
0057
001f
002d
0007
ffc2
0001
ffbf
002a
ffb3
0039
fff8
fff3
002f
ffd8
ff9b
ffa9
ff8d
ffc1
001b
0053
0024
0047
ff98
0021
ffb4
003f
ff7f
fff5
0009
ffee
0000
ffb6
ffc3
ff7c
000b
0069
0055
ffe7
ff97
001e
fff3
0049
ff98
ff9f
ff78
ffaa
0008
fff1
001f
002f
ff20
ffd1
000c
0003
ff96
0003
0005
ffc1
0048
0010
0027
0044
ffe4
003b
ffe4
ffb7
ffcd
feb3
0009
ffc2
ff99
ff67
ffdf
0005
ffd7
ffc4
ffbe
fff8
ffe3
ffcc
ffb1
ffe3
0089
ffab
0030
fff8
0027
0007
fff9
ffdf
ffda
003a
000f
ff52
fff5
ff78
ffad
ffd8
ffde
ffa9
fff9
ffdd
ffbe
ffab
ff66
ffb5
ff9f
ffe9
ffd1
0007
ffdb
fff7
0021
ffb4
0013
000a
ff81
ffbc
ffd0
ffde
ff91
ff66
000b
ffe6
001f
ffde
0033
001c
ffd9
fff4
0008
ffbe
ffdb
ffa5
ffb4
0027
002d
fee0
ffa3
0017
ffd8
fffb
0017
ffef
003a
ffd9
ffcf
ff72
fff7
ffa7
ffd3
fff0
ff99
ffad
ff57
ffc2
001c
ffe2
ffd8
000d
ff52
fff8
ffb9
ffe1
001e
001d
ffd8
ffb7
0015
ffa7
ffe2
ff62
ffce
ffe8
ffb6
fffa
ff83
ffe7
ff64
ff6e
ffe7
ffec
0009
ffb7
ffd6
ffe4
0013
ffed
ffed
fff5
fffc
ffd2
002d
000e
ffe7
ffe6
ff79
0013
ffbb
0011
0034
0053
fff7
0002
ffd4
ffbb
0015
0005
ffff
ffab
ffae
ffff
0032
ff9d
0024
ffb2
0007
fff8
ff99
0011
0048
fef9
0015
ffa5
001e
001a
0050
ffca
0016
0004
ffe9
ffdc
ffe6
ffef
ff70
0022
000f
ffc6
0041
0030
ff2b
0044
001e
ffb9
0004
0021
ffdb
0005
ffa6
ffe2
fff3
0036
ffa6
ffc2
ffbb
ffbd
003e
0006
0014
ffee
ffa9
ffe8
ffa6
0011
ff9a
0020
ffdf
ffda
0016
ffbf
ff82
ff90
ff74
ffa8
0002
003a
000b
002e
ff7f
0008
ff9b
0026
ff66
ffdc
fff0
ffd5
ffe7
ff9d
ffaa
ff63
fff2
0050
003c
ffee
ff9e
0025
fffa
0050
ff9f
ffa6
ff7f
ffb1
000f
fff8
0026
0036
ff27
ffd8
0013
000a
ff9d
000a
000c
ffc8
004f
0017
002e
004b
ffeb
0042
ffeb
ffbe
ffd4
feba
0010
ffc9
ffa0
ff6e
ffe6
000c
ffde
ffcb
ffc5
ffff
ffea
ffd3
ffb8
ffea
0090
ffb2
0037
ffff
002e
000e
0000
ffe6
ffe1
0041
0016
ff59
fffc
ff7f
ffb4
ffdf
ffe5
ffb0
0000
ffe4
ffc5
ffb2
ff6d
ffbc
ffa6
fff0
ffd8
000e
ffe2
fffe
0028
ffbb
001a
0011
ff88
ffc3
ffd7
ffe5
ff98
ff6d
0012
ffed
0026
ffe5
003a
0023
ffe0
fffb
000f
ffc5
ffe2
ffac
ffbb
002e
0034
fee7
ffaa
001e
ffdf
0002
001e
fff6
0041
ffe0
ffd6
ff79
fffe
ffae
ffda
fff7
ffa0
ffb4
ff5e
ffc9
0023
ffe9
ffdf
0014
ff59
ffff
ffc0
ffe8
0025
0024
ffdf
ffbe
001c
ffae
ffe9
ff69
ffd5
ffef
ffbd
0001
ff8a
ffee
ff6b
ff75
ffee
fff3
0010
ffbe
ffdd
ffeb
001a
fff4
fff4
fffc
0003
ffd9
0034
0015
ffee
ffed
ff80
001a
ffc2
0018
003b
005a
fffe
0009
ffdb
ffc2
001c
000c
0006
ffb2
ffb5
0006
0039
ffa4
002b
ffb9
000e
ffff
ffa0
0018
004f
ff00
001c
ffac
0025
0021
0057
ffd1
001d
000b
fff0
ffe3
ffed
fff6
ff77
0029
0016
ffcd
0048
0037
ff32
004b
0025
ffc0
000b
0028
ffe2
000c
ffad
ffe9
fffa
003d
ffad
ffc9
ffc2
ffc4
0045
000d
001b
fff5
ffb0
ffef
ffad
0018
ffa1
0027
ffe6
ffe1
001d
ffc6
ff89
ff97
ff7b
ffaf
0009
0041
0012
0035
ff86
000f
ffa2
002d
ff6d
ffe3
fff7
ffdc
ffee
ffa4
ffb1
ff6a
fff9
0057
0043
fff5
ffa5
002c
0001
0057
ffa6
ffad
ff86
ffb8
0016
ffff
002d
003d
ff2e
ffdf
001a
0011
ffa4
0011
0013
ffcf
0056
001e
0035
0052
fff2
0049
fff2
ffc5
ffdb
fec1
0017
ffd0
ffa7
ff75
ffed
0013
ffe5
ffd2
ffcc
0006
fff1
ffda
ffbf
fff1
0097
ffb9
003e
0006
0035
0015
0007
ffed
ffe8
0048
001d
ff60
0003
ff86
ffbb
ffe6
ffec
ffb7
0007
ffeb
ffcc
ffb9
ff74
ffc3
ffad
fff7
ffdf
0015
ffe9
0005
002f
ffc2
0021
0018
ff8f
ffca
ffde
ffec
ff9f
ff74
0019
fff4
002d
ffec
0041
002a
ffe7
0002
0016
ffcc
ffe9
ffb3
ffc2
0035
003b
feee
ffb1
0025
ffe6
0009
0025
fffd
0048
ffe7
ffdd
ff80
0005
ffb5
ffe1
fffe
ffa7
ffbb
ff65
ffd0
002a
fff0
ffe6
001b
ff60
0006
ffc7
ffef
002c
002b
ffe6
ffc5
0023
ffb5
fff0
ff70
ffdc
fff6
ffc4
0008
ff91
fff5
ff72
ff7c
fff5
fffa
0017
ffc5
ffe4
fff2
0021
fffb
fffb
0003
000a
ffe0
003b
001c
fff5
fff4
ff87
0021
ffc9
001f
0042
0061
0005
0010
ffe2
ffc9
0023
0013
000d
ffb9
ffbc
000d
0040
ffab
0032
ffc0
0015
0006
ffa7
001f
0056
ff07
0023
ffb3
002c
0028
005e
ffd8
0024
0012
fff7
ffea
fff4
fffd
ff7e
0030
001d
ffd4
004f
003e
ff39
0052
002c
ffc7
0012
002f
ffe9
0013
ffb4
fff0
0001
0044
ffb4
ffd0
ffc9
ffcb
004c
0014
0022
fffc
ffb7
fff6
ffb4
001f
ffa8
002e
ffed
ffe8
0024
ffcd
ff90
ff9e
ff82
ffb6
0010
0048
0019
003c
ff8d
0016
ffa9
0034
ff74
ffea
fffe
ffe3
fff5
ffab
ffb8
ff71
0000
005e
004a
fffc
ffac
0033
0008
005e
ffad
ffb4
ff8d
ffbf
001d
0006
0034
0044
ff35
ffe6
0021
0018
ffab
0018
001a
ffd6
005d
0025
003c
0059
fff9
0050
fff9
ffcc
ffe2
fec8
001e
ffd7
ffae
ff7c
fff4
001a
ffec
ffd9
ffd3
000d
fff8
ffe1
ffc6
fff8
009e
ffc0
0045
000d
003c
001c
000e
fff4
ffef
004f
0024
ff67
000a
ff8d
ffc2
ffed
fff3
ffbe
000e
fff2
ffd3
ffc0
ff7b
ffca
ffb4
fffe
ffe6
001c
fff0
000c
0036
ffc9
0028
001f
ff96
ffd1
ffe5
fff3
ffa6
ff7b
0020
fffb
0034
fff3
0048
0031
ffee
0009
001d
ffd3
fff0
ffba
ffc9
003c
0042
fef5
ffb8
002c
ffed
0010
002c
0004
004f
ffee
ffe4
ff87
000c
ffbc
ffe8
0005
ffae
ffc2
ff6c
ffd7
0031
fff7
ffed
0022
ff67
000d
ffce
fff6
0033
0032
ffed
ffcc
002a
ffbc
fff7
ff77
ffe3
fffd
ffcb
000f
ff98
fffc
ff79
ff83
fffc
0001
001e
ffcc
ffeb
fff9
0028
0002
0002
000a
0011
ffe7
0042
0023
fffc
fffb
ff8e
0028
ffd0
0026
0049
0068
000c
0017
ffe9
ffd0
002a
001a
0014
ffc0
ffc3
0014
0047
ffb2
0039
ffc7
001c
000d
ffae
0026
005d
ff0e
002a
ffba
0033
002f
0065
ffdf
002b
0019
fffe
fff1
fffb
0004
ff85
0037
0024
ffdb
0056
0045
ff40
0059
0033
ffce
0019
0036
fff0
001a
ffbb
fff7
0008
004b
ffbb
ffd7
ffd0
ffd2
0053
001b
0029
0003
ffbe
fffd
ffbb
0026
ffaf
0035
fff4
ffef
002b
ffd4
ff97
ffa5
ff89
ffbd
0017
004f
0020
0043
ff94
001d
ffb0
003b
ff7b
fff1
0005
ffea
fffc
ffb2
ffbf
ff78
0007
0065
0051
0003
ffb3
003a
000f
0065
ffb4
ffbb
ff94
ffc6
0024
000d
003b
004b
ff3c
ffed
0028
001f
ffb2
001f
0021
ffdd
0064
002c
0043
0060
0000
0057
0000
ffd3
ffe9
fecf
0025
ffde
ffb5
ff83
fffb
0021
fff3
ffe0
ffda
0014
ffff
ffe8
ffcd
ffff
00a5
ffc7
004c
0014
0043
0023
0015
fffb
fff6
0056
002b
ff6e
0011
ff94
ffc9
fff4
fffa
ffc5
0015
fff9
ffda
ffc7
ff82
ffd1
ffbb
0005
ffed
0023
fff7
0013
003d
ffd0
002f
0026
ff9d
ffd8
ffec
fffa
ffad
ff82
0027
0002
003b
fffa
004f
0038
fff5
0010
0024
ffda
fff7
ffc1
ffd0
0043
0049
fefc
ffbf
0033
fff4
0017
0033
000b
0056
fff5
ffeb
ff8e
0013
ffc3
ffef
000c
ffb5
ffc9
ff73
ffde
0038
fffe
fff4
0029
ff6e
0014
ffd5
fffd
003a
0039
fff4
ffd3
0031
ffc3
fffe
ff7e
ffea
0004
ffd2
0016
ff9f
0003
ff80
ff8a
0003
0008
0025
ffd3
fff2
0000
002f
0009
0009
0011
0018
ffee
0049
002a
0003
0002
ff95
002f
ffd7
002d
0050
006f
0013
001e
fff0
ffd7
0031
0021
001b
ffc7
ffca
001b
004e
ffb9
0040
ffce
0023
0014
ffb5
002d
0064
ff15
0031
ffc1
003a
0036
006c
ffe6
0032
0020
0005
fff8
0002
000b
ff8c
003e
002b
ffe2
005d
004c
ff47
0060
003a
ffd5
0020
003d
fff7
0021
ffc2
fffe
000f
0052
ffc2
ffde
ffd7
ffd9
005a
0022
0030
000a
ffc5
0004
ffc2
002d
ffb6
003c
fffb
fff6
0032
ffdb
ff9e
ffac
ff90
ffc4
001e
0056
0027
004a
ff9b
0024
ffb7
0042
ff82
fff8
000c
fff1
0003
ffb9
ffc6
ff7f
000e
006c
0058
ffea
ff9a
0021
fff6
004c
ff9b
ffa2
ff7b
ffad
000b
fff4
0022
0032
ff23
ffd4
000f
0006
ff99
0006
0008
ffc4
004b
0013
002a
0047
ffe7
003e
ffe7
ffba
ffd0
feb6
000c
ffc5
ff9c
ff6a
ffe2
0008
ffda
ffc7
ffc1
fffb
ffe6
ffcf
ffb4
ffe6
008c
ffae
0033
fffb
002a
000a
fffc
ffe2
ffdd
003d
0012
ff55
fff8
ff7b
ffb0
ffdb
ffe1
ffac
fffc
ffe0
ffc1
ffae
ff69
ffb8
ffa2
ffec
ffd4
000a
ffde
fffa
0024
ffb7
0016
000d
ff84
ffbf
ffd3
ffe1
ff94
ff69
000e
ffe9
0022
ffe1
0036
001f
ffdc
fff7
000b
ffc1
ffde
ffa8
ffb7
002a
0030
fee3
ffa6
001a
ffdb
fffe
001a
fff2
003d
ffdc
ffd2
ff75
fffa
ffaa
ffd6
fff3
ff9c
ffb0
ff5a
ffc5
001f
ffe5
ffdb
0010
ff55
fffb
ffbc
ffe4
0021
0020
ffdb
ffba
0018
ffaa
ffe5
ff65
ffd1
ffeb
ffb9
fffd
ff86
ffea
ff67
ff71
ffea
ffef
000c
ffba
ffd9
ffe7
0016
fff0
fff0
fff8
ffff
ffd5
0030
0011
ffea
ffe9
ff7c
0016
ffbe
0014
0037
0056
fffa
0005
ffd7
ffbe
0018
0008
0002
ffae
ffb1
0002
0035
ffa0
0027
ffb5
000a
fffb
ff9c
0014
004b
fefc
0018
ffa8
0021
001d
0053
ffcd
0019
0007
ffec
ffdf
ffe9
fff2
ff73
0025
0012
ffc9
0044
0033
ff2e
0047
0021
ffbc
0007
0024
ffde
0008
ffa9
ffe5
fff6
0039
ffa9
ffc5
ffbe
ffc0
0041
0009
0017
fff1
ffac
ffeb
ffa9
0014
ff9d
0023
ffe2
ffdd
0019
ffc2
ff85
ff93
ff77
ffab
0005
003d
000e
0031
ff82
000b
ff9e
0029
ff69
ffdf
fff3
ffd8
ffea
ffa0
ffad
ff66
fff5
0053
003f
fff1
ffa1
0028
fffd
0053
ffa2
ffa9
ff82
ffb4
0012
fffb
0029
0039
ff2a
ffdb
0016
000d
ffa0
000d
000f
ffcb
0052
001a
0031
004e
ffee
0045
ffee
ffc1
ffd7
febd
0013
ffcc
ffa3
ff71
ffe9
000f
ffe1
ffce
ffc8
0002
ffed
ffd6
ffbb
ffed
0093
ffb5
003a
0002
0031
0011
0003
ffe9
ffe4
0044
0019
ff5c
ffff
ff82
ffb7
ffe2
ffe8
ffb3
0003
ffe7
ffc8
ffb5
ff70
ffbf
ffa9
fff3
ffdb
0011
ffe5
0001
002b
ffbe
001d
0014
ff8b
ffc6
ffda
ffe8
ff9b
ff70
0015
fff0
0029
ffe8
003d
0026
ffe3
fffe
0012
ffc8
ffe5
ffaf
ffbe
0031
0037
feea
ffad
0021
ffe2
0005
0021
fff9
0044
ffe3
ffd9
ff7c
0001
ffb1
ffdd
fffa
ffa3
ffb7
ff61
ffcc
0026
ffec
ffe2
0017
ff5c
0002
ffc3
ffeb
0028
0027
ffe2
ffc1
001f
ffb1
ffec
ff6c
ffd8
fff2
ffc0
0004
ff8d
fff1
ff6e
ff78
fff1
fff6
0013
ffc1
ffe0
ffee
001d
fff7
fff7
ffff
0006
ffdc
0037
0018
fff1
fff0
ff83
001d
ffc5
001b
003e
005d
0001
000c
ffde
ffc5
001f
000f
0009
ffb5
ffb8
0009
003c
ffa7
002e
ffbc
0011
0002
ffa3
001b
0052
ff03
001f
ffaf
0028
0024
005a
ffd4
0020
000e
fff3
ffe6
fff0
fff9
ff7a
002c
0019
ffd0
004b
003a
ff35
004e
0028
ffc3
000e
002b
ffe5
000f
ffb0
ffec
fffd
0040
ffb0
ffcc
ffc5
ffc7
0048
0010
001e
fff8
ffb3
fff2
ffb0
001b
ffa4
002a
ffe9
ffe4
0020
ffc9
ff8c
ff9a
ff7e
ffb2
000c
0044
0015
0038
ff89
0012
ffa5
0030
ff70
ffe6
fffa
ffdf
fff1
ffa7
ffb4
ff6d
fffc
005a
0046
fff8
ffa8
002f
0004
005a
ffa9
ffb0
ff89
ffbb
0019
0002
0030
0040
ff31
ffe2
001d
0014
ffa7
0014
0016
ffd2
0059
0021
0038
0055
fff5
004c
fff5
ffc8
ffde
fec4
001a
ffd3
ffaa
ff78
fff0
0016
ffe8
ffd5
ffcf
0009
fff4
ffdd
ffc2
fff4
009a
ffbc
0041
0009
0038
0018
000a
fff0
ffeb
004b
0020
ff63
0006
ff89
ffbe
ffe9
ffef
ffba
000a
ffee
ffcf
ffbc
ff77
ffc6
ffb0
fffa
ffe2
0018
ffec
0008
0032
ffc5
0024
001b
ff92
ffcd
ffe1
ffef
ffa2
ff77
001c
fff7
0030
ffef
0044
002d
ffea
0005
0019
ffcf
ffec
ffb6
ffc5
0038
003e
fef1
ffb4
0028
ffe9
000c
0028
0000
004b
ffea
ffe0
ff83
0008
ffb8
ffe4
0001
ffaa
ffbe
ff68
ffd3
002d
fff3
ffe9
001e
ff63
0009
ffca
fff2
002f
002e
ffe9
ffc8
0026
ffb8
fff3
ff73
ffdf
fff9
ffc7
000b
ff94
fff8
ff75
ff7f
fff8
fffd
001a
ffc8
ffe7
fff5
0024
fffe
fffe
0006
000d
ffe3
003e
001f
fff8
fff7
ff8a
0024
ffcc
0022
0045
0064
0008
0013
ffe5
ffcc
0026
0016
0010
ffbc
ffbf
0010
0043
ffae
0035
ffc3
0018
0009
ffaa
0022
0059
ff0a
0026
ffb6
002f
002b
0061
ffdb
0027
0015
fffa
ffed
fff7
0000
ff81
0033
0020
ffd7
0052
0041
ff3c
0055
002f
ffca
0015
0032
ffec
0016
ffb7
fff3
0004
0047
ffb7
ffd3
ffcc
ffce
004f
0017
0025
ffff
ffba
fff9
ffb7
0022
ffab
0031
fff0
ffeb
0027
ffd0
ff93
ffa1
ff85
ffb9
0013
004b
001c
003f
ff90
0019
ffac
0037
ff77
ffed
0001
ffe6
fff8
ffae
ffbb
ff74
0003
0061
004d
ffff
ffaf
0036
000b
0061
ffb0
ffb7
ff90
ffc2
0020
0009
0037
0047
ff38
ffe9
0024
001b
ffae
001b
001d
ffd9
0060
0028
003f
005c
fffc
0053
fffc
ffcf
ffe5
fecb
0021
ffda
ffb1
ff7f
fff7
001d
ffef
ffdc
ffd6
0010
fffb
ffe4
ffc9
fffb
00a1
ffc3
0048
0010
003f
001f
0011
fff7
fff2
0052
0027
ff6a
000d
ff90
ffc5
fff0
fff6
ffc1
0011
fff5
ffd6
ffc3
ff7e
ffcd
ffb7
0001
ffe9
001f
fff3
000f
0039
ffcc
002b
0022
ff99
ffd4
ffe8
fff6
ffa9
ff7e
0023
fffe
0037
fff6
004b
0034
fff1
000c
0020
ffd6
fff3
ffbd
ffcc
003f
0045
fef8
ffbb
002f
fff0
0013
002f
0007
0052
fff1
ffe7
ff8a
000f
ffbf
ffeb
0008
ffb1
ffc5
ff6f
ffda
0034
fffa
fff0
0025
ff6a
0010
ffd1
fff9
0036
0035
fff0
ffcf
002d
ffbf
fffa
ff7a
ffe6
0000
ffce
0012
ff9b
ffff
ff7c
ff86
ffff
0004
0021
ffcf
ffee
fffc
002b
0005
0005
000d
0014
ffea
0045
0026
ffff
fffe
ff91
002b
ffd3
0029
004c
006b
000f
001a
ffec
ffd3
002d
001d
0017
ffc3
ffc6
0017
004a
ffb5
003c
ffca
001f
0010
ffb1
0029
0060
ff11
002d
ffbd
0036
0032
0068
ffe2
002e
001c
0001
fff4
fffe
0007
ff88
003a
0027
ffde
0059
0048
ff43
005c
0036
ffd1
001c
0039
fff3
001d
ffbe
fffa
000b
004e
ffbe
ffda
ffd3
ffd5
0056
001e
002c
0006
ffc1
0000
ffbe
0029
ffb2
0038
fff7
fff2
002e
ffd7
ff9a
ffa8
ff8c
ffc0
001a
0052
0023
0046
ff97
0020
ffb3
003e
ff7e
fff4
0008
ffed
ffff
ffb5
ffc2
ff7b
000a
0068
0054
ffe6
ff96
001d
fff2
0048
ff97
ff9e
ff77
ffa9
0007
fff0
001e
002e
ff1f
ffd0
000b
0002
ff95
0002
0004
ffc0
0047
000f
0026
0043
ffe3
003a
ffe3
ffb6
ffcc
feb2
0008
ffc1
ff98
ff66
ffde
0004
ffd6
ffc3
ffbd
fff7
ffe2
ffcb
ffb0
ffe2
0088
ffaa
002f
fff7
0026
0006
fff8
ffde
ffd9
0039
000e
ff51
fff4
ff77
ffac
ffd7
ffdd
ffa8
fff8
ffdc
ffbd
ffaa
ff65
ffb4
ff9e
ffe8
ffd0
0006
ffda
fff6
0020
ffb3
0012
0009
ff80
ffbb
ffcf
ffdd
ff90
ff65
000a
ffe5
001e
ffdd
0032
001b
ffd8
fff3
0007
ffbd
ffda
ffa4
ffb3
0026
002c
fedf
ffa2
0016
ffd7
fffa
0016
ffee
0039
ffd8
ffce
ff71
fff6
ffa6
ffd2
ffef
ff98
ffac
ff56
ffc1
001b
ffe1
ffd7
000c
ff51
fff7
ffb8
ffe0
001d
001c
ffd7
ffb6
0014
ffa6
ffe1
ff61
ffcd
ffe7
ffb5
fff9
ff82
ffe6
ff63
ff6d
ffe6
ffeb
0008
ffb6
ffd5
ffe3
0012
ffec
ffec
fff4
fffb
ffd1
002c
000d
ffe6
ffe5
ff78
0012
ffba
0010
0033
0052
fff6
0001
ffd3
ffba
0014
0004
fffe
ffaa
ffad
fffe
0031
ff9c
0023
ffb1
0006
fff7
ff98
0010
0047
fef8
0014
ffa4
001d
0019
004f
ffc9
0015
0003
ffe8
ffdb
ffe5
ffee
ff6f
0021
000e
ffc5
0040
002f
ff2a
0043
001d
ffb8
0003
0020
ffda
0004
ffa5
ffe1
fff2
0035
ffa5
ffc1
ffba
ffbc
003d
0005
0013
ffed
ffa8
ffe7
ffa5
0010
ff99
001f
ffde
ffd9
0015
ffbe
ff81
ff8f
ff73
ffa7
0001
0039
000a
002d
ff7e
0007
ff9a
0025
ff65
ffdb
ffef
ffd4
ffe6
ff9c
ffa9
ff62
fff1
004f
003b
ffed
ff9d
0024
fff9
004f
ff9e
ffa5
ff7e
ffb0
000e
fff7
0025
0035
ff26
ffd7
0012
0009
ff9c
0009
000b
ffc7
004e
0016
002d
004a
ffea
0041
ffea
ffbd
ffd3
feb9
000f
ffc8
ff9f
ff6d
ffe5
000b
ffdd
ffca
ffc4
fffe
ffe9
ffd2
ffb7
ffe9
008f
ffb1
0036
fffe
002d
000d
ffff
ffe5
ffe0
0040
0015
ff58
fffb
ff7e
ffb3
ffde
ffe4
ffaf
ffff
ffe3
ffc4
ffb1
ff6c
ffbb
ffa5
ffef
ffd7
000d
ffe1
fffd
0027
ffba
0019
0010
ff87
ffc2
ffd6
ffe4
ff97
ff6c
0011
ffec
0025
ffe4
0039
0022
ffdf
fffa
000e
ffc4
ffe1
ffab
ffba
002d
0033
fee6
ffa9
001d
ffde
0001
001d
fff5
0040
ffdf
ffd5
ff78
fffd
ffad
ffd9
fff6
ff9f
ffb3
ff5d
ffc8
0022
ffe8
ffde
0013
ff58
fffe
ffbf
ffe7
0024
0023
ffde
ffbd
001b
ffad
ffe8
ff68
ffd4
ffee
ffbc
0000
ff89
ffed
ff6a
ff74
ffed
fff2
000f
ffbd
ffdc
ffea
0019
fff3
fff3
fffb
0002
ffd8
0033
0014
ffed
ffec
ff7f
0019
ffc1
0017
003a
0059
fffd
0008
ffda
ffc1
001b
000b
0005
ffb1
ffb4
0005
0038
ffa3
002a
ffb8
000d
fffe
ff9f
0017
004e
feff
001b
ffab
0024
0020
0056
ffd0
001c
000a
ffef
ffe2
ffec
fff5
ff76
0028
0015
ffcc
0047
0036
ff31
004a
0024
ffbf
000a
0027
ffe1
000b
ffac
ffe8
fff9
003c
ffac
ffc8
ffc1
ffc3
0044
000c
001a
fff4
ffaf
ffee
ffac
0017
ffa0
0026
ffe5
ffe0
001c
ffc5
ff88
ff96
ff7a
ffae
0008
0040
0011
0034
ff85
000e
ffa1
002c
ff6c
ffe2
fff6
ffdb
ffed
ffa3
ffb0
ff69
fff8
0056
0042
fff4
ffa4
002b
0000
0056
ffa5
ffac
ff85
ffb7
0015
fffe
002c
003c
ff2d
ffde
0019
0010
ffa3
0010
0012
ffce
0055
001d
0034
0051
fff1
0048
fff1
ffc4
ffda
fec0
0016
ffcf
ffa6
ff74
ffec
0012
ffe4
ffd1
ffcb
0005
fff0
ffd9
ffbe
fff0
0096
ffb8
003d
0005
0034
0014
0006
ffec
ffe7
0047
001c
ff5f
0002
ff85
ffba
ffe5
ffeb
ffb6
0006
ffea
ffcb
ffb8
ff73
ffc2
ffac
fff6
ffde
0014
ffe8
0004
002e
ffc1
0020
0017
ff8e
ffc9
ffdd
ffeb
ff9e
ff73
0018
fff3
002c
ffeb
0040
0029
ffe6
0001
0015
ffcb
ffe8
ffb2
ffc1
0034
003a
feed
ffb0
0024
ffe5
0008
0024
fffc
0047
ffe6
ffdc
ff7f
0004
ffb4
ffe0
fffd
ffa6
ffba
ff64
ffcf
0029
ffef
ffe5
001a
ff5f
0005
ffc6
ffee
002b
002a
ffe5
ffc4
0022
ffb4
ffef
ff6f
ffdb
fff5
ffc3
0007
ff90
fff4
ff71
ff7b
fff4
fff9
0016
ffc4
ffe3
fff1
0020
fffa
fffa
0002
0009
ffdf
003a
001b
fff4
fff3
ff86
0020
ffc8
001e
0041
0060
0004
000f
ffe1
ffc8
0022
0012
000c
ffb8
ffbb
000c
003f
ffaa
0031
ffbf
0014
0005
ffa6
001e
0055
ff06
0022
ffb2
002b
0027
005d
ffd7
0023
0011
fff6
ffe9
fff3
fffc
ff7d
002f
001c
ffd3
004e
003d
ff38
0051
002b
ffc6
0011
002e
ffe8
0012
ffb3
ffef
0000
0043
ffb3
ffcf
ffc8
ffca
004b
0013
0021
fffb
ffb6
fff5
ffb3
001e
ffa7
002d
ffec
ffe7
0023
ffcc
ff8f
ff9d
ff81
ffb5
000f
0047
0018
003b
ff8c
0015
ffa8
0033
ff73
ffe9
fffd
ffe2
fff4
ffaa
ffb7
ff70
ffff
005d
0049
fffb
ffab
0032
0007
005d
ffac
ffb3
ff8c
ffbe
001c
0005
0033
0043
ff34
ffe5
0020
0017
ffaa
0017
0019
ffd5
005c
0024
003b
0058
fff8
004f
fff8
ffcb
ffe1
fec7
001d
ffd6
ffad
ff7b
fff3
0019
ffeb
ffd8
ffd2
000c
fff7
ffe0
ffc5
fff7
009d
ffbf
0044
000c
003b
001b
000d
fff3
ffee
004e
0023
ff66
0009
ff8c
ffc1
ffec
fff2
ffbd
000d
fff1
ffd2
ffbf
ff7a
ffc9
ffb3
fffd
ffe5
001b
ffef
000b
0035
ffc8
0027
001e
ff95
ffd0
ffe4
fff2
ffa5
ff7a
001f
fffa
0033
fff2
0047
0030
ffed
0008
001c
ffd2
ffef
ffb9
ffc8
003b
0041
fef4
ffb7
002b
ffec
000f
002b
0003
004e
ffed
ffe3
ff86
000b
ffbb
ffe7
0004
ffad
ffc1
ff6b
ffd6
0030
fff6
ffec
0021
ff66
000c
ffcd
fff5
0032
0031
ffec
ffcb
0029
ffbb
fff6
ff76
ffe2
fffc
ffca
000e
ff97
fffb
ff78
ff82
fffb
0000
001d
ffcb
ffea
fff8
0027
0001
0001
0009
0010
ffe6
0041
0022
fffb
fffa
ff8d
0027
ffcf
0025
0048
0067
000b
0016
ffe8
ffcf
0029
0019
0013
ffbf
ffc2
0013
0046
ffb1
0038
ffc6
001b
000c
ffad
0025
005c
ff0d
0029
ffb9
0032
002e
0064
ffde
002a
0018
fffd
fff0
fffa
0003
ff84
0036
0023
ffda
0055
0044
ff3f
0058
0032
ffcd
0018
0035
ffef
0019
ffba
fff6
0007
004a
ffba
ffd6
ffcf
ffd1
0052
001a
0028
0002
ffbd
fffc
ffba
0025
ffae
0034
fff3
ffee
002a
ffd3
ff96
ffa4
ff88
ffbc
0016
004e
001f
0042
ff93
001c
ffaf
003a
ff7a
fff0
0004
ffe9
fffb
ffb1
ffbe
ff77
0006
0064
0050
0002
ffb2
0039
000e
0064
ffb3
ffba
ff93
ffc5
0023
000c
003a
004a
ff3b
ffec
0027
001e
ffb1
001e
0020
ffdc
0063
002b
0042
005f
ffff
0056
ffff
ffd2
ffe8
fece
0024
ffdd
ffb4
ff82
fffa
0020
fff2
ffdf
ffd9
0013
fffe
ffe7
ffcc
fffe
00a4
ffc6
004b
0013
0042
0022
0014
fffa
fff5
0055
002a
ff6d
0010
ff93
ffc8
fff3
fff9
ffc4
0014
fff8
ffd9
ffc6
ff81
ffd0
ffba
0004
ffec
0022
fff6
0012
003c
ffcf
002e
0025
ff9c
ffd7
ffeb
fff9
ffac
ff81
0026
0001
003a
fff9
004e
0037
fff4
000f
0023
ffd9
fff6
ffc0
ffcf
0042
0048
fefb
ffbe
0032
fff3
0016
0032
000a
0055
fff4
ffea
ff8d
0012
ffc2
ffee
000b
ffb4
ffc8
ff72
ffdd
0037
fffd
fff3
0028
ff6d
0013
ffd4
fffc
0039
0038
fff3
ffd2
0030
ffc2
fffd
ff7d
ffe9
0003
ffd1
0015
ff9e
0002
ff7f
ff89
0002
0007
0024
ffd2
fff1
ffff
002e
0008
0008
0010
0017
ffed
0048
0029
0002
0001
ff94
002e
ffd6
002c
004f
006e
0012
001d
ffef
ffd6
0030
0020
001a
ffc6
ffc9
001a
004d
ffb8
003f
ffcd
0022
0013
ffb4
002c
0063
ff14
0030
ffc0
0039
0035
006b
ffe5
0031
001f
0004
fff7
0001
000a
ff8b
003d
002a
ffe1
005c
004b
ff46
005f
0039
ffd4
001f
003c
fff6
0020
ffc1
fffd
000e
0051
ffc1
ffdd
ffd6
ffd8
0059
0021
002f
0009
ffc4
0003
ffc1
002c
ffb5
003b
fffa
fff5
0031
ffda
ff9d
ffab
ff8f
ffc3
001d
0055
0026
0049
ff9a
0023
ffb6
0041
ff81
fff7
000b
fff0
0002
ffb8
ffc5
ff7e
000d
006b
0057
ffe9
ff99
0020
fff5
004b
ff9a
ffa1
ff7a
ffac
000a
fff3
0021
0031
ff22
ffd3
000e
0005
ff98
0005
0007
ffc3
004a
0012
0029
0046
ffe6
003d
ffe6
ffb9
ffcf
feb5
000b
ffc4
ff9b
ff69
ffe1
0007
ffd9
ffc6
ffc0
fffa
ffe5
ffce
ffb3
ffe5
008b
ffad
0032
fffa
0029
0009
fffb
ffe1
ffdc
003c
0011
ff54
fff7
ff7a
ffaf
ffda
ffe0
ffab
fffb
ffdf
ffc0
ffad
ff68
ffb7
ffa1
ffeb
ffd3
0009
ffdd
fff9
0023
ffb6
0015
000c
ff83
ffbe
ffd2
ffe0
ff93
ff68
000d
ffe8
0021
ffe0
0035
001e
ffdb
fff6
000a
ffc0
ffdd
ffa7
ffb6
0029
002f
fee2
ffa5
0019
ffda
fffd
0019
fff1
003c
ffdb
ffd1
ff74
fff9
ffa9
ffd5
fff2
ff9b
ffaf
ff59
ffc4
001e
ffe4
ffda
000f
ff54
fffa
ffbb
ffe3
0020
001f
ffda
ffb9
0017
ffa9
ffe4
ff64
ffd0
ffea
ffb8
fffc
ff85
ffe9
ff66
ff70
ffe9
ffee
000b
ffb9
ffd8
ffe6
0015
ffef
ffef
fff7
fffe
ffd4
002f
0010
ffe9
ffe8
ff7b
0015
ffbd
0013
0036
0055
fff9
0004
ffd6
ffbd
0017
0007
0001
ffad
ffb0
0001
0034
ff9f
0026
ffb4
0009
fffa
ff9b
0013
004a
fefb
0017
ffa7
0020
001c
0052
ffcc
0018
0006
ffeb
ffde
ffe8
fff1
ff72
0024
0011
ffc8
0043
0032
ff2d
0046
0020
ffbb
0006
0023
ffdd
0007
ffa8
ffe4
fff5
0038
ffa8
ffc4
ffbd
ffbf
0040
0008
0016
fff0
ffab
ffea
ffa8
0013
ff9c
0022
ffe1
ffdc
0018
ffc1
ff84
ff92
ff76
ffaa
0004
003c
000d
0030
ff81
000a
ff9d
0028
ff68
ffde
fff2
ffd7
ffe9
ff9f
ffac
ff65
fff4
0052
003e
fff0
ffa0
0027
fffc
0052
ffa1
ffa8
ff81
ffb3
0011
fffa
0028
0038
ff29
ffda
0015
000c
ff9f
000c
000e
ffca
0051
0019
0030
004d
ffed
0044
ffed
ffc0
ffd6
febc
0012
ffcb
ffa2
ff70
ffe8
000e
ffe0
ffcd
ffc7
0001
ffec
ffd5
ffba
ffec
0092
ffb4
0039
0001
0030
0010
0002
ffe8
ffe3
0043
0018
ff5b
fffe
ff81
ffb6
ffe1
ffe7
ffb2
0002
ffe6
ffc7
ffb4
ff6f
ffbe
ffa8
fff2
ffda
0010
ffe4
0000
002a
ffbd
001c
0013
ff8a
ffc5
ffd9
ffe7
ff9a
ff6f
0014
ffef
0028
ffe7
003c
0025
ffe2
fffd
0011
ffc7
ffe4
ffae
ffbd
0030
0036
fee9
ffac
0020
ffe1
0004
0020
fff8
0043
ffe2
ffd8
ff7b
0000
ffb0
ffdc
fff9
ffa2
ffb6
ff60
ffcb
0025
ffeb
ffe1
0016
ff5b
0001
ffc2
ffea
0027
0026
ffe1
ffc0
001e
ffb0
ffeb
ff6b
ffd7
fff1
ffbf
0003
ff8c
fff0
ff6d
ff77
fff0
fff5
0012
ffc0
ffdf
ffed
001c
fff6
fff6
fffe
0005
ffdb
0036
0017
fff0
ffef
ff82
001c
ffc4
001a
003d
005c
0000
000b
ffdd
ffc4
001e
000e
0008
ffb4
ffb7
0008
003b
ffa6
002d
ffbb
0010
0001
ffa2
001a
0051
ff02
001e
ffae
0027
0023
0059
ffd3
001f
000d
fff2
ffe5
ffef
fff8
ff79
002b
0018
ffcf
004a
0039
ff34
004d
0027
ffc2
000d
002a
ffe4
000e
ffaf
ffeb
fffc
003f
ffaf
ffcb
ffc4
ffc6
0047
000f
001d
fff7
ffb2
fff1
ffaf
001a
ffa3
0029
ffe8
ffe3
001f
ffc8
ff8b
ff99
ff7d
ffb1
000b
0043
0014
0037
ff88
0011
ffa4
002f
ff6f
ffe5
fff9
ffde
fff0
ffa6
ffb3
ff6c
fffb
0059
0045
fff7
ffa7
002e
0003
0059
ffa8
ffaf
ff88
ffba
0018
0001
002f
003f
ff30
ffe1
001c
0013
ffa6
0013
0015
ffd1
0058
0020
0037
0054
fff4
004b
fff4
ffc7
ffdd
fec3
0019
ffd2
ffa9
ff77
ffef
0015
ffe7
ffd4
ffce
0008
fff3
ffdc
ffc1
fff3
0099
ffbb
0040
0008
0037
0017
0009
ffef
ffea
004a
001f
ff62
0005
ff88
ffbd
ffe8
ffee
ffb9
0009
ffed
ffce
ffbb
ff76
ffc5
ffaf
fff9
ffe1
0017
ffeb
0007
0031
ffc4
0023
001a
ff91
ffcc
ffe0
ffee
ffa1
ff76
001b
fff6
002f
ffee
0043
002c
ffe9
0004
0018
ffce
ffeb
ffb5
ffc4
0037
003d
fef0
ffb3
0027
ffe8
000b
0027
ffff
004a
ffe9
ffdf
ff82
0007
ffb7
ffe3
0000
ffa9
ffbd
ff67
ffd2
002c
fff2
ffe8
001d
ff62
0008
ffc9
fff1
002e
002d
ffe8
ffc7
0025
ffb7
fff2
ff72
ffde
fff8
ffc6
000a
ff93
fff7
ff74
ff7e
fff7
fffc
0019
ffc7
ffe6
fff4
0023
fffd
fffd
0005
000c
ffe2
003d
001e
fff7
fff6
ff89
0023
ffcb
0021
0044
0063
0007
0012
ffe4
ffcb
0025
0015
000f
ffbb
ffbe
000f
0042
ffad
0034
ffc2
0017
0008
ffa9
0021
0058
ff09
0025
ffb5
002e
002a
0060
ffda
0026
0014
fff9
ffec
fff6
ffff
ff80
0032
001f
ffd6
0051
0040
ff3b
0054
002e
ffc9
0014
0031
ffeb
0015
ffb6
fff2
0003
0046
ffb6
ffd2
ffcb
ffcd
004e
0016
0024
fffe
ffb9
fff8
ffb6
0021
ffaa
0030
ffef
ffea
0026
ffcf
ff92
ffa0
ff84
ffb8
0012
004a
001b
003e
ff8f
0018
ffab
0036
ff76
ffec
0000
ffe5
fff7
ffad
ffba
ff73
0002
0060
004c
fffe
ffae
0035
000a
0060
ffaf
ffb6
ff8f
ffc1
001f
0008
0036
0046
ff37
ffe8
0023
001a
ffad
001a
001c
ffd8
005f
0027
003e
005b
fffb
0052
fffb
ffce
ffe4
feca
0020
ffd9
ffb0
ff7e
fff6
001c
ffee
ffdb
ffd5
000f
fffa
ffe3
ffc8
fffa
00a0
ffc2
0047
000f
003e
001e
0010
fff6
fff1
0051
0026
ff69
000c
ff8f
ffc4
ffef
fff5
ffc0
0010
fff4
ffd5
ffc2
ff7d
ffcc
ffb6
0000
ffe8
001e
fff2
000e
0038
ffcb
002a
0021
ff98
ffd3
ffe7
fff5
ffa8
ff7d
0022
fffd
0036
fff5
004a
0033
fff0
000b
001f
ffd5
fff2
ffbc
ffcb
003e
0044
fef7
ffba
002e
ffef
0012
002e
0006
0051
fff0
ffe6
ff89
000e
ffbe
ffea
0007
ffb0
ffc4
ff6e
ffd9
0033
fff9
ffef
0024
ff69
000f
ffd0
fff8
0035
0034
ffef
ffce
002c
ffbe
fff9
ff79
ffe5
ffff
ffcd
0011
ff9a
fffe
ff7b
ff85
fffe
0003
0020
ffce
ffed
fffb
002a
0004
0004
000c
0013
ffe9
0044
0025
fffe
fffd
ff90
002a
ffd2
0028
004b
006a
000e
0019
ffeb
ffd2
002c
001c
0016
ffc2
ffc5
0016
0049
ffb4
003b
ffc9
001e
000f
ffb0
0028
005f
ff10
002c
ffbc
0035
0031
0067
ffe1
002d
001b
0000
fff3
fffd
0006
ff87
0039
0026
ffdd
0058
0047
ff42
005b
0035
ffd0
001b
0038
fff2
001c
ffbd
fff9
000a
004d
ffbd
ffd9
ffd2
ffd4
0055
001d
002b
0005
ffc0
ffff
ffbd
0028
ffb1
0037
fff6
fff1
002d
ffd6
ff99
ffa7
ff8b
ffbf
0019
0051
0022
0045
ff96
001f
ffb2
003d
ff7d
fff3
0007
ffec
fffe
ffb4
ffc1
ff7a
0009
0067
0053
ffe5
ff95
001c
fff1
0047
ff96
ff9d
ff76
ffa8
0006
ffef
001d
002d
ff1e
ffcf
000a
0001
ff94
0001
0003
ffbf
0046
000e
0025
0042
ffe2
0039
ffe2
ffb5
ffcb
feb1
0007
ffc0
ff97
ff65
ffdd
0003
ffd5
ffc2
ffbc
fff6
ffe1
ffca
ffaf
ffe1
0087
ffa9
002e
fff6
0025
0005
fff7
ffdd
ffd8
0038
000d
ff50
fff3
ff76
ffab
ffd6
ffdc
ffa7
fff7
ffdb
ffbc
ffa9
ff64
ffb3
ff9d
ffe7
ffcf
0005
ffd9
fff5
001f
ffb2
0011
0008
ff7f
ffba
ffce
ffdc
ff8f
ff64
0009
ffe4
001d
ffdc
0031
001a
ffd7
fff2
0006
ffbc
ffd9
ffa3
ffb2
0025
002b
fede
ffa1
0015
ffd6
fff9
0015
ffed
0038
ffd7
ffcd
ff70
fff5
ffa5
ffd1
ffee
ff97
ffab
ff55
ffc0
001a
ffe0
ffd6
000b
ff50
fff6
ffb7
ffdf
001c
001b
ffd6
ffb5
0013
ffa5
ffe0
ff60
ffcc
ffe6
ffb4
fff8
ff81
ffe5
ff62
ff6c
ffe5
ffea
0007
ffb5
ffd4
ffe2
0011
ffeb
ffeb
fff3
fffa
ffd0
002b
000c
ffe5
ffe4
ff77
0011
ffb9
000f
0032
0051
fff5
0000
ffd2
ffb9
0013
0003
fffd
ffa9
ffac
fffd
0030
ff9b
0022
ffb0
0005
fff6
ff97
000f
0046
fef7
0013
ffa3
001c
0018
004e
ffc8
0014
0002
ffe7
ffda
ffe4
ffed
ff6e
0020
000d
ffc4
003f
002e
ff29
0042
001c
ffb7
0002
001f
ffd9
0003
ffa4
ffe0
fff1
0034
ffa4
ffc0
ffb9
ffbb
003c
0004
0012
ffec
ffa7
ffe6
ffa4
000f
ff98
001e
ffdd
ffd8
0014
ffbd
ff80
ff8e
ff72
ffa6
0000
0038
0009
002c
ff7d
0006
ff99
0024
ff64
ffda
ffee
ffd3
ffe5
ff9b
ffa8
ff61
fff0
004e
003a
ffec
ff9c
0023
fff8
004e
ff9d
ffa4
ff7d
ffaf
000d
fff6
0024
0034
ff25
ffd6
0011
0008
ff9b
0008
000a
ffc6
004d
0015
002c
0049
ffe9
0040
ffe9
ffbc
ffd2
feb8
000e
ffc7
ff9e
ff6c
ffe4
000a
ffdc
ffc9
ffc3
fffd
ffe8
ffd1
ffb6
ffe8
008e
ffb0
0035
fffd
002c
000c
fffe
ffe4
ffdf
003f
0014
ff57
fffa
ff7d
ffb2
ffdd
ffe3
ffae
fffe
ffe2
ffc3
ffb0
ff6b
ffba
ffa4
ffee
ffd6
000c
ffe0
fffc
0026
ffb9
0018
000f
ff86
ffc1
ffd5
ffe3
ff96
ff6b
0010
ffeb
0024
ffe3
0038
0021
ffde
fff9
000d
ffc3
ffe0
ffaa
ffb9
002c
0032
fee5
ffa8
001c
ffdd
0000
001c
fff4
003f
ffde
ffd4
ff77
fffc
ffac
ffd8
fff5
ff9e
ffb2
ff5c
ffc7
0021
ffe7
ffdd
0012
ff57
fffd
ffbe
ffe6
0023
0022
ffdd
ffbc
001a
ffac
ffe7
ff67
ffd3
ffed
ffbb
ffff
ff88
ffec
ff69
ff73
ffec
fff1
000e
ffbc
ffdb
ffe9
0018
fff2
fff2
fffa
0001
ffd7
0032
0013
ffec
ffeb
ff7e
0018
ffc0
0016
0039
0058
fffc
0007
ffd9
ffc0
001a
000a
0004
ffb0
ffb3
0004
0037
ffa2
0029
ffb7
000c
fffd
ff9e
0016
004d
fefe
001a
ffaa
0023
001f
0055
ffcf
001b
0009
ffee
ffe1
ffeb
fff4
ff75
0027
0014
ffcb
0046
0035
ff30
0049
0023
ffbe
0009
0026
ffe0
000a
ffab
ffe7
fff8
003b
ffab
ffc7
ffc0
ffc2
0043
000b
0019
fff3
ffae
ffed
ffab
0016
ff9f
0025
ffe4
ffdf
001b
ffc4
ff87
ff95
ff79
ffad
0007
003f
0010
0033
ff84
000d
ffa0
002b
ff6b
ffe1
fff5
ffda
ffec
ffa2
ffaf
ff68
fff7
0055
0041
fff3
ffa3
002a
ffff
0055
ffa4
ffab
ff84
ffb6
0014
fffd
002b
003b
ff2c
ffdd
0018
000f
ffa2
000f
0011
ffcd
0054
001c
0033
0050
fff0
0047
fff0
ffc3
ffd9
febf
0015
ffce
ffa5
ff73
ffeb
0011
ffe3
ffd0
ffca
0004
ffef
ffd8
ffbd
ffef
0095
ffb7
003c
0004
0033
0013
0005
ffeb
ffe6
0046
001b
ff5e
0001
ff84
ffb9
ffe4
ffea
ffb5
0005
ffe9
ffca
ffb7
ff72
ffc1
ffab
fff5
ffdd
0013
ffe7
0003
002d
ffc0
001f
0016
ff8d
ffc8
ffdc
ffea
ff9d
ff72
0017
fff2
002b
ffea
003f
0028
ffe5
0000
0014
ffca
ffe7
ffb1
ffc0
0033
0039
feec
ffaf
0023
ffe4
0007
0023
fffb
0046
ffe5
ffdb
ff7e
0003
ffb3
ffdf
fffc
ffa5
ffb9
ff63
ffce
0028
ffee
ffe4
0019
ff5e
0004
ffc5
ffed
002a
0029
ffe4
ffc3
0021
ffb3
ffee
ff6e
ffda
fff4
ffc2
0006
ff8f
fff3
ff70
ff7a
fff3
fff8
0015
ffc3
ffe2
fff0
001f
fff9
fff9
0001
0008
ffde
0039
001a
fff3
fff2
ff85
001f
ffc7
001d
0040
005f
0003
000e
ffe0
ffc7
0021
0011
000b
ffb7
ffba
000b
003e
ffa9
0030
ffbe
0013
0004
ffa5
001d
0054
ff05
0021
ffb1
002a
0026
005c
ffd6
0022
0010
fff5
ffe8
fff2
fffb
ff7c
002e
001b
ffd2
004d
003c
ff37
0050
002a
ffc5
0010
002d
ffe7
0011
ffb2
ffee
ffff
0042
ffb2
ffce
ffc7
ffc9
004a
0012
0020
fffa
ffb5
fff4
ffb2
001d
ffa6
002c
ffeb
ffe6
0022
ffcb
ff8e
ff9c
ff80
ffb4
000e
0046
0017
003a
ff8b
0014
ffa7
0032
ff72
ffe8
fffc
ffe1
fff3
ffa9
ffb6
ff6f
fffe
005c
0048
fffa
ffaa
0031
0006
005c
ffab
ffb2
ff8b
ffbd
001b
0004
0032
0042
ff33
ffe4
001f
0016
ffa9
0016
0018
ffd4
005b
0023
003a
0057
fff7
004e
fff7
ffca
ffe0
fec6
001c
ffd5
ffac
ff7a
fff2
0018
ffea
ffd7
ffd1
000b
fff6
ffdf
ffc4
fff6
009c
ffbe
0043
000b
003a
001a
000c
fff2
ffed
004d
0022
ff65
0008
ff8b
ffc0
ffeb
fff1
ffbc
000c
fff0
ffd1
ffbe
ff79
ffc8
ffb2
fffc
ffe4
001a
ffee
000a
0034
ffc7
0026
001d
ff94
ffcf
ffe3
fff1
ffa4
ff79
001e
fff9
0032
fff1
0046
002f
ffec
0007
001b
ffd1
ffee
ffb8
ffc7
003a
0040
fef3
ffb6
002a
ffeb
000e
002a
0002
004d
ffec
ffe2
ff85
000a
ffba
ffe6
0003
ffac
ffc0
ff6a
ffd5
002f
fff5
ffeb
0020
ff65
000b
ffcc
fff4
0031
0030
ffeb
ffca
0028
ffba
fff5
ff75
ffe1
fffb
ffc9
000d
ff96
fffa
ff77
ff81
fffa
ffff
001c
ffca
ffe9
fff7
0026
0000
0000
0008
000f
ffe5
0040
0021
fffa
fff9
ff8c
0026
ffce
0024
0047
0066
000a
0015
ffe7
ffce
0028
0018
0012
ffbe
ffc1
0012
0045
ffb0
0037
ffc5
001a
000b
ffac
0024
005b
ff0c
0028
ffb8
0031
002d
0063
ffdd
0029
0017
fffc
ffef
fff9
0002
ff83
0035
0022
ffd9
0054
0043
ff3e
0057
0031
ffcc
0017
0034
ffee
0018
ffb9
fff5
0006
0049
ffb9
ffd5
ffce
ffd0
0051
0019
0027
0001
ffbc
fffb
ffb9
0024
ffad
0033
fff2
ffed
0029
ffd2
ff95
ffa3
ff87
ffbb
0015
004d
001e
0041
ff92
001b
ffae
0039
ff79
ffef
0003
ffe8
fffa
ffb0
ffbd
ff76
0005
0063
004f
0001
ffb1
0038
000d
0063
ffb2
ffb9
ff92
ffc4
0022
000b
0039
0049
ff3a
ffeb
0026
001d
ffb0
001d
001f
ffdb
0062
002a
0041
005e
fffe
0055
fffe
ffd1
ffe7
fecd
0023
ffdc
ffb3
ff81
fff9
001f
fff1
ffde
ffd8
0012
fffd
ffe6
ffcb
fffd
00a3
ffc5
004a
0012
0041
0021
0013
fff9
fff4
0054
0029
ff6c
000f
ff92
ffc7
fff2
fff8
ffc3
0013
fff7
ffd8
ffc5
ff80
ffcf
ffb9
0003
ffeb
0021
fff5
0011
003b
ffce
002d
0024
ff9b
ffd6
ffea
fff8
ffab
ff80
0025
0000
0039
fff8
004d
0036
fff3
000e
0022
ffd8
fff5
ffbf
ffce
0041
0047
fefa
ffbd
0031
fff2
0015
0031
0009
0054
fff3
ffe9
ff8c
0011
ffc1
ffed
000a
ffb3
ffc7
ff71
ffdc
0036
fffc
fff2
0027
ff6c
0012
ffd3
fffb
0038
0037
fff2
ffd1
002f
ffc1
fffc
ff7c
ffe8
0002
ffd0
0014
ff9d
0001
ff7e
ff88
0001
0006
0023
ffd1
fff0
fffe
002d
0007
0007
000f
0016
ffec
0047
0028
0001
0000
ff93
002d
ffd5
002b
004e
006d
0011
001c
ffee
ffd5
002f
001f
0019
ffc5
ffc8
0019
004c
ffb7
003e
ffcc
0021
0012
ffb3
002b
0062
ff13
002f
ffbf
0038
0034
006a
ffe4
0030
001e
0003
fff6
0000
0009
ff8a
003c
0029
ffe0
005b
004a
ff45
005e
0038
ffd3
001e
003b
fff5
001f
ffc0
fffc
000d
0050
ffc0
ffdc
ffd5
ffd7
0058
0020
002e
0008
ffc3
0002
ffc0
002b
ffb4
003a
fff9
fff4
0030
ffd9
ff9c
ffaa
ff8e
ffc2
001c
0054
0025
0048
ff99
0022
ffb5
0040
ff80
fff6
000a
ffef
0001
ffb7
ffc4
ff7d
000c
006a
0056
ffe8
ff98
001f
fff4
004a
ff99
ffa0
ff79
ffab
0009
fff2
0020
0030
ff21
ffd2
000d
0004
ff97
0004
0006
ffc2
0049
0011
0028
0045
ffe5
003c
ffe5
ffb8
ffce
feb4
000a
ffc3
ff9a
ff68
ffe0
0006
ffd8
ffc5
ffbf
fff9
ffe4
ffcd
ffb2
ffe4
008a
ffac
0031
fff9
0028
0008
fffa
ffe0
ffdb
003b
0010
ff53
fff6
ff79
ffae
ffd9
ffdf
ffaa
fffa
ffde
ffbf
ffac
ff67
ffb6
ffa0
ffea
ffd2
0008
ffdc
fff8
0022
ffb5
0014
000b
ff82
ffbd
ffd1
ffdf
ff92
ff67
000c
ffe7
0020
ffdf
0034
001d
ffda
fff5
0009
ffbf
ffdc
ffa6
ffb5
0028
002e
fee1
ffa4
0018
ffd9
fffc
0018
fff0
003b
ffda
ffd0
ff73
fff8
ffa8
ffd4
fff1
ff9a
ffae
ff58
ffc3
001d
ffe3
ffd9
000e
ff53
fff9
ffba
ffe2
001f
001e
ffd9
ffb8
0016
ffa8
ffe3
ff63
ffcf
ffe9
ffb7
fffb
ff84
ffe8
ff65
ff6f
ffe8
ffed
000a
ffb8
ffd7
ffe5
0014
ffee
ffee
fff6
fffd
ffd3
002e
000f
ffe8
ffe7
ff7a
0014
ffbc
0012
0035
0054
fff8
0003
ffd5
ffbc
0016
0006
0000
ffac
ffaf
0000
0033
ff9e
0025
ffb3
0008
fff9
ff9a
0012
0049
fefa
0016
ffa6
001f
001b
0051
ffcb
0017
0005
ffea
ffdd
ffe7
fff0
ff71
0023
0010
ffc7
0042
0031
ff2c
0045
001f
ffba
0005
0022
ffdc
0006
ffa7
ffe3
fff4
0037
ffa7
ffc3
ffbc
ffbe
003f
0007
0015
ffef
ffaa
ffe9
ffa7
0012
ff9b
0021
ffe0
ffdb
0017
ffc0
ff83
ff91
ff75
ffa9
0003
003b
000c
002f
ff80
0009
ff9c
0027
ff67
ffdd
fff1
ffd6
ffe8
ff9e
ffab
ff64
fff3
0051
003d
ffef
ff9f
0026
fffb
0051
ffa0
ffa7
ff80
ffb2
0010
fff9
0027
0037
ff28
ffd9
0014
000b
ff9e
000b
000d
ffc9
0050
0018
002f
004c
ffec
0043
ffec
ffbf
ffd5
febb
0011
ffca
ffa1
ff6f
ffe7
000d
ffdf
ffcc
ffc6
0000
ffeb
ffd4
ffb9
ffeb
0091
ffb3
0038
0000
002f
000f
0001
ffe7
ffe2
0042
0017
ff5a
fffd
ff80
ffb5
ffe0
ffe6
ffb1
0001
ffe5
ffc6
ffb3
ff6e
ffbd
ffa7
fff1
ffd9
000f
ffe3
ffff
0029
ffbc
001b
0012
ff89
ffc4
ffd8
ffe6
ff99
ff6e
0013
ffee
0027
ffe6
003b
0024
ffe1
fffc
0010
ffc6
ffe3
ffad
ffbc
002f
0035
fee8
ffab
001f
ffe0
0003
001f
fff7
0042
ffe1
ffd7
ff7a
ffff
ffaf
ffdb
fff8
ffa1
ffb5
ff5f
ffca
0024
ffea
ffe0
0015
ff5a
0000
ffc1
ffe9
0026
0025
ffe0
ffbf
001d
ffaf
ffea
ff6a
ffd6
fff0
ffbe
0002
ff8b
ffef
ff6c
ff76
ffef
fff4
0011
ffbf
ffde
ffec
001b
fff5
fff5
fffd
0004
ffda
0035
0016
ffef
ffee
ff81
001b
ffc3
0019
003c
005b
ffff
000a
ffdc
ffc3
001d
000d
0007
ffb3
ffb6
0007
003a
ffa5
002c
ffba
000f
0000
ffa1
0019
0050
ff01
001d
ffad
0026
0022
0058
ffd2
001e
000c
fff1
ffe4
ffee
fff7
ff78
002a
0017
ffce
0049
0038
ff33
004c
0026
ffc1
000c
0029
ffe3
000d
ffae
ffea
fffb
003e
ffae
ffca
ffc3
ffc5
0046
000e
001c
fff6
ffb1
fff0
ffae
0019
ffa2
0028
ffe7
ffe2
001e
ffc7
ff8a
ff98
ff7c
ffb0
000a
0042
0013
0036
ff87
0010
ffa3
002e
ff6e
ffe4
fff8
ffdd
ffef
ffa5
ffb2
ff6b
fffa
0058
0044
fff6
ffa6
002d
0002
0058
ffa7
ffae
ff87
ffb9
0017
0000
002e
003e
ff2f
ffe0
001b
0012
ffa5
0012
0014
ffd0
0057
001f
0036
0053
fff3
004a
fff3
ffc6
ffdc
fec2
0018
ffd1
ffa8
ff76
ffee
0014
ffe6
ffd3
ffcd
0007
fff2
ffdb
ffc0
fff2
0098
ffba
003f
0007
0036
0016
0008
ffee
ffe9
0049
001e
ff61
0004
ff87
ffbc
ffe7
ffed
ffb8
0008
ffec
ffcd
ffba
ff75
ffc4
ffae
fff8
ffe0
0016
ffea
0006
0030
ffc3
0022
0019
ff90
ffcb
ffdf
ffed
ffa0
ff75
001a
fff5
002e
ffed
0042
002b
ffe8
0003
0017
ffcd
ffea
ffb4
ffc3
0036
003c
feef
ffb2
0026
ffe7
000a
0026
fffe
0049
ffe8
ffde
ff81
0006
ffb6
ffe2
ffff
ffa8
ffbc
ff66
ffd1
002b
fff1
ffe7
001c
ff61
0007
ffc8
fff0
002d
002c
ffe7
ffc6
0024
ffb6
fff1
ff71
ffdd
fff7
ffc5
0009
ff92
fff6
ff73
ff7d
fff6
fffb
0018
ffc6
ffe5
fff3
0022
fffc
fffc
0004
000b
ffe1
003c
001d
fff6
fff5
ff88
0022
ffca
0020
0043
0062
0006
0011
ffe3
ffca
0024
0014
000e
ffba
ffbd
000e
0041
ffac
0033
ffc1
0016
0007
ffa8
0020
0057
ff08
0024
ffb4
002d
0029
005f
ffd9
0025
0013
fff8
ffeb
fff5
fffe
ff7f
0031
001e
ffd5
0050
003f
ff3a
0053
002d
ffc8
0013
0030
ffea
0014
ffb5
fff1
0002
0045
ffb5
ffd1
ffca
ffcc
004d
0015
0023
fffd
ffb8
fff7
ffb5
0020
ffa9
002f
ffee
ffe9
0025
ffce
ff91
ff9f
ff83
ffb7
0011
0049
001a
003d
ff8e
0017
ffaa
0035
ff75
ffeb
ffff
ffe4
fff6
ffac
ffb9
ff72
0001
005f
004b
fffd
ffad
0034
0009
005f
ffae
ffb5
ff8e
ffc0
001e
0007
0035
0045
ff36
ffe7
0022
0019
ffac
0019
001b
ffd7
005e
0026
003d
005a
fffa
0051
fffa
ffcd
ffe3
fec9
001f
ffd8
ffaf
ff7d
fff5
001b
ffed
ffda
ffd4
000e
fff9
ffe2
ffc7
fff9
009f
ffc1
0046
000e
003d
001d
000f
fff5
fff0
0050
0025
ff68
000b
ff8e
ffc3
ffee
fff4
ffbf
000f
fff3
ffd4
ffc1
ff7c
ffcb
ffb5
ffff
ffe7
001d
fff1
000d
0037
ffca
0029
0020
ff97
ffd2
ffe6
fff4
ffa7
ff7c
0021
fffc
0035
fff4
0049
0032
ffef
000a
001e
ffd4
fff1
ffbb
ffca
003d
0043
fef6
ffb9
002d
ffee
0011
002d
0005
0050
ffef
ffe5
ff88
000d
ffbd
ffe9
0006
ffaf
ffc3
ff6d
ffd8
0032
fff8
ffee
0023
ff68
000e
ffcf
fff7
0034
0033
ffee
ffcd
002b
ffbd
fff8
ff78
ffe4
fffe
ffcc
0010
ff99
fffd
ff7a
ff84
fffd
0002
001f
ffcd
ffec
fffa
0029
0003
0003
000b
0012
ffe8
0043
0024
fffd
fffc
ff8f
0029
ffd1
0027
004a
0069
000d
0018
ffea
ffd1
002b
001b
0015
ffc1
ffc4
0015
0048
ffb3
003a
ffc8
001d
000e
ffaf
0027
005e
ff0f
002b
ffbb
0034
0030
0066
ffe0
002c
001a
ffff
fff2
fffc
0005
ff86
0038
0025
ffdc
0057
0046
ff41
005a
0034
ffcf
001a
0037
fff1
001b
ffbc
fff8
0009
004c
ffbc
ffd8
ffd1
ffd3
0054
001c
002a
0004
ffbf
fffe
ffbc
0027
ffb0
0036
fff5
fff0
002c
ffd5
ff98
ffa6
ff8a
ffbe
0018
0050
0021
0044
ff95
001e
ffb1
003c
ff7c
fff2
0006
ffeb
fffd
ffb3
ffc0
ff79
0008
0066
0052
0004
ffb4
003b
0010
0066
ffb5
ffbc
ff95
ffc7
0025
000e
003c
004c
ff3d
ffee
0029
0020
ffb3
0020
0022
ffde
0065
002d
0044
0061
0001
0058
0001
ffd4
ffea
fed0
0026
ffdf
ffb6
ff84
fffc
0022
fff4
ffe1
ffdb
0015
0000
ffe9
ffce
0000
00a6
ffc8
004d
0015
0044
0024
0016
fffc
fff7
0057
002c
ff6f
0012
ff95
ffca
fff5
fffb
ffc6
0016
fffa
ffdb
ffc8
ff83
ffd2
ffbc
0006
ffee
0024
fff8
0014
003e
ffd1
0030
0027
ff9e
ffd9
ffed
fffb
ffae
ff83
0028
0003
003c
fffb
0050
0039
fff6
0011
0025
ffdb
fff8
ffc2
ffd1
0044
004a
fefd
ffc0
0034
fff5
0018
0034
000c
0057
fff6
ffec
ff8f
0014
ffc4
fff0
000d
ffb6
ffca
ff74
ffdf
0039
ffff
fff5
002a
ff6f
0015
ffd6
fffe
003b
003a
fff5
ffd4
0032
ffc4
ffff
ff7f
ffeb
0005
ffd3
0017
ffa0
0004
ff81
ff8b
0004
0009
0026
ffd4
fff3
0001
0030
000a
000a
0012
0019
ffef
004a
002b
0004
0003
ff96
0030
ffd8
002e
0051
0070
0014
001f
fff1
ffd8
0032
0022
001c
ffc8
ffcb
001c
004f
ffba
0041
ffcf
0024
0015
ffb6
002e
0065
ff16
0032
ffc2
003b
0037
006d
ffe7
0033
0021
0006
fff9
0003
000c
ff8d
003f
002c
ffe3
005e
004d
ff48
0061
003b
ffd6
0021
003e
fff8
0022
ffc3
ffff
0010
0053
ffc3
ffdf
ffd8
ffda
005b
0023
0031
000b
ffc6
0005
ffc3
002e
ffb7
003d
fffc
fff7
0033
ffdc
ff9f
ffad
ff91
ffc5
001f
0057
0028
004b
ff9c
0025
ffb8
0043
ff83
fff9
000d
fff2
0004
ffba
ffc7
ff80
000f
006d
0059
ffeb
ff9b
0022
fff7
004d
ff9c
ffa3
ff7c
ffae
000c
fff5
0023
0033
ff24
ffd5
0010
0007
ff9a
0007
0009
ffc5
004c
0014
002b
0048
ffe8
003f
ffe8
ffbb
ffd1
feb7
000d
ffc6
ff9d
ff6b
ffe3
0009
ffdb
ffc8
ffc2
fffc
ffe7
ffd0
ffb5
ffe7
008d
ffaf
0034
fffc
002b
000b
fffd
ffe3
ffde
003e
0013
ff56
fff9
ff7c
ffb1
ffdc
ffe2
ffad
fffd
ffe1
ffc2
ffaf
ff6a
ffb9
ffa3
ffed
ffd5
000b
ffdf
fffb
0025
ffb8
0017
000e
ff85
ffc0
ffd4
ffe2
ff95
ff6a
000f
ffea
0023
ffe2
0037
0020
ffdd
fff8
000c
ffc2
ffdf
ffa9
ffb8
002b
0031
fee4
ffa7
001b
ffdc
ffff
001b
fff3
003e
ffdd
ffd3
ff76
fffb
ffab
ffd7
fff4
ff9d
ffb1
ff5b
ffc6
0020
ffe6
ffdc
0011
ff56
fffc
ffbd
ffe5
0022
0021
ffdc
ffbb
0019
ffab
ffe6
ff66
ffd2
ffec
ffba
fffe
ff87
ffeb
ff68
ff72
ffeb
fff0
000d
ffbb
ffda
ffe8
0017
fff1
fff1
fff9
0000
ffd6
0031
0012
ffeb
ffea
ff7d
0017
ffbf
0015
0038
0057
fffb
0006
ffd8
ffbf
0019
0009
0003
ffaf
ffb2
0003
0036
ffa1
0028
ffb6
000b
fffc
ff9d
0015
004c
fefd
0019
ffa9
0022
001e
0054
ffce
001a
0008
ffed
ffe0
ffea
fff3
ff74
0026
0013
ffca
0045
0034
ff2f
0048
0022
ffbd
0008
0025
ffdf
0009
ffaa
ffe6
fff7
003a
ffaa
ffc6
ffbf
ffc1
0042
000a
0018
fff2
ffad
ffec
ffaa
0015
ff9e
0024
ffe3
ffde
001a
ffc3
ff86
ff94
ff78
ffac
0006
003e
000f
0032
ff83
000c
ff9f
002a
ff6a
ffe0
fff4
ffd9
ffeb
ffa1
ffae
ff67
fff6
0054
0040
fff2
ffa2
0029
fffe
0054
ffa3
ffaa
ff83
ffb5
0013
fffc
002a
003a
ff2b
ffdc
0017
000e
ffa1
000e
0010
ffcc
0053
001b
0032
004f
ffef
0046
ffef
ffc2
ffd8
febe
0014
ffcd
ffa4
ff72
ffea
0010
ffe2
ffcf
ffc9
0003
ffee
ffd7
ffbc
ffee
0094
ffb6
003b
0003
0032
0012
0004
ffea
ffe5
0045
001a
ff5d
0000
ff83
ffb8
ffe3
ffe9
ffb4
0004
ffe8
ffc9
ffb6
ff71
ffc0
ffaa
fff4
ffdc
0012
ffe6
0002
002c
ffbf
001e
0015
ff8c
ffc7
ffdb
ffe9
ff9c
ff71
0016
fff1
002a
ffe9
003e
0027
ffe4
ffff
0013
ffc9
ffe6
ffb0
ffbf
0032
0038
feeb
ffae
0022
ffe3
0006
0022
fffa
0045
ffe4
ffda
ff7d
0002
ffb2
ffde
fffb
ffa4
ffb8
ff62
ffcd
0027
ffed
ffe3
0018
ff5d
0003
ffc4
ffec
0029
0028
ffe3
ffc2
0020
ffb2
ffed
ff6d
ffd9
fff3
ffc1
0005
ff8e
fff2
ff6f
ff79
fff2
fff7
0014
ffc2
ffe1
ffef
001e
fff8
fff8
0000
0007
ffdd
0038
0019
fff2
fff1
ff84
001e
ffc6
001c
003f
005e
0002
000d
ffdf
ffc6
0020
0010
000a
ffb6
ffb9
000a
003d
ffa8
002f
ffbd
0012
0003
ffa4
001c
0053
ff04
0020
ffb0
0029
0025
005b
ffd5
0021
000f
fff4
ffe7
fff1
fffa
ff7b
002d
001a
ffd1
004c
003b
ff36
004f
0029
ffc4
000f
002c
ffe6
0010
ffb1
ffed
fffe
0041
ffb1
ffcd
ffc6
ffc8
0049
0011
001f
fff9
ffb4
fff3
ffb1
001c
ffa5
002b
ffea
ffe5
0021
ffca
ff8d
ff9b
ff7f
ffb3
000d
0045
0016
0039
ff8a
0013
ffa6
0031
ff71
ffe7
fffb
ffe0
fff2
ffa8
ffb5
ff6e
fffd
005b
0047
fff9
ffa9
0030
0005
005b
ffaa
ffb1
ff8a
ffbc
001a
0003
0031
0041
ff32
ffe3
001e
0015
ffa8
0015
0017
ffd3
005a
0022
0039
0056
fff6
004d
fff6
ffc9
ffdf
fec5
001b
ffd4
ffab
ff79
fff1
0017
ffe9
ffd6
ffd0
000a
fff5
ffde
ffc3
fff5
009b
ffbd
0042
000a
0039
0019
000b
fff1
ffec
004c
0021
ff64
0007
ff8a
ffbf
ffea
fff0
ffbb
000b
ffef
ffd0
ffbd
ff78
ffc7
ffb1
fffb
ffe3
0019
ffed
0009
0033
ffc6
0025
001c
ff93
ffce
ffe2
fff0
ffa3
ff78
001d
fff8
0031
fff0
0045
002e
ffeb
0006
001a
ffd0
ffed
ffb7
ffc6
0039
003f
fef2
ffb5
0029
ffea
000d
0029
0001
004c
ffeb
ffe1
ff84
0009
ffb9
ffe5
0002
ffab
ffbf
ff69
ffd4
002e
fff4
ffea
001f
ff64
000a
ffcb
fff3
0030
002f
ffea
ffc9
0027
ffb9
fff4
ff74
ffe0
fffa
ffc8
000c
ff95
fff9
ff76
ff80
fff9
fffe
001b
ffc9
ffe8
fff6
0025
ffff
ffff
0007
000e
ffe4
003f
0020
fff9
fff8
ff8b
0025
ffcd
0023
0046
0065
0009
0014
ffe6
ffcd
0027
0017
0011
ffbd
ffc0
0011
0044
ffaf
0036
ffc4
0019
000a
ffab
0023
005a
ff0b
0027
ffb7
0030
002c
0062
ffdc
0028
0016
fffb
ffee
fff8
0001
ff82
0034
0021
ffd8
0053
0042
ff3d
0056
0030
ffcb
0016
0033
ffed
0017
ffb8
fff4
0005
0048
ffb8
ffd4
ffcd
ffcf
0050
0018
0026
0000
ffbb
fffa
ffb8
0023
ffac
0032
fff1
ffec
0028
ffd1
ff94
ffa2
ff86
ffba
0014
004c
001d
0040
ff91
001a
ffad
0038
ff78
ffee
0002
ffe7
fff9
ffaf
ffbc
ff75
0004
0062
004e
0000
ffb0
0037
000c
0062
ffb1
ffb8
ff91
ffc3
0021
000a
0038
0048
ff39
ffea
0025
001c
ffaf
001c
001e
ffda
0061
0029
0040
005d
fffd
0054
fffd
ffd0
ffe6
fecc
0022
ffdb
ffb2
ff80
fff8
001e
fff0
ffdd
ffd7
0011
fffc
ffe5
ffca
fffc
00a2
ffc4
0049
0011
0040
0020
0012
fff8
fff3
0053
0028
ff6b
000e
ff91
ffc6
fff1
fff7
ffc2
0012
fff6
ffd7
ffc4
ff7f
ffce
ffb8
0002
ffea
0020
fff4
0010
003a
ffcd
002c
0023
ff9a
ffd5
ffe9
fff7
ffaa
ff7f
0024
ffff
0038
fff7
004c
0035
fff2
000d
0021
ffd7
fff4
ffbe
ffcd
0040
0046
fef9
ffbc
0030
fff1
0014
0030
0008
0053
fff2
ffe8
ff8b
0010
ffc0
ffec
0009
ffb2
ffc6
ff70
ffdb
0035
fffb
fff1
0026
ff6b
0011
ffd2
fffa
0037
0036
fff1
ffd0
002e
ffc0
fffb
ff7b
ffe7
0001
ffcf
0013
ff9c
0000
ff7d
ff87
0000
0005
0022
ffd0
ffef
fffd
002c
0006
0006
000e
0015
ffeb
0046
0027
0000
ffff
ff92
002c
ffd4
002a
004d
006c
0010
001b
ffed
ffd4
002e
001e
0018
ffc4
ffc7
0018
004b
ffb6
003d
ffcb
0020
0011
ffb2
002a
0061
ff12
002e
ffbe
0037
0033
0069
ffe3
002f
001d
0002
fff5
ffff
0008
ff89
003b
0028
ffdf
005a
0049
ff44
005d
0037
ffd2
001d
003a
fff4
001e
ffbf
fffb
000c
004f
ffbf
ffdb
ffd4
ffd6
0057
001f
002d
0007
ffc2
0001
ffbf
002a
ffb3
0039
fff8
fff3
002f
ffd8
ff9b
ffa9
ff8d
ffc1
001b
0053
0024
0047
ff98
0021
ffb4
003f
ff7f
fff5
0009
ffee
0000
ffb6
ffc3
ff7c
000b
0069
0055
ffe7
ff97
001e
fff3
0049
ff98
ff9f
ff78
ffaa
0008
fff1
001f
002f
ff20
ffd1
000c
0003
ff96
0003
0005
ffc1
0048
0010
0027
0044
ffe4
003b
ffe4
ffb7
ffcd
feb3
0009
ffc2
ff99
ff67
ffdf
0005
ffd7
ffc4
ffbe
fff8
ffe3
ffcc
ffb1
ffe3
0089
ffab
0030
fff8
0027
0007
fff9
ffdf
ffda
003a
000f
ff52
fff5
ff78
ffad
ffd8
ffde
ffa9
fff9
ffdd
ffbe
ffab
ff66
ffb5
ff9f
ffe9
ffd1
0007
ffdb
fff7
0021
ffb4
0013
000a
ff81
ffbc
ffd0
ffde
ff91
ff66
000b
ffe6
001f
ffde
0033
001c
ffd9
fff4
0008
ffbe
ffdb
ffa5
ffb4
0027
002d
fee0
ffa3
0017
ffd8
fffb
0017
ffef
003a
ffd9
ffcf
ff72
fff7
ffa7
ffd3
fff0
ff99
ffad
ff57
ffc2
001c
ffe2
ffd8
000d
ff52
fff8
ffb9
ffe1
001e
001d
ffd8
ffb7
0015
ffa7
ffe2
ff62
ffce
ffe8
ffb6
fffa
ff83
ffe7
ff64
ff6e
ffe7
ffec
0009
ffb7
ffd6
ffe4
0013
ffed
ffed
fff5
fffc
ffd2
002d
000e
ffe7
ffe6
ff79
0013
ffbb
0011
0034
0053
fff7
0002
ffd4
ffbb
0015
0005
ffff
ffab
ffae
ffff
0032
ff9d
0024
ffb2
0007
fff8
ff99
0011
0048
fef9
0015
ffa5
001e
001a
0050
ffca
0016
0004
ffe9
ffdc
ffe6
ffef
ff70
0022
000f
ffc6
0041
0030
ff2b
0044
001e
ffb9
0004
0021
ffdb
0005
ffa6
ffe2
fff3
0036
ffa6
ffc2
ffbb
ffbd
003e
0006
0014
ffee
ffa9
ffe8
ffa6
0011
ff9a
0020
ffdf
ffda
0016
ffbf
ff82
ff90
ff74
ffa8
0002
003a
000b
002e
ff7f
0008
ff9b
0026
ff66
ffdc
fff0
ffd5
ffe7
ff9d
ffaa
ff63
fff2
0050
003c
ffee
ff9e
0025
fffa
0050
ff9f
ffa6
ff7f
ffb1
000f
fff8
0026
0036
ff27
ffd8
0013
000a
ff9d
000a
000c
ffc8
004f
0017
002e
004b
ffeb
0042
ffeb
ffbe
ffd4
feba
0010
ffc9
ffa0
ff6e
ffe6
000c
ffde
ffcb
ffc5
ffff
ffea
ffd3
ffb8
ffea
0090
ffb2
0037
ffff
002e
000e
0000
ffe6
ffe1
0041
0016
ff59
fffc
ff7f
ffb4
ffdf
ffe5
ffb0
0000
ffe4
ffc5
ffb2
ff6d
ffbc
ffa6
fff0
ffd8
000e
ffe2
fffe
0028
ffbb
001a
0011
ff88
ffc3
ffd7
ffe5
ff98
ff6d
0012
ffed
0026
ffe5
003a
0023
ffe0
fffb
000f
ffc5
ffe2
ffac
ffbb
002e
0034
fee7
ffaa
001e
ffdf
0002
001e
fff6
0041
ffe0
ffd6
ff79
fffe
ffae
ffda
fff7
ffa0
ffb4
ff5e
ffc9
0023
ffe9
ffdf
0014
ff59
ffff
ffc0
ffe8
0025
0024
ffdf
ffbe
001c
ffae
ffe9
ff69
ffd5
ffef
ffbd
0001
ff8a
ffee
ff6b
ff75
ffee
fff3
0010
ffbe
ffdd
ffeb
001a
fff4
fff4
fffc
0003
ffd9
0034
0015
ffee
ffed
ff80
001a
ffc2
0018
003b
005a
fffe
0009
ffdb
ffc2
001c
000c
0006
ffb2
ffb5
0006
0039
ffa4
002b
ffb9
000e
ffff
ffa0
0018
004f
ff00
001c
ffac
0025
0021
0057
ffd1
001d
000b
fff0
ffe3
ffed
fff6
ff77
0029
0016
ffcd
0048
0037
ff32
004b
0025
ffc0
000b
0028
ffe2
000c
ffad
ffe9
fffa
003d
ffad
ffc9
ffc2
ffc4
0045
000d
001b
fff5
ffb0
ffef
ffad
0018
ffa1
0027
ffe6
ffe1
001d
ffc6
ff89
ff97
ff7b
ffaf
0009
0041
0012
0035
ff86
000f
ffa2
002d
ff6d
ffe3
fff7
ffdc
ffee
ffa4
ffb1
ff6a
fff9
0057
0043
fff5
ffa5
002c
0001
0057
ffa6
ffad
ff86
ffb8
0016
ffff
002d
003d
ff2e
ffdf
001a
0011
ffa4
0011
0013
ffcf
0056
001e
0035
0052
fff2
0049
fff2
ffc5
ffdb
fec1
0017
ffd0
ffa7
ff75
ffed
0013
ffe5
ffd2
ffcc
0006
fff1
ffda
ffbf
fff1
0097
ffb9
003e
0006
0035
0015
0007
ffed
ffe8
0048
001d
ff60
0003
ff86
ffbb
ffe6
ffec
ffb7
0007
ffeb
ffcc
ffb9
ff74
ffc3
ffad
fff7
ffdf
0015
ffe9
0005
002f
ffc2
0021
0018
ff8f
ffca
ffde
ffec
ff9f
ff74
0019
fff4
002d
ffec
0041
002a
ffe7
0002
0016
ffcc
ffe9
ffb3
ffc2
0035
003b
feee
ffb1
0025
ffe6
0009
0025
fffd
0048
ffe7
ffdd
ff80
0005
ffb5
ffe1
fffe
ffa7
ffbb
ff65
ffd0
002a
fff0
ffe6
001b
ff60
0006
ffc7
ffef
002c
002b
ffe6
ffc5
0023
ffb5
fff0
ff70
ffdc
fff6
ffc4
0008
ff91
fff5
ff72
ff7c
fff5
fffa
0017
ffc5
ffe4
fff2
0021
fffb
fffb
0003
000a
ffe0
003b
001c
fff5
fff4
ff87
0021
ffc9
001f
0042
0061
0005
0010
ffe2
ffc9
0023
0013
000d
ffb9
ffbc
000d
0040
ffab
0032
ffc0
0015
0006
ffa7
001f
0056
ff07
0023
ffb3
002c
0028
005e
ffd8
0024
0012
fff7
ffea
fff4
fffd
ff7e
0030
001d
ffd4
004f
003e
ff39
0052
002c
ffc7
0012
002f
ffe9
0013
ffb4
fff0
0001
0044
ffb4
ffd0
ffc9
ffcb
004c
0014
0022
fffc
ffb7
fff6
ffb4
001f
ffa8
002e
ffed
ffe8
0024
ffcd
ff90
ff9e
ff82
ffb6
0010
0048
0019
003c
ff8d
0016
ffa9
0034
ff74
ffea
fffe
ffe3
fff5
ffab
ffb8
ff71
0000
005e
004a
fffc
ffac
0033
0008
005e
ffad
ffb4
ff8d
ffbf
001d
0006
0034
0044
ff35
ffe6
0021
0018
ffab
0018
001a
ffd6
005d
0025
003c
0059
fff9
0050
fff9
ffcc
ffe2
fec8
001e
ffd7
ffae
ff7c
fff4
001a
ffec
ffd9
ffd3
000d
fff8
ffe1
ffc6
fff8
009e
ffc0
0045
000d
003c
001c
000e
fff4
ffef
004f
0024
ff67
000a
ff8d
ffc2
ffed
fff3
ffbe
000e
fff2
ffd3
ffc0
ff7b
ffca
ffb4
fffe
ffe6
001c
fff0
000c
0036
ffc9
0028
001f
ff96
ffd1
ffe5
fff3
ffa6
ff7b
0020
fffb
0034
fff3
0048
0031
ffee
0009
001d
ffd3
fff0
ffba
ffc9
003c
0042
fef5
ffb8
002c
ffed
0010
002c
0004
004f
ffee
ffe4
ff87
000c
ffbc
ffe8
0005
ffae
ffc2
ff6c
ffd7
0031
fff7
ffed
0022
ff67
000d
ffce
fff6
0033
0032
ffed
ffcc
002a
ffbc
fff7
ff77
ffe3
fffd
ffcb
000f
ff98
fffc
ff79
ff83
fffc
0001
001e
ffcc
ffeb
fff9
0028
0002
0002
000a
0011
ffe7
0042
0023
fffc
fffb
ff8e
0028
ffd0
0026
0049
0068
000c
0017
ffe9
ffd0
002a
001a
0014
ffc0
ffc3
0014
0047
ffb2
0039
ffc7
001c
000d
ffae
0026
005d
ff0e
002a
ffba
0033
002f
0065
ffdf
002b
0019
fffe
fff1
fffb
0004
ff85
0037
0024
ffdb
0056
0045
ff40
0059
0033
ffce
0019
0036
fff0
001a
ffbb
fff7
0008
004b
ffbb
ffd7
ffd0
ffd2
0053
001b
0029
0003
ffbe
fffd
ffbb
0026
ffaf
0035
fff4
ffef
002b
ffd4
ff97
ffa5
ff89
ffbd
0017
004f
0020
0043
ff94
001d
ffb0
003b
ff7b
fff1
0005
ffea
fffc
ffb2
ffbf
ff78
0007
0065
0051
0003
ffb3
003a
000f
0065
ffb4
ffbb
ff94
ffc6
0024
000d
003b
004b
ff3c
ffed
0028
001f
ffb2
001f
0021
ffdd
0064
002c
0043
0060
0000
0057
0000
ffd3
ffe9
fecf
0025
ffde
ffb5
ff83
fffb
0021
fff3
ffe0
ffda
0014
ffff
ffe8
ffcd
ffff
00a5
ffc7
004c
0014
0043
0023
0015
fffb
fff6
0056
002b
ff6e
0011
ff94
ffc9
fff4
fffa
ffc5
0015
fff9
ffda
ffc7
ff82
ffd1
ffbb
0005
ffed
0023
fff7
0013
003d
ffd0
002f
0026
ff9d
ffd8
ffec
fffa
ffad
ff82
0027
0002
003b
fffa
004f
0038
fff5
0010
0024
ffda
fff7
ffc1
ffd0
0043
0049
fefc
ffbf
0033
fff4
0017
0033
000b
0056
fff5
ffeb
ff8e
0013
ffc3
ffef
000c
ffb5
ffc9
ff73
ffde
0038
fffe
fff4
0029
ff6e
0014
ffd5
fffd
003a
0039
fff4
ffd3
0031
ffc3
fffe
ff7e
ffea
0004
ffd2
0016
ff9f
0003
ff80
ff8a
0003
0008
0025
ffd3
fff2
0000
002f
0009
0009
0011
0018
ffee
0049
002a
0003
0002
ff95
002f
ffd7
002d
0050
006f
0013
001e
fff0
ffd7
0031
0021
001b
ffc7
ffca
001b
004e
ffb9
0040
ffce
0023
0014
ffb5
002d
0064
ff15
0031
ffc1
003a
0036
006c
ffe6
0032
0020
0005
fff8
0002
000b
ff8c
003e
002b
ffe2
005d
004c
ff47
0060
003a
ffd5
0020
003d
fff7
0021
ffc2
fffe
000f
0052
ffc2
ffde
ffd7
ffd9
005a
0022
0030
000a
ffc5
0004
ffc2
002d
ffb6
003c
fffb
fff6
0032
ffdb
ff9e
ffac
ff90
ffc4
001e
0056
0027
004a
ff9b
0024
ffb7
0042
ff82
fff8
000c
fff1
0003
ffb9
ffc6
ff7f
000e
006c
0058
ffea
ff9a
0021
fff6
004c
ff9b
ffa2
ff7b
ffad
000b
fff4
0022
0032
ff23
ffd4
000f
0006
ff99
0006
0008
ffc4
004b
0013
002a
0047
ffe7
003e
ffe7
ffba
ffd0
feb6
000c
ffc5
ff9c
ff6a
ffe2
0008
ffda
ffc7
ffc1
fffb
ffe6
ffcf
ffb4
ffe6
008c
ffae
0033
fffb
002a
000a
fffc
ffe2
ffdd
003d
0012
ff55
fff8
ff7b
ffb0
ffdb
ffe1
ffac
fffc
ffe0
ffc1
ffae
ff69
ffb8
ffa2
ffec
ffd4
000a
ffde
fffa
0024
ffb7
0016
000d
ff84
ffbf
ffd3
ffe1
ff94
ff69
000e
ffe9
0022
ffe1
0036
001f
ffdc
fff7
000b
ffc1
ffde
ffa8
ffb7
002a
0030
fee3
ffa6
001a
ffdb
fffe
001a
fff2
003d
ffdc
ffd2
ff75
fffa
ffaa
ffd6
fff3
ff9c
ffb0
ff5a
ffc5
001f
ffe5
ffdb
0010
ff55
fffb
ffbc
ffe4
0021
0020
ffdb
ffba
0018
ffaa
ffe5
ff65
ffd1
ffeb
ffb9
fffd
ff86
ffea
ff67
ff71
ffea
ffef
000c
ffba
ffd9
ffe7
0016
fff0
fff0
fff8
ffff
ffd5
0030
0011
ffea
ffe9
ff7c
0016
ffbe
0014
0037
0056
fffa
0005
ffd7
ffbe
0018
0008
0002
ffae
ffb1
0002
0035
ffa0
0027
ffb5
000a
fffb
ff9c
0014
004b
fefc
0018
ffa8
0021
001d
0053
ffcd
0019
0007
ffec
ffdf
ffe9
fff2
ff73
0025
0012
ffc9
0044
0033
ff2e
0047
0021
ffbc
0007
0024
ffde
0008
ffa9
ffe5
fff6
0039
ffa9
ffc5
ffbe
ffc0
0041
0009
0017
fff1
ffac
ffeb
ffa9
0014
ff9d
0023
ffe2
ffdd
0019
ffc2
ff85
ff93
ff77
ffab
0005
003d
000e
0031
ff82
000b
ff9e
0029
ff69
ffdf
fff3
ffd8
ffea
ffa0
ffad
ff66
fff5
0053
003f
fff1
ffa1
0028
fffd
0053
ffa2
ffa9
ff82
ffb4
0012
fffb
0029
0039
ff2a
ffdb
0016
000d
ffa0
000d
000f
ffcb
0052
001a
0031
004e
ffee
0045
ffee
ffc1
ffd7
febd
0013
ffcc
ffa3
ff71
ffe9
000f
ffe1
ffce
ffc8
0002
ffed
ffd6
ffbb
ffed
0093
ffb5
003a
0002
0031
0011
0003
ffe9
ffe4
0044
0019
ff5c
ffff
ff82
ffb7
ffe2
ffe8
ffb3
0003
ffe7
ffc8
ffb5
ff70
ffbf
ffa9
fff3
ffdb
0011
ffe5
0001
002b
ffbe
001d
0014
ff8b
ffc6
ffda
ffe8
ff9b
ff70
0015
fff0
0029
ffe8
003d
0026
ffe3
fffe
0012
ffc8
ffe5
ffaf
ffbe
0031
0037
feea
ffad
0021
ffe2
0005
0021
fff9
0044
ffe3
ffd9
ff7c
0001
ffb1
ffdd
fffa
ffa3
ffb7
ff61
ffcc
0026
ffec
ffe2
0017
ff5c
0002
ffc3
ffeb
0028
0027
ffe2
ffc1
001f
ffb1
ffec
ff6c
ffd8
fff2
ffc0
0004
ff8d
fff1
ff6e
ff78
fff1
fff6
0013
ffc1
ffe0
ffee
001d
fff7
fff7
ffff
0006
ffdc
0037
0018
fff1
fff0
ff83
001d
ffc5
001b
003e
005d
0001
000c
ffde
ffc5
001f
000f
0009
ffb5
ffb8
0009
003c
ffa7
002e
ffbc
0011
0002
ffa3
001b
0052
ff03
001f
ffaf
0028
0024
005a
ffd4
0020
000e
fff3
ffe6
fff0
fff9
ff7a
002c
0019
ffd0
004b
003a
ff35
004e
0028
ffc3
000e
002b
ffe5
000f
ffb0
ffec
fffd
0040
ffb0
ffcc
ffc5
ffc7
0048
0010
001e
fff8
ffb3
fff2
ffb0
001b
ffa4
002a
ffe9
ffe4
0020
ffc9
ff8c
ff9a
ff7e
ffb2
000c
0044
0015
0038
ff89
0012
ffa5
0030
ff70
ffe6
fffa
ffdf
fff1
ffa7
ffb4
ff6d
fffc
005a
0046
fff8
ffa8
002f
0004
005a
ffa9
ffb0
ff89
ffbb
0019
0002
0030
0040
ff31
ffe2
001d
0014
ffa7
0014
0016
ffd2
0059
0021
0038
0055
fff5
004c
fff5
ffc8
ffde
fec4
001a
ffd3
ffaa
ff78
fff0
0016
ffe8
ffd5
ffcf
0009
fff4
ffdd
ffc2
fff4
009a
ffbc
0041
0009
0038
0018
000a
fff0
ffeb
004b
0020
ff63
0006
ff89
ffbe
ffe9
ffef
ffba
000a
ffee
ffcf
ffbc
ff77
ffc6
ffb0
fffa
ffe2
0018
ffec
0008
0032
ffc5
0024
001b
ff92
ffcd
ffe1
ffef
ffa2
ff77
001c
fff7
0030
ffef
0044
002d
ffea
0005
0019
ffcf
ffec
ffb6
ffc5
0038
003e
fef1
ffb4
0028
ffe9
000c
0028
0000
004b
ffea
ffe0
ff83
0008
ffb8
ffe4
0001
ffaa
ffbe
ff68
ffd3
002d
fff3
ffe9
001e
ff63
0009
ffca
fff2
002f
002e
ffe9
ffc8
0026
ffb8
fff3
ff73
ffdf
fff9
ffc7
000b
ff94
fff8
ff75
ff7f
fff8
fffd
001a
ffc8
ffe7
fff5
0024
fffe
fffe
0006
000d
ffe3
003e
001f
fff8
fff7
ff8a
0024
ffcc
0022
0045
0064
0008
0013
ffe5
ffcc
0026
0016
0010
ffbc
ffbf
0010
0043
ffae
0035
ffc3
0018
0009
ffaa
0022
0059
ff0a
0026
ffb6
002f
002b
0061
ffdb
0027
0015
fffa
ffed
fff7
0000
ff81
0033
0020
ffd7
0052
0041
ff3c
0055
002f
ffca
0015
0032
ffec
0016
ffb7
fff3
0004
0047
ffb7
ffd3
ffcc
ffce
004f
0017
0025
ffff
ffba
fff9
ffb7
0022
ffab
0031
fff0
ffeb
0027
ffd0
ff93
ffa1
ff85
ffb9
0013
004b
001c
003f
ff90
0019
ffac
0037
ff77
ffed
0001
ffe6
fff8
ffae
ffbb
ff74
0003
0061
004d
ffff
ffaf
0036
000b
0061
ffb0
ffb7
ff90
ffc2
0020
0009
0037
0047
ff38
ffe9
0024
001b
ffae
001b
001d
ffd9
0060
0028
003f
005c
fffc
0053
fffc
ffcf
ffe5
fecb
0021
ffda
ffb1
ff7f
fff7
001d
ffef
ffdc
ffd6
0010
fffb
ffe4
ffc9
fffb
00a1
ffc3
0048
0010
003f
001f
0011
fff7
fff2
0052
0027
ff6a
000d
ff90
ffc5
fff0
fff6
ffc1
0011
fff5
ffd6
ffc3
ff7e
ffcd
ffb7
0001
ffe9
001f
fff3
000f
0039
ffcc
002b
0022
ff99
ffd4
ffe8
fff6
ffa9
ff7e
0023
fffe
0037
fff6
004b
0034
fff1
000c
0020
ffd6
fff3
ffbd
ffcc
003f
0045
fef8
ffbb
002f
fff0
0013
002f
0007
0052
fff1
ffe7
ff8a
000f
ffbf
ffeb
0008
ffb1
ffc5
ff6f
ffda
0034
fffa
fff0
0025
ff6a
0010
ffd1
fff9
0036
0035
fff0
ffcf
002d
ffbf
fffa
ff7a
ffe6
0000
ffce
0012
ff9b
ffff
ff7c
ff86
ffff
0004
0021
ffcf
ffee
fffc
002b
0005
0005
000d
0014
ffea
0045
0026
ffff
fffe
ff91
002b
ffd3
0029
004c
006b
000f
001a
ffec
ffd3
002d
001d
0017
ffc3
ffc6
0017
004a
ffb5
003c
ffca
001f
0010
ffb1
0029
0060
ff11
002d
ffbd
0036
0032
0068
ffe2
002e
001c
0001
fff4
fffe
0007
ff88
003a
0027
ffde
0059
0048
ff43
005c
0036
ffd1
001c
0039
fff3
001d
ffbe
fffa
000b
004e
ffbe
ffda
ffd3
ffd5
0056
001e
002c
0006
ffc1
0000
ffbe
0029
ffb2
0038
fff7
fff2
002e
ffd7
ff9a
ffa8
ff8c
ffc0
001a
0052
0023
0046
ff97
0020
ffb3
003e
ff7e
fff4
0008
ffed
ffff
ffb5
ffc2
ff7b
000a
0068
0054
ffe6
ff96
001d
fff2
0048
ff97
ff9e
ff77
ffa9
0007
fff0
001e
002e
ff1f
ffd0
000b
0002
ff95
0002
0004
ffc0
0047
000f
0026
0043
ffe3
003a
ffe3
ffb6
ffcc
feb2
0008
ffc1
ff98
ff66
ffde
0004
ffd6
ffc3
ffbd
fff7
ffe2
ffcb
ffb0
ffe2
0088
ffaa
002f
fff7
0026
0006
fff8
ffde
ffd9
0039
000e
ff51
fff4
ff77
ffac
ffd7
ffdd
ffa8
fff8
ffdc
ffbd
ffaa
ff65
ffb4
ff9e
ffe8
ffd0
0006
ffda
fff6
0020
ffb3
0012
0009
ff80
ffbb
ffcf
ffdd
ff90
ff65
000a
ffe5
001e
ffdd
0032
001b
ffd8
fff3
0007
ffbd
ffda
ffa4
ffb3
0026
002c
fedf
ffa2
0016
ffd7
fffa
0016
ffee
0039
ffd8
ffce
ff71
fff6
ffa6
ffd2
ffef
ff98
ffac
ff56
ffc1
001b
ffe1
ffd7
000c
ff51
fff7
ffb8
ffe0
001d
001c
ffd7
ffb6
0014
ffa6
ffe1
ff61
ffcd
ffe7
ffb5
fff9
ff82
ffe6
ff63
ff6d
ffe6
ffeb
0008
ffb6
ffd5
ffe3
0012
ffec
ffec
fff4
fffb
ffd1
002c
000d
ffe6
ffe5
ff78
0012
ffba
0010
0033
0052
fff6
0001
ffd3
ffba
0014
0004
fffe
ffaa
ffad
fffe
0031
ff9c
0023
ffb1
0006
fff7
ff98
0010
0047
fef8
0014
ffa4
001d
0019
004f
ffc9
0015
0003
ffe8
ffdb
ffe5
ffee
ff6f
0021
000e
ffc5
0040
002f
ff2a
0043
001d
ffb8
0003
0020
ffda
0004
ffa5
ffe1
fff2
0035
ffa5
ffc1
ffba
ffbc
003d
0005
0013
ffed
ffa8
ffe7
ffa5
0010
ff99
001f
ffde
ffd9
0015
ffbe
ff81
ff8f
ff73
ffa7
0001
0039
000a
002d
ff7e
0007
ff9a
0025
ff65
ffdb
ffef
ffd4
ffe6
ff9c
ffa9
ff62
fff1
004f
003b
ffed
ff9d
0024
fff9
004f
ff9e
ffa5
ff7e
ffb0
000e
fff7
0025
0035
ff26
ffd7
0012
0009
ff9c
0009
000b
ffc7
004e
0016
002d
004a
ffea
0041
ffea
ffbd
ffd3
feb9
000f
ffc8
ff9f
ff6d
ffe5
000b
ffdd
ffca
ffc4
fffe
ffe9
ffd2
ffb7
ffe9
008f
ffb1
0036
fffe
002d
000d
ffff
ffe5
ffe0
0040
0015
ff58
fffb
ff7e
ffb3
ffde
ffe4
ffaf
ffff
ffe3
ffc4
ffb1
ff6c
ffbb
ffa5
ffef
ffd7
000d
ffe1
fffd
0027
ffba
0019
0010
ff87
ffc2
ffd6
ffe4
ff97
ff6c
0011
ffec
0025
ffe4
0039
0022
ffdf
fffa
000e
ffc4
ffe1
ffab
ffba
002d
0033
fee6
ffa9
001d
ffde
0001
001d
fff5
0040
ffdf
ffd5
ff78
fffd
ffad
ffd9
fff6
ff9f
ffb3
ff5d
ffc8
0022
ffe8
ffde
0013
ff58
fffe
ffbf
ffe7
0024
0023
ffde
ffbd
001b
ffad
ffe8
ff68
ffd4
ffee
ffbc
0000
ff89
ffed
ff6a
ff74
ffed
fff2
000f
ffbd
ffdc
ffea
0019
fff3
fff3
fffb
0002
ffd8
0033
0014
ffed
ffec
ff7f
0019
ffc1
0017
003a
0059
fffd
0008
ffda
ffc1
001b
000b
0005
ffb1
ffb4
0005
0038
ffa3
002a
ffb8
000d
fffe
ff9f
0017
004e
feff
001b
ffab
0024
0020
0056
ffd0
001c
000a
ffef
ffe2
ffec
fff5
ff76
0028
0015
ffcc
0047
0036
ff31
004a
0024
ffbf
000a
0027
ffe1
000b
ffac
ffe8
fff9
003c
ffac
ffc8
ffc1
ffc3
0044
000c
001a
fff4
ffaf
ffee
ffac
0017
ffa0
0026
ffe5
ffe0
001c
ffc5
ff88
ff96
ff7a
ffae
0008
0040
0011
0034
ff85
000e
ffa1
002c
ff6c
ffe2
fff6
ffdb
ffed
ffa3
ffb0
ff69
fff8
0056
0042
fff4
ffa4
002b
0000
0056
ffa5
ffac
ff85
ffb7
0015
fffe
002c
003c
ff2d
ffde
0019
0010
ffa3
0010
0012
ffce
0055
001d
0034
0051
fff1
0048
fff1
ffc4
ffda
fec0
0016
ffcf
ffa6
ff74
ffec
0012
ffe4
ffd1
ffcb
0005
fff0
ffd9
ffbe
fff0
0096
ffb8
003d
0005
0034
0014
0006
ffec
ffe7
0047
001c
ff5f
0002
ff85
ffba
ffe5
ffeb
ffb6
0006
ffea
ffcb
ffb8
ff73
ffc2
ffac
fff6
ffde
0014
ffe8
0004
002e
ffc1
0020
0017
ff8e
ffc9
ffdd
ffeb
ff9e
ff73
0018
fff3
002c
ffeb
0040
0029
ffe6
0001
0015
ffcb
ffe8
ffb2
ffc1
0034
003a
feed
ffb0
0024
ffe5
0008
0024
fffc
0047
ffe6
ffdc
ff7f
0004
ffb4
ffe0
fffd
ffa6
ffba
ff64
ffcf
0029
ffef
ffe5
001a
ff5f
0005
ffc6
ffee
002b
002a
ffe5
ffc4
0022
ffb4
ffef
ff6f
ffdb
fff5
ffc3
0007
ff90
fff4
ff71
ff7b
fff4
fff9
0016
ffc4
ffe3
fff1
0020
fffa
fffa
0002
0009
ffdf
003a
001b
fff4
fff3
ff86
0020
ffc8
001e
0041
0060
0004
000f
ffe1
ffc8
0022
0012
000c
ffb8
ffbb
000c
003f
ffaa
0031
ffbf
0014
0005
ffa6
001e
0055
ff06
0022
ffb2
002b
0027
005d
ffd7
0023
0011
fff6
ffe9
fff3
fffc
ff7d
002f
001c
ffd3
004e
003d
ff38
0051
002b
ffc6
0011
002e
ffe8
0012
ffb3
ffef
0000
0043
ffb3
ffcf
ffc8
ffca
004b
0013
0021
fffb
ffb6
fff5
ffb3
001e
ffa7
002d
ffec
ffe7
0023
ffcc
ff8f
ff9d
ff81
ffb5
000f
0047
0018
003b
ff8c
0015
ffa8
0033
ff73
ffe9
fffd
ffe2
fff4
ffaa
ffb7
ff70
ffff
005d
0049
fffb
ffab
0032
0007
005d
ffac
ffb3
ff8c
ffbe
001c
0005
0033
0043
ff34
ffe5
0020
0017
ffaa
0017
0019
ffd5
005c
0024
003b
0058
fff8
004f
fff8
ffcb
ffe1
fec7
001d
ffd6
ffad
ff7b
fff3
0019
ffeb
ffd8
ffd2
000c
fff7
ffe0
ffc5
fff7
009d
ffbf
0044
000c
003b
001b
000d
fff3
ffee
004e
0023
ff66
0009
ff8c
ffc1
ffec
fff2
ffbd
000d
fff1
ffd2
ffbf
ff7a
ffc9
ffb3
fffd
ffe5
001b
ffef
000b
0035
ffc8
0027
001e
ff95
ffd0
ffe4
fff2
ffa5
ff7a
001f
fffa
0033
fff2
0047
0030
ffed
0008
001c
ffd2
ffef
ffb9
ffc8
003b
0041
fef4
ffb7
002b
ffec
000f
002b
0003
004e
ffed
ffe3
ff86
000b
ffbb
ffe7
0004
ffad
ffc1
ff6b
ffd6
0030
fff6
ffec
0021
ff66
000c
ffcd
fff5
0032
0031
ffec
ffcb
0029
ffbb
fff6
ff76
ffe2
fffc
ffca
000e
ff97
fffb
ff78
ff82
fffb
0000
001d
ffcb
ffea
fff8
0027
0001
0001
0009
0010
ffe6
0041
0022
fffb
fffa
ff8d
0027
ffcf
0025
0048
0067
000b
0016
ffe8
ffcf
0029
0019
0013
ffbf
ffc2
0013
0046
ffb1
0038
ffc6
001b
000c
ffad
0025
005c
ff0d
0029
ffb9
0032
002e
0064
ffde
002a
0018
fffd
fff0
fffa
0003
ff84
0036
0023
ffda
0055
0044
ff3f
0058
0032
ffcd
0018
0035
ffef
0019
ffba
fff6
0007
004a
ffba
ffd6
ffcf
ffd1
0052
001a
0028
0002
ffbd
fffc
ffba
0025
ffae
0034
fff3
ffee
002a
ffd3
ff96
ffa4
ff88
ffbc
0016
004e
001f
0042
ff93
001c
ffaf
003a
ff7a
fff0
0004
ffe9
fffb
ffb1
ffbe
ff77
0006
0064
0050
0002
ffb2
0039
000e
0064
ffb3
ffba
ff93
ffc5
0023
000c
003a
004a
ff3b
ffec
0027
001e
ffb1
001e
0020
ffdc
0063
002b
0042
005f
ffff
0056
ffff
ffd2
ffe8
fece
0024
ffdd
ffb4
ff82
fffa
0020
fff2
ffdf
ffd9
0013
fffe
ffe7
ffcc
fffe
00a4
ffc6
004b
0013
0042
0022
0014
fffa
fff5
0055
002a
ff6d
0010
ff93
ffc8
fff3
fff9
ffc4
0014
fff8
ffd9
ffc6
ff81
ffd0
ffba
0004
ffec
0022
fff6
0012
003c
ffcf
002e
0025
ff9c
ffd7
ffeb
fff9
ffac
ff81
0026
0001
003a
fff9
004e
0037
fff4
000f
0023
ffd9
fff6
ffc0
ffcf
0042
0048
fefb
ffbe
0032
fff3
0016
0032
000a
0055
fff4
ffea
ff8d
0012
ffc2
ffee
000b
ffb4
ffc8
ff72
ffdd
0037
fffd
fff3
0028
ff6d
0013
ffd4
fffc
0039
0038
fff3
ffd2
0030
ffc2
fffd
ff7d
ffe9
0003
ffd1
0015
ff9e
0002
ff7f
ff89
0002
0007
0024
ffd2
fff1
ffff
002e
0008
0008
0010
0017
ffed
0048
0029
0002
0001
ff94
002e
ffd6
002c
004f
006e
0012
001d
ffef
ffd6
0030
0020
001a
ffc6
ffc9
001a
004d
ffb8
003f
ffcd
0022
0013
ffb4
002c
0063
ff14
0030
ffc0
0039
0035
006b
ffe5
0031
001f
0004
fff7
0001
000a
ff8b
003d
002a
ffe1
005c
004b
ff46
005f
0039
ffd4
001f
003c
fff6
0020
ffc1
fffd
000e
0051
ffc1
ffdd
ffd6
ffd8
0059
0021
002f
0009
ffc4
0003
ffc1
002c
ffb5
003b
fffa
fff5
0031
ffda
ff9d
ffab
ff8f
ffc3
001d
0055
0026
0049
ff9a
0023
ffb6
0041
ff81
fff7
000b
fff0
0002
ffb8
ffc5
ff7e
000d
006b
0057
ffe9
ff99
0020
fff5
004b
ff9a
ffa1
ff7a
ffac
000a
fff3
0021
0031
ff22
ffd3
000e
0005
ff98
0005
0007
ffc3
004a
0012
0029
0046
ffe6
003d
ffe6
ffb9
ffcf
feb5
000b
ffc4
ff9b
ff69
ffe1
0007
ffd9
ffc6
ffc0
fffa
ffe5
ffce
ffb3
ffe5
008b
ffad
0032
fffa
0029
0009
fffb
ffe1
ffdc
003c
0011
ff54
fff7
ff7a
ffaf
ffda
ffe0
ffab
fffb
ffdf
ffc0
ffad
ff68
ffb7
ffa1
ffeb
ffd3
0009
ffdd
fff9
0023
ffb6
0015
000c
ff83
ffbe
ffd2
ffe0
ff93
ff68
000d
ffe8
0021
ffe0
0035
001e
ffdb
fff6
000a
ffc0
ffdd
ffa7
ffb6
0029
002f
fee2
ffa5
0019
ffda
fffd
0019
fff1
003c
ffdb
ffd1
ff74
fff9
ffa9
ffd5
fff2
ff9b
ffaf
ff59
ffc4
001e
ffe4
ffda
000f
ff54
fffa
ffbb
ffe3
0020
001f
ffda
ffb9
0017
ffa9
ffe4
ff64
ffd0
ffea
ffb8
fffc
ff85
ffe9
ff66
ff70
ffe9
ffee
000b
ffb9
ffd8
ffe6
0015
ffef
ffef
fff7
fffe
ffd4
002f
0010
ffe9
ffe8
ff7b
0015
ffbd
0013
0036
0055
fff9
0004
ffd6
ffbd
0017
0007
0001
ffad
ffb0
0001
0034
ff9f
0026
ffb4
0009
fffa
ff9b
0013
004a
fefb
0017
ffa7
0020
001c
0052
ffcc
0018
0006
ffeb
ffde
ffe8
fff1
ff72
0024
0011
ffc8
0043
0032
ff2d
0046
0020
ffbb
0006
0023
ffdd
0007
ffa8
ffe4
fff5
0038
ffa8
ffc4
ffbd
ffbf
0040
0008
0016
fff0
ffab
ffea
ffa8
0013
ff9c
0022
ffe1
ffdc
0018
ffc1
ff84
ff92
ff76
ffaa
0004
003c
000d
0030
ff81
000a
ff9d
0028
ff68
ffde
fff2
ffd7
ffe9
ff9f
ffac
ff65
fff4
0052
003e
fff0
ffa0
0027
fffc
0052
ffa1
ffa8
ff81
ffb3
0011
fffa
0028
0038
ff29
ffda
0015
000c
ff9f
000c
000e
ffca
0051
0019
0030
004d
ffed
0044
ffed
ffc0
ffd6
febc
0012
ffcb
ffa2
ff70
ffe8
000e
ffe0
ffcd
ffc7
0001
ffec
ffd5
ffba
ffec
0092
ffb4
0039
0001
0030
0010
0002
ffe8
ffe3
0043
0018
ff5b
fffe
ff81
ffb6
ffe1
ffe7
ffb2
0002
ffe6
ffc7
ffb4
ff6f
ffbe
ffa8
fff2
ffda
0010
ffe4
0000
002a
ffbd
001c
0013
ff8a
ffc5
ffd9
ffe7
ff9a
ff6f
0014
ffef
0028
ffe7
003c
0025
ffe2
fffd
0011
ffc7
ffe4
ffae
ffbd
0030
0036
fee9
ffac
0020
ffe1
0004
0020
fff8
0043
ffe2
ffd8
ff7b
0000
ffb0
ffdc
fff9
ffa2
ffb6
ff60
ffcb
0025
ffeb
ffe1
0016
ff5b
0001
ffc2
ffea
0027
0026
ffe1
ffc0
001e
ffb0
ffeb
ff6b
ffd7
fff1
ffbf
0003
ff8c
fff0
ff6d
ff77
fff0
fff5
0012
ffc0
ffdf
ffed
001c
fff6
fff6
fffe
0005
ffdb
0036
0017
fff0
ffef
ff82
001c
ffc4
001a
003d
005c
0000
000b
ffdd
ffc4
001e
000e
0008
ffb4
ffb7
0008
003b
ffa6
002d
ffbb
0010
0001
ffa2
001a
0051
ff02
001e
ffae
0027
0023
0059
ffd3
001f
000d
fff2
ffe5
ffef
fff8
ff79
002b
0018
ffcf
004a
0039
ff34
004d
0027
ffc2
000d
002a
ffe4
000e
ffaf
ffeb
fffc
003f
ffaf
ffcb
ffc4
ffc6
0047
000f
001d
fff7
ffb2
fff1
ffaf
001a
ffa3
0029
ffe8
ffe3
001f
ffc8
ff8b
ff99
ff7d
ffb1
000b
0043
0014
0037
ff88
0011
ffa4
002f
ff6f
ffe5
fff9
ffde
fff0
ffa6
ffb3
ff6c
fffb
0059
0045
fff7
ffa7
002e
0003
0059
ffa8
ffaf
ff88
ffba
0018
0001
002f
003f
ff30
ffe1
001c
0013
ffa6
0013
0015
ffd1
0058
0020
0037
0054
fff4
004b
fff4
ffc7
ffdd
fec3
0019
ffd2
ffa9
ff77
ffef
0015
ffe7
ffd4
ffce
0008
fff3
ffdc
ffc1
fff3
0099
ffbb
0040
0008
0037
0017
0009
ffef
ffea
004a
001f
ff62
0005
ff88
ffbd
ffe8
ffee
ffb9
0009
ffed
ffce
ffbb
ff76
ffc5
ffaf
fff9
ffe1
0017
ffeb
0007
0031
ffc4
0023
001a
ff91
ffcc
ffe0
ffee
ffa1
ff76
001b
fff6
002f
ffee
0043
002c
ffe9
0004
0018
ffce
ffeb
ffb5
ffc4
0037
003d
fef0
ffb3
0027
ffe8
000b
0027
ffff
004a
ffe9
ffdf
ff82
0007
ffb7
ffe3
0000
ffa9
ffbd
ff67
ffd2
002c
fff2
ffe8
001d
ff62
0008
ffc9
fff1
002e
002d
ffe8
ffc7
0025
ffb7
fff2
ff72
ffde
fff8
ffc6
000a
ff93
fff7
ff74
ff7e
fff7
fffc
0019
ffc7
ffe6
fff4
0023
fffd
fffd
0005
000c
ffe2
003d
001e
fff7
fff6
ff89
0023
ffcb
0021
0044
0063
0007
0012
ffe4
ffcb
0025
0015
000f
ffbb
ffbe
000f
0042
ffad
0034
ffc2
0017
0008
ffa9
0021
0058
ff09
0025
ffb5
002e
002a
0060
ffda
0026
0014
fff9
ffec
fff6
ffff
ff80
0032
001f
ffd6
0051
0040
ff3b
0054
002e
ffc9
0014
0031
ffeb
0015
ffb6
fff2
0003
0046
ffb6
ffd2
ffcb
ffcd
004e
0016
0024
fffe
ffb9
fff8
ffb6
0021
ffaa
0030
ffef
ffea
0026
ffcf
ff92
ffa0
ff84
ffb8
0012
004a
001b
003e
ff8f
0018
ffab
0036
ff76
ffec
0000
ffe5
fff7
ffad
ffba
ff73
0002
0060
004c
fffe
ffae
0035
000a
0060
ffaf
ffb6
ff8f
ffc1
001f
0008
0036
0046
ff37
ffe8
0023
001a
ffad
001a
001c
ffd8
005f
0027
003e
005b
fffb
0052
fffb
ffce
ffe4
feca
0020
ffd9
ffb0
ff7e
fff6
001c
ffee
ffdb
ffd5
000f
fffa
ffe3
ffc8
fffa
00a0
ffc2
0047
000f
003e
001e
0010
fff6
fff1
0051
0026
ff69
000c
ff8f
ffc4
ffef
fff5
ffc0
0010
fff4
ffd5
ffc2
ff7d
ffcc
ffb6
0000
ffe8
001e
fff2
000e
0038
ffcb
002a
0021
ff98
ffd3
ffe7
fff5
ffa8
ff7d
0022
fffd
0036
fff5
004a
0033
fff0
000b
001f
ffd5
fff2
ffbc
ffcb
003e
0044
fef7
ffba
002e
ffef
0012
002e
0006
0051
fff0
ffe6
ff89
000e
ffbe
ffea
0007
ffb0
ffc4
ff6e
ffd9
0033
fff9
ffef
0024
ff69
000f
ffd0
fff8
0035
0034
ffef
ffce
002c
ffbe
fff9
ff79
ffe5
ffff
ffcd
0011
ff9a
fffe
ff7b
ff85
fffe
0003
0020
ffce
ffed
fffb
002a
0004
0004
000c
0013
ffe9
0044
0025
fffe
fffd
ff90
002a
ffd2
0028
004b
006a
000e
0019
ffeb
ffd2
002c
001c
0016
ffc2
ffc5
0016
0049
ffb4
003b
ffc9
001e
000f
ffb0
0028
005f
ff10
002c
ffbc
0035
0031
0067
ffe1
002d
001b
0000
fff3
fffd
0006
ff87
0039
0026
ffdd
0058
0047
ff42
005b
0035
ffd0
001b
0038
fff2
001c
ffbd
fff9
000a
004d
ffbd
ffd9
ffd2
ffd4
0055
001d
002b
0005
ffc0
ffff
ffbd
0028
ffb1
0037
fff6
fff1
002d
ffd6
ff99
ffa7
ff8b
ffbf
0019
0051
0022
0045
ff96
001f
ffb2
003d
ff7d
fff3
0007
ffec
fffe
ffb4
ffc1
ff7a
0009
0067
0053
ffe5
ff95
001c
fff1
0047
ff96
ff9d
ff76
ffa8
0006
ffef
001d
002d
ff1e
ffcf
000a
0001
ff94
0001
0003
ffbf
0046
000e
0025
0042
ffe2
0039
ffe2
ffb5
ffcb
feb1
0007
ffc0
ff97
ff65
ffdd
0003
ffd5
ffc2
ffbc
fff6
ffe1
ffca
ffaf
ffe1
0087
ffa9
002e
fff6
0025
0005
fff7
ffdd
ffd8
0038
000d
ff50
fff3
ff76
ffab
ffd6
ffdc
ffa7
fff7
ffdb
ffbc
ffa9
ff64
ffb3
ff9d
ffe7
ffcf
0005
ffd9
fff5
001f
ffb2
0011
0008
ff7f
ffba
ffce
ffdc
ff8f
ff64
0009
ffe4
001d
ffdc
0031
001a
ffd7
fff2
0006
ffbc
ffd9
ffa3
ffb2
0025
002b
fede
ffa1
0015
ffd6
fff9
0015
ffed
0038
ffd7
ffcd
ff70
fff5
ffa5
ffd1
ffee
ff97
ffab
ff55
ffc0
001a
ffe0
ffd6
000b
ff50
fff6
ffb7
ffdf
001c
001b
ffd6
ffb5
0013
ffa5
ffe0
ff60
ffcc
ffe6
ffb4
fff8
ff81
ffe5
ff62
ff6c
ffe5
ffea
0007
ffb5
ffd4
ffe2
0011
ffeb
ffeb
fff3
fffa
ffd0
002b
000c
ffe5
ffe4
ff77
0011
ffb9
000f
0032
0051
fff5
0000
ffd2
ffb9
0013
0003
fffd
ffa9
ffac
fffd
0030
ff9b
0022
ffb0
0005
fff6
ff97
000f
0046
fef7
0013
ffa3
001c
0018
004e
ffc8
0014
0002
ffe7
ffda
ffe4
ffed
ff6e
0020
000d
ffc4
003f
002e
ff29
0042
001c
ffb7
0002
001f
ffd9
0003
ffa4
ffe0
fff1
0034
ffa4
ffc0
ffb9
ffbb
003c
0004
0012
ffec
ffa7
ffe6
ffa4
000f
ff98
001e
ffdd
ffd8
0014
ffbd
ff80
ff8e
ff72
ffa6
0000
0038
0009
002c
ff7d
0006
ff99
0024
ff64
ffda
ffee
ffd3
ffe5
ff9b
ffa8
ff61
fff0
004e
003a
ffec
ff9c
0023
fff8
004e
ff9d
ffa4
ff7d
ffaf
000d
fff6
0024
0034
ff25
ffd6
0011
0008
ff9b
0008
000a
ffc6
004d
0015
002c
0049
ffe9
0040
ffe9
ffbc
ffd2
feb8
000e
ffc7
ff9e
ff6c
ffe4
000a
ffdc
ffc9
ffc3
fffd
ffe8
ffd1
ffb6
ffe8
008e
ffb0
0035
fffd
002c
000c
fffe
ffe4
ffdf
003f
0014
ff57
fffa
ff7d
ffb2
ffdd
ffe3
ffae
fffe
ffe2
ffc3
ffb0
ff6b
ffba
ffa4
ffee
ffd6
000c
ffe0
fffc
0026
ffb9
0018
000f
ff86
ffc1
ffd5
ffe3
ff96
ff6b
0010
ffeb
0024
ffe3
0038
0021
ffde
fff9
000d
ffc3
ffe0
ffaa
ffb9
002c
0032
fee5
ffa8
001c
ffdd
0000
001c
fff4
003f
ffde
ffd4
ff77
fffc
ffac
ffd8
fff5
ff9e
ffb2
ff5c
ffc7
0021
ffe7
ffdd
0012
ff57
fffd
ffbe
ffe6
0023
0022
ffdd
ffbc
001a
ffac
ffe7
ff67
ffd3
ffed
ffbb
ffff
ff88
ffec
ff69
ff73
ffec
fff1
000e
ffbc
ffdb
ffe9
0018
fff2
fff2
fffa
0001
ffd7
0032
0013
ffec
ffeb
ff7e
0018
ffc0
0016
0039
0058
fffc
0007
ffd9
ffc0
001a
000a
0004
ffb0
ffb3
0004
0037
ffa2
0029
ffb7
000c
fffd
ff9e
0016
004d
fefe
001a
ffaa
0023
001f
0055
ffcf
001b
0009
ffee
ffe1
ffeb
fff4
ff75
0027
0014
ffcb
0046
0035
ff30
0049
0023
ffbe
0009
0026
ffe0
000a
ffab
ffe7
fff8
003b
ffab
ffc7
ffc0
ffc2
0043
000b
0019
fff3
ffae
ffed
ffab
0016
ff9f
0025
ffe4
ffdf
001b
ffc4
ff87
ff95
ff79
ffad
0007
003f
0010
0033
ff84
000d
ffa0
002b
ff6b
ffe1
fff5
ffda
ffec
ffa2
ffaf
ff68
fff7
0055
0041
fff3
ffa3
002a
ffff
0055
ffa4
ffab
ff84
ffb6
0014
fffd
002b
003b
ff2c
ffdd
0018
000f
ffa2
000f
0011
ffcd
0054
001c
0033
0050
fff0
0047
fff0
ffc3
ffd9
febf
0015
ffce
ffa5
ff73
ffeb
0011
ffe3
ffd0
ffca
0004
ffef
ffd8
ffbd
ffef
0095
ffb7
003c
0004
0033
0013
0005
ffeb
ffe6
0046
001b
ff5e
0001
ff84
ffb9
ffe4
ffea
ffb5
0005
ffe9
ffca
ffb7
ff72
ffc1
ffab
fff5
ffdd
0013
ffe7
0003
002d
ffc0
001f
0016
ff8d
ffc8
ffdc
ffea
ff9d
ff72
0017
fff2
002b
ffea
003f
0028
ffe5
0000
0014
ffca
ffe7
ffb1
ffc0
0033
0039
feec
ffaf
0023
ffe4
0007
0023
fffb
0046
ffe5
ffdb
ff7e
0003
ffb3
ffdf
fffc
ffa5
ffb9
ff63
ffce
0028
ffee
ffe4
0019
ff5e
0004
ffc5
ffed
002a
0029
ffe4
ffc3
0021
ffb3
ffee
ff6e
ffda
fff4
ffc2
0006
ff8f
fff3
ff70
ff7a
fff3
fff8
0015
ffc3
ffe2
fff0
001f
fff9
fff9
0001
0008
ffde
0039
001a
fff3
fff2
ff85
001f
ffc7
001d
0040
005f
0003
000e
ffe0
ffc7
0021
0011
000b
ffb7
ffba
000b
003e
ffa9
0030
ffbe
0013
0004
ffa5
001d
0054
ff05
0021
ffb1
002a
0026
005c
ffd6
0022
0010
fff5
ffe8
fff2
fffb
ff7c
002e
001b
ffd2
004d
003c
ff37
0050
002a
ffc5
0010
002d
ffe7
0011
ffb2
ffee
ffff
0042
ffb2
ffce
ffc7
ffc9
004a
0012
0020
fffa
ffb5
fff4
ffb2
001d
ffa6
002c
ffeb
ffe6
0022
ffcb
ff8e
ff9c
ff80
ffb4
000e
0046
0017
003a
ff8b
0014
ffa7
0032
ff72
ffe8
fffc
ffe1
fff3
ffa9
ffb6
ff6f
fffe
005c
0048
fffa
ffaa
0031
0006
005c
ffab
ffb2
ff8b
ffbd
001b
0004
0032
0042
ff33
ffe4
001f
0016
ffa9
0016
0018
ffd4
005b
0023
003a
0057
fff7
004e
fff7
ffca
ffe0
fec6
001c
ffd5
ffac
ff7a
fff2
0018
ffea
ffd7
ffd1
000b
fff6
ffdf
ffc4
fff6
009c
ffbe
0043
000b
003a
001a
000c
fff2
ffed
004d
0022
ff65
0008
ff8b
ffc0
ffeb
fff1
ffbc
000c
fff0
ffd1
ffbe
ff79
ffc8
ffb2
fffc
ffe4
001a
ffee
000a
0034
ffc7
0026
001d
ff94
ffcf
ffe3
fff1
ffa4
ff79
001e
fff9
0032
fff1
0046
002f
ffec
0007
001b
ffd1
ffee
ffb8
ffc7
003a
0040
fef3
ffb6
002a
ffeb
000e
002a
0002
004d
ffec
ffe2
ff85
000a
ffba
ffe6
0003
ffac
ffc0
ff6a
ffd5
002f
fff5
ffeb
0020
ff65
000b
ffcc
fff4
0031
0030
ffeb
ffca
0028
ffba
fff5
ff75
ffe1
fffb
ffc9
000d
ff96
fffa
ff77
ff81
fffa
ffff
001c
ffca
ffe9
fff7
0026
0000
0000
0008
000f
ffe5
0040
0021
fffa
fff9
ff8c
0026
ffce
0024
0047
0066
000a
0015
ffe7
ffce
0028
0018
0012
ffbe
ffc1
0012
0045
ffb0
0037
ffc5
001a
000b
ffac
0024
005b
ff0c
0028
ffb8
0031
002d
0063
ffdd
0029
0017
fffc
ffef
fff9
0002
ff83
0035
0022
ffd9
0054
0043
ff3e
0057
0031
ffcc
0017
0034
ffee
0018
ffb9
fff5
0006
0049
ffb9
ffd5
ffce
ffd0
0051
0019
0027
0001
ffbc
fffb
ffb9
0024
ffad
0033
fff2
ffed
0029
ffd2
ff95
ffa3
ff87
ffbb
0015
004d
001e
0041
ff92
001b
ffae
0039
ff79
ffef
0003
ffe8
fffa
ffb0
ffbd
ff76
0005
0063
004f
0001
ffb1
0038
000d
0063
ffb2
ffb9
ff92
ffc4
0022
000b
0039
0049
ff3a
ffeb
0026
001d
ffb0
001d
001f
ffdb
0062
002a
0041
005e
fffe
0055
fffe
ffd1
ffe7
fecd
0023
ffdc
ffb3
ff81
fff9
001f
fff1
ffde
ffd8
0012
fffd
ffe6
ffcb
fffd
00a3
ffc5
004a
0012
0041
0021
0013
fff9
fff4
0054
0029
ff6c
000f
ff92
ffc7
fff2
fff8
ffc3
0013
fff7
ffd8
ffc5
ff80
ffcf
ffb9
0003
ffeb
0021
fff5
0011
003b
ffce
002d
0024
ff9b
ffd6
ffea
fff8
ffab
ff80
0025
0000
0039
fff8
004d
0036
fff3
000e
0022
ffd8
fff5
ffbf
ffce
0041
0047
fefa
ffbd
0031
fff2
0015
0031
0009
0054
fff3
ffe9
ff8c
0011
ffc1
ffed
000a
ffb3
ffc7
ff71
ffdc
0036
fffc
fff2
0027
ff6c
0012
ffd3
fffb
0038
0037
fff2
ffd1
002f
ffc1
fffc
ff7c
ffe8
0002
ffd0
0014
ff9d
0001
ff7e
ff88
0001
0006
0023
ffd1
fff0
fffe
002d
0007
0007
000f
0016
ffec
0047
0028
0001
0000
ff93
002d
ffd5
002b
004e
006d
0011
001c
ffee
ffd5
002f
001f
0019
ffc5
ffc8
0019
004c
ffb7
003e
ffcc
0021
0012
ffb3
002b
0062
ff13
002f
ffbf
0038
0034
006a
ffe4
0030
001e
0003
fff6
0000
0009
ff8a
003c
0029
ffe0
005b
004a
ff45
005e
0038
ffd3
001e
003b
fff5
001f
ffc0
fffc
000d
0050
ffc0
ffdc
ffd5
ffd7
0058
0020
002e
0008
ffc3
0002
ffc0
002b
ffb4
003a
fff9
fff4
0030
ffd9
ff9c
ffaa
ff8e
ffc2
001c
0054
0025
0048
ff99
0022
ffb5
0040
ff80
fff6
000a
ffef
0001
ffb7
ffc4
ff7d
000c
006a
0056
ffe8
ff98
001f
fff4
004a
ff99
ffa0
ff79
ffab
0009
fff2
0020
0030
ff21
ffd2
000d
0004
ff97
0004
0006
ffc2
0049
0011
0028
0045
ffe5
003c
ffe5
ffb8
ffce
feb4
000a
ffc3
ff9a
ff68
ffe0
0006
ffd8
ffc5
ffbf
fff9
ffe4
ffcd
ffb2
ffe4
008a
ffac
0031
fff9
0028
0008
fffa
ffe0
ffdb
003b
0010
ff53
fff6
ff79
ffae
ffd9
ffdf
ffaa
fffa
ffde
ffbf
ffac
ff67
ffb6
ffa0
ffea
ffd2
0008
ffdc
fff8
0022
ffb5
0014
000b
ff82
ffbd
ffd1
ffdf
ff92
ff67
000c
ffe7
0020
ffdf
0034
001d
ffda
fff5
0009
ffbf
ffdc
ffa6
ffb5
0028
002e
fee1
ffa4
0018
ffd9
fffc
0018
fff0
003b
ffda
ffd0
ff73
fff8
ffa8
ffd4
fff1
ff9a
ffae
ff58
ffc3
001d
ffe3
ffd9
000e
ff53
fff9
ffba
ffe2
001f
001e
ffd9
ffb8
0016
ffa8
ffe3
ff63
ffcf
ffe9
ffb7
fffb
ff84
ffe8
ff65
ff6f
ffe8
ffed
000a
ffb8
ffd7
ffe5
0014
ffee
ffee
fff6
fffd
ffd3
002e
000f
ffe8
ffe7
ff7a
0014
ffbc
0012
0035
0054
fff8
0003
ffd5
ffbc
0016
0006
0000
ffac
ffaf
0000
0033
ff9e
0025
ffb3
0008
fff9
ff9a
0012
0049
fefa
0016
ffa6
001f
001b
0051
ffcb
0017
0005
ffea
ffdd
ffe7
fff0
ff71
0023
0010
ffc7
0042
0031
ff2c
0045
001f
ffba
0005
0022
ffdc
0006
ffa7
ffe3
fff4
0037
ffa7
ffc3
ffbc
ffbe
003f
0007
0015
ffef
ffaa
ffe9
ffa7
0012
ff9b
0021
ffe0
ffdb
0017
ffc0
ff83
ff91
ff75
ffa9
0003
003b
000c
002f
ff80
0009
ff9c
0027
ff67
ffdd
fff1
ffd6
ffe8
ff9e
ffab
ff64
fff3
0051
003d
ffef
ff9f
0026
fffb
0051
ffa0
ffa7
ff80
ffb2
0010
fff9
0027
0037
ff28
ffd9
0014
000b
ff9e
000b
000d
ffc9
0050
0018
002f
004c
ffec
0043
ffec
ffbf
ffd5
febb
0011
ffca
ffa1
ff6f
ffe7
000d
ffdf
ffcc
ffc6
0000
ffeb
ffd4
ffb9
ffeb
0091
ffb3
0038
0000
002f
000f
0001
ffe7
ffe2
0042
0017
ff5a
fffd
ff80
ffb5
ffe0
ffe6
ffb1
0001
ffe5
ffc6
ffb3
ff6e
ffbd
ffa7
fff1
ffd9
000f
ffe3
ffff
0029
ffbc
001b
0012
ff89
ffc4
ffd8
ffe6
ff99
ff6e
0013
ffee
0027
ffe6
003b
0024
ffe1
fffc
0010
ffc6
ffe3
ffad
ffbc
002f
0035
fee8
ffab
001f
ffe0
0003
001f
fff7
0042
ffe1
ffd7
ff7a
ffff
ffaf
ffdb
fff8
ffa1
ffb5
ff5f
ffca
0024
ffea
ffe0
0015
ff5a
0000
ffc1
ffe9
0026
0025
ffe0
ffbf
001d
ffaf
ffea
ff6a
ffd6
fff0
ffbe
0002
ff8b
ffef
ff6c
ff76
ffef
fff4
0011
ffbf
ffde
ffec
001b
fff5
fff5
fffd
0004
ffda
0035
0016
ffef
ffee
ff81
001b
ffc3
0019
003c
005b
ffff
000a
ffdc
ffc3
001d
000d
0007
ffb3
ffb6
0007
003a
ffa5
002c
ffba
000f
0000
ffa1
0019
0050
ff01
001d
ffad
0026
0022
0058
ffd2
001e
000c
fff1
ffe4
ffee
fff7
ff78
002a
0017
ffce
0049
0038
ff33
004c
0026
ffc1
000c
0029
ffe3
000d
ffae
ffea
fffb
003e
ffae
ffca
ffc3
ffc5
0046
000e
001c
fff6
ffb1
fff0
ffae
0019
ffa2
0028
ffe7
ffe2
001e
ffc7
ff8a
ff98
ff7c
ffb0
000a
0042
0013
0036
ff87
0010
ffa3
002e
ff6e
ffe4
fff8
ffdd
ffef
ffa5
ffb2
ff6b
fffa
0058
0044
fff6
ffa6
002d
0002
0058
ffa7
ffae
ff87
ffb9
0017
0000
002e
003e
ff2f
ffe0
001b
0012
ffa5
0012
0014
ffd0
0057
001f
0036
0053
fff3
004a
fff3
ffc6
ffdc
fec2
0018
ffd1
ffa8
ff76
ffee
0014
ffe6
ffd3
ffcd
0007
fff2
ffdb
ffc0
fff2
0098
ffba
003f
0007
0036
0016
0008
ffee
ffe9
0049
001e
ff61
0004
ff87
ffbc
ffe7
ffed
ffb8
0008
ffec
ffcd
ffba
ff75
ffc4
ffae
fff8
ffe0
0016
ffea
0006
0030
ffc3
0022
0019
ff90
ffcb
ffdf
ffed
ffa0
ff75
001a
fff5
002e
ffed
0042
002b
ffe8
0003
0017
ffcd
ffea
ffb4
ffc3
0036
003c
feef
ffb2
0026
ffe7
000a
0026
fffe
0049
ffe8
ffde
ff81
0006
ffb6
ffe2
ffff
ffa8
ffbc
ff66
ffd1
002b
fff1
ffe7
001c
ff61
0007
ffc8
fff0
002d
002c
ffe7
ffc6
0024
ffb6
fff1
ff71
ffdd
fff7
ffc5
0009
ff92
fff6
ff73
ff7d
fff6
fffb
0018
ffc6
ffe5
fff3
0022
fffc
fffc
0004
000b
ffe1
003c
001d
fff6
fff5
ff88
0022
ffca
0020
0043
0062
0006
0011
ffe3
ffca
0024
0014
000e
ffba
ffbd
000e
0041
ffac
0033
ffc1
0016
0007
ffa8
0020
0057
ff08
0024
ffb4
002d
0029
005f
ffd9
0025
0013
fff8
ffeb
fff5
fffe
ff7f
0031
001e
ffd5
0050
003f
ff3a
0053
002d
ffc8
0013
0030
ffea
0014
ffb5
fff1
0002
0045
ffb5
ffd1
ffca
ffcc
004d
0015
0023
fffd
ffb8
fff7
ffb5
0020
ffa9
002f
ffee
ffe9
0025
ffce
ff91
ff9f
ff83
ffb7
0011
0049
001a
003d
ff8e
0017
ffaa
0035
ff75
ffeb
ffff
ffe4
fff6
ffac
ffb9
ff72
0001
005f
004b
fffd
ffad
0034
0009
005f
ffae
ffb5
ff8e
ffc0
001e
0007
0035
0045
ff36
ffe7
0022
0019
ffac
0019
001b
ffd7
005e
0026
003d
005a
fffa
0051
fffa
ffcd
ffe3
fec9
001f
ffd8
ffaf
ff7d
fff5
001b
ffed
ffda
ffd4
000e
fff9
ffe2
ffc7
fff9
009f
ffc1
0046
000e
003d
001d
000f
fff5
fff0
0050
0025
ff68
000b
ff8e
ffc3
ffee
fff4
ffbf
000f
fff3
ffd4
ffc1
ff7c
ffcb
ffb5
ffff
ffe7
001d
fff1
000d
0037
ffca
0029
0020
ff97
ffd2
ffe6
fff4
ffa7
ff7c
0021
fffc
0035
fff4
0049
0032
ffef
000a
001e
ffd4
fff1
ffbb
ffca
003d
0043
fef6
ffb9
002d
ffee
0011
002d
0005
0050
ffef
ffe5
ff88
000d
ffbd
ffe9
0006
ffaf
ffc3
ff6d
ffd8
0032
fff8
ffee
0023
ff68
000e
ffcf
fff7
0034
0033
ffee
ffcd
002b
ffbd
fff8
ff78
ffe4
fffe
ffcc
0010
ff99
fffd
ff7a
ff84
fffd
0002
001f
ffcd
ffec
fffa
0029
0003
0003
000b
0012
ffe8
0043
0024
fffd
fffc
ff8f
0029
ffd1
0027
004a
0069
000d
0018
ffea
ffd1
002b
001b
0015
ffc1
ffc4
0015
0048
ffb3
003a
ffc8
001d
000e
ffaf
0027
005e
ff0f
002b
ffbb
0034
0030
0066
ffe0
002c
001a
ffff
fff2
fffc
0005
ff86
0038
0025
ffdc
0057
0046
ff41
005a
0034
ffcf
001a
0037
fff1
001b
ffbc
fff8
0009
004c
ffbc
ffd8
ffd1
ffd3
0054
001c
002a
0004
ffbf
fffe
ffbc
0027
ffb0
0036
fff5
fff0
002c
ffd5
ff98
ffa6
ff8a
ffbe
0018
0050
0021
0044
ff95
001e
ffb1
003c
ff7c
fff2
0006
ffeb
fffd
ffb3
ffc0
ff79
0008
0066
0052
0004
ffb4
003b
0010
0066
ffb5
ffbc
ff95
ffc7
0025
000e
003c
004c
ff3d
ffee
0029
0020
ffb3
0020
0022
ffde
0065
002d
0044
0061
0001
0058
0001
ffd4
ffea
fed0
0026
ffdf
ffb6
ff84
fffc
0022
fff4
ffe1
ffdb
0015
0000
ffe9
ffce
0000
00a6
ffc8
004d
0015
0044
0024
0016
fffc
fff7
0057
002c
ff6f
0012
ff95
ffca
fff5
fffb
ffc6
0016
fffa
ffdb
ffc8
ff83
ffd2
ffbc
0006
ffee
0024
fff8
0014
003e
ffd1
0030
0027
ff9e
ffd9
ffed
fffb
ffae
ff83
0028
0003
003c
fffb
0050
0039
fff6
0011
0025
ffdb
fff8
ffc2
ffd1
0044
004a
fefd
ffc0
0034
fff5
0018
0034
000c
0057
fff6
ffec
ff8f
0014
ffc4
fff0
000d
ffb6
ffca
ff74
ffdf
0039
ffff
fff5
002a
ff6f
0015
ffd6
fffe
003b
003a
fff5
ffd4
0032
ffc4
ffff
ff7f
ffeb
0005
ffd3
0017
ffa0
0004
ff81
ff8b
0004
0009
0026
ffd4
fff3
0001
0030
000a
000a
0012
0019
ffef
004a
002b
0004
0003
ff96
0030
ffd8
002e
0051
0070
0014
001f
fff1
ffd8
0032
0022
001c
ffc8
ffcb
001c
004f
ffba
0041
ffcf
0024
0015
ffb6
002e
0065
ff16
0032
ffc2
003b
0037
006d
ffe7
0033
0021
0006
fff9
0003
000c
ff8d
003f
002c
ffe3
005e
004d
ff48
0061
003b
ffd6
0021
003e
fff8
0022
ffc3
ffff
0010
0053
ffc3
ffdf
ffd8
ffda
005b
0023
0031
000b
ffc6
0005
ffc3
002e
ffb7
003d
fffc
fff7
0033
ffdc
ff9f
ffad
ff91
ffc5
001f
0057
0028
004b
ff9c
0025
ffb8
0043
ff83
fff9
000d
fff2
0004
ffba
ffc7
ff80
000f
006d
0059
ffeb
ff9b
0022
fff7
004d
ff9c
ffa3
ff7c
ffae
000c
fff5
0023
0033
ff24
ffd5
0010
0007
ff9a
0007
0009
ffc5
004c
0014
002b
0048
ffe8
003f
ffe8
ffbb
ffd1
feb7
000d
ffc6
ff9d
ff6b
ffe3
0009
ffdb
ffc8
ffc2
fffc
ffe7
ffd0
ffb5
ffe7
008d
ffaf
0034
fffc
002b
000b
fffd
ffe3
ffde
003e
0013
ff56
fff9
ff7c
ffb1
ffdc
ffe2
ffad
fffd
ffe1
ffc2
ffaf
ff6a
ffb9
ffa3
ffed
ffd5
000b
ffdf
fffb
0025
ffb8
0017
000e
ff85
ffc0
ffd4
ffe2
ff95
ff6a
000f
ffea
0023
ffe2
0037
0020
ffdd
fff8
000c
ffc2
ffdf
ffa9
ffb8
002b
0031
fee4
ffa7
001b
ffdc
ffff
001b
fff3
003e
ffdd
ffd3
ff76
fffb
ffab
ffd7
fff4
ff9d
ffb1
ff5b
ffc6
0020
ffe6
ffdc
0011
ff56
fffc
ffbd
ffe5
0022
0021
ffdc
ffbb
0019
ffab
ffe6
ff66
ffd2
ffec
ffba
fffe
ff87
ffeb
ff68
ff72
ffeb
fff0
000d
ffbb
ffda
ffe8
0017
fff1
fff1
fff9
0000
ffd6
0031
0012
ffeb
ffea
ff7d
0017
ffbf
0015
0038
0057
fffb
0006
ffd8
ffbf
0019
0009
0003
ffaf
ffb2
0003
0036
ffa1
0028
ffb6
000b
fffc
ff9d
0015
004c
fefd
0019
ffa9
0022
001e
0054
ffce
001a
0008
ffed
ffe0
ffea
fff3
ff74
0026
0013
ffca
0045
0034
ff2f
0048
0022
ffbd
0008
0025
ffdf
0009
ffaa
ffe6
fff7
003a
ffaa
ffc6
ffbf
ffc1
0042
000a
0018
fff2
ffad
ffec
ffaa
0015
ff9e
0024
ffe3
ffde
001a
ffc3
ff86
ff94
ff78
ffac
0006
003e
000f
0032
ff83
000c
ff9f
002a
ff6a
ffe0
fff4
ffd9
ffeb
ffa1
ffae
ff67
fff6
0054
0040
fff2
ffa2
0029
fffe
0054
ffa3
ffaa
ff83
ffb5
0013
fffc
002a
003a
ff2b
ffdc
0017
000e
ffa1
000e
0010
ffcc
0053
001b
0032
004f
ffef
0046
ffef
ffc2
ffd8
febe
0014
ffcd
ffa4
ff72
ffea
0010
ffe2
ffcf
ffc9
0003
ffee
ffd7
ffbc
ffee
0094
ffb6
003b
0003
0032
0012
0004
ffea
ffe5
0045
001a
ff5d
0000
ff83
ffb8
ffe3
ffe9
ffb4
0004
ffe8
ffc9
ffb6
ff71
ffc0
ffaa
fff4
ffdc
0012
ffe6
0002
002c
ffbf
001e
0015
ff8c
ffc7
ffdb
ffe9
ff9c
ff71
0016
fff1
002a
ffe9
003e
0027
ffe4
ffff
0013
ffc9
ffe6
ffb0
ffbf
0032
0038
feeb
ffae
0022
ffe3
0006
0022
fffa
0045
ffe4
ffda
ff7d
0002
ffb2
ffde
fffb
ffa4
ffb8
ff62
ffcd
0027
ffed
ffe3
0018
ff5d
0003
ffc4
ffec
0029
0028
ffe3
ffc2
0020
ffb2
ffed
ff6d
ffd9
fff3
ffc1
0005
ff8e
fff2
ff6f
ff79
fff2
fff7
0014
ffc2
ffe1
ffef
001e
fff8
fff8
0000
0007
ffdd
0038
0019
fff2
fff1
ff84
001e
ffc6
001c
003f
005e
0002
000d
ffdf
ffc6
0020
0010
000a
ffb6
ffb9
000a
003d
ffa8
002f
ffbd
0012
0003
ffa4
001c
0053
ff04
0020
ffb0
0029
0025
005b
ffd5
0021
000f
fff4
ffe7
fff1
fffa
ff7b
002d
001a
ffd1
004c
003b
ff36
004f
0029
ffc4
000f
002c
ffe6
0010
ffb1
ffed
fffe
0041
ffb1
ffcd
ffc6
ffc8
0049
0011
001f
fff9
ffb4
fff3
ffb1
001c
ffa5
002b
ffea
ffe5
0021
ffca
ff8d
ff9b
ff7f
ffb3
000d
0045
0016
0039
ff8a
0013
ffa6
0031
ff71
ffe7
fffb
ffe0
fff2
ffa8
ffb5
ff6e
fffd
005b
0047
fff9
ffa9
0030
0005
005b
ffaa
ffb1
ff8a
ffbc
001a
0003
0031
0041
ff32
ffe3
001e
0015
ffa8
0015
0017
ffd3
005a
0022
0039
0056
fff6
004d
fff6
ffc9
ffdf
fec5
001b
ffd4
ffab
ff79
fff1
0017
ffe9
ffd6
ffd0
000a
fff5
ffde
ffc3
fff5
009b
ffbd
0042
000a
0039
0019
000b
fff1
ffec
004c
0021
ff64
0007
ff8a
ffbf
ffea
fff0
ffbb
000b
ffef
ffd0
ffbd
ff78
ffc7
ffb1
fffb
ffe3
0019
ffed
0009
0033
ffc6
0025
001c
ff93
ffce
ffe2
fff0
ffa3
ff78
001d
fff8
0031
fff0
0045
002e
ffeb
0006
001a
ffd0
ffed
ffb7
ffc6
0039
003f
fef2
ffb5
0029
ffea
000d
0029
0001
004c
ffeb
ffe1
ff84
0009
ffb9
ffe5
0002
ffab
ffbf
ff69
ffd4
002e
fff4
ffea
001f
ff64
000a
ffcb
fff3
0030
002f
ffea
ffc9
0027
ffb9
fff4
ff74
ffe0
fffa
ffc8
000c
ff95
fff9
ff76
ff80
fff9
fffe
001b
ffc9
ffe8
fff6
0025
ffff
ffff
0007
000e
ffe4
003f
0020
fff9
fff8
ff8b
0025
ffcd
0023
0046
0065
0009
0014
ffe6
ffcd
0027
0017
0011
ffbd
ffc0
0011
0044
ffaf
0036
ffc4
0019
000a
ffab
0023
005a
ff0b
0027
ffb7
0030
002c
0062
ffdc
0028
0016
fffb
ffee
fff8
0001
ff82
0034
0021
ffd8
0053
0042
ff3d
0056
0030
ffcb
0016
0033
ffed
0017
ffb8
fff4
0005
0048
ffb8
ffd4
ffcd
ffcf
0050
0018
0026
0000
ffbb
fffa
ffb8
0023
ffac
0032
fff1
ffec
0028
ffd1
ff94
ffa2
ff86
ffba
0014
004c
001d
0040
ff91
001a
ffad
0038
ff78
ffee
0002
ffe7
fff9
ffaf
ffbc
ff75
0004
0062
004e
0000
ffb0
0037
000c
0062
ffb1
ffb8
ff91
ffc3
0021
000a
0038
0048
ff39
ffea
0025
001c
ffaf
001c
001e
ffda
0061
0029
0040
005d
fffd
0054
fffd
ffd0
ffe6
fecc
0022
ffdb
ffb2
ff80
fff8
001e
fff0
ffdd
ffd7
0011
fffc
ffe5
ffca
fffc
00a2
ffc4
0049
0011
0040
0020
0012
fff8
fff3
0053
0028
ff6b
000e
ff91
ffc6
fff1
fff7
ffc2
0012
fff6
ffd7
ffc4
ff7f
ffce
ffb8
0002
ffea
0020
fff4
0010
003a
ffcd
002c
0023
ff9a
ffd5
ffe9
fff7
ffaa
ff7f
0024
ffff
0038
fff7
004c
0035
fff2
000d
0021
ffd7
fff4
ffbe
ffcd
0040
0046
fef9
ffbc
0030
fff1
0014
0030
0008
0053
fff2
ffe8
ff8b
0010
ffc0
ffec
0009
ffb2
ffc6
ff70
ffdb
0035
fffb
fff1
0026
ff6b
0011
ffd2
fffa
0037
0036
fff1
ffd0
002e
ffc0
fffb
ff7b
ffe7
0001
ffcf
0013
ff9c
0000
ff7d
ff87
0000
0005
0022
ffd0
ffef
fffd
002c
0006
0006
000e
0015
ffeb
0046
0027
0000
ffff
ff92
002c
ffd4
002a
004d
006c
0010
001b
ffed
ffd4
002e
001e
0018
ffc4
ffc7
0018
004b
ffb6
003d
ffcb
0020
0011
ffb2
002a
0061
ff12
002e
ffbe
0037
0033
0069
ffe3
002f
001d
0002
fff5
ffff
0008
ff89
003b
0028
ffdf
005a
0049
ff44
005d
0037
ffd2
001d
003a
fff4
001e
ffbf
fffb
000c
004f
ffbf
ffdb
ffd4
ffd6
0057
001f
002d
0007
ffc2
0001
ffbf
002a
ffb3
0039
fff8
fff3
002f
ffd8
ff9b
ffa9
ff8d
ffc1
001b
0053
0024
0047
ff98
0021
ffb4
003f
ff7f
fff5
0009
ffee
0000
ffb6
ffc3
ff7c
000b
0069
0055
ffe7
ff97
001e
fff3
0049
ff98
ff9f
ff78
ffaa
0008
fff1
001f
002f
ff20
ffd1
000c
0003
ff96
0003
0005
ffc1
0048
0010
0027
0044
ffe4
003b
ffe4
ffb7
ffcd
feb3
0009
ffc2
ff99
ff67
ffdf
0005
ffd7
ffc4
ffbe
fff8
ffe3
ffcc
ffb1
ffe3
0089
ffab
0030
fff8
0027
0007
fff9
ffdf
ffda
003a
000f
ff52
fff5
ff78
ffad
ffd8
ffde
ffa9
fff9
ffdd
ffbe
ffab
ff66
ffb5
ff9f
ffe9
ffd1
0007
ffdb
fff7
0021
ffb4
0013
000a
ff81
ffbc
ffd0
ffde
ff91
ff66
000b
ffe6
001f
ffde
0033
001c
ffd9
fff4
0008
ffbe
ffdb
ffa5
ffb4
0027
002d
fee0
ffa3
0017
ffd8
fffb
0017
ffef
003a
ffd9
ffcf
ff72
fff7
ffa7
ffd3
fff0
ff99
ffad
ff57
ffc2
001c
ffe2
ffd8
000d
ff52
fff8
ffb9
ffe1
001e
001d
ffd8
ffb7
0015
ffa7
ffe2
ff62
ffce
ffe8
ffb6
fffa
ff83
ffe7
ff64
ff6e
ffe7
ffec
0009
ffb7
ffd6
ffe4
0013
ffed
ffed
fff5
fffc
ffd2
002d
000e
ffe7
ffe6
ff79
0013
ffbb
0011
0034
0053
fff7
0002
ffd4
ffbb
0015
0005
ffff
ffab
ffae
ffff
0032
ff9d
0024
ffb2
0007
fff8
ff99
0011
0048
fef9
0015
ffa5
001e
001a
0050
ffca
0016
0004
ffe9
ffdc
ffe6
ffef
ff70
0022
000f
ffc6
0041
0030
ff2b
0044
001e
ffb9
0004
0021
ffdb
0005
ffa6
ffe2
fff3
0036
ffa6
ffc2
ffbb
ffbd
003e
0006
0014
ffee
ffa9
ffe8
ffa6
0011
ff9a
0020
ffdf
ffda
0016
ffbf
ff82
ff90
ff74
ffa8
0002
003a
000b
002e
ff7f
0008
ff9b
0026
ff66
ffdc
fff0
ffd5
ffe7
ff9d
ffaa
ff63
fff2
0050
003c
ffee
ff9e
0025
fffa
0050
ff9f
ffa6
ff7f
ffb1
000f
fff8
0026
0036
ff27
ffd8
0013
000a
ff9d
000a
000c
ffc8
004f
0017
002e
004b
ffeb
0042
ffeb
ffbe
ffd4
feba
0010
ffc9
ffa0
ff6e
ffe6
000c
ffde
ffcb
ffc5
ffff
ffea
ffd3
ffb8
ffea
0090
ffb2
0037
ffff
002e
000e
0000
ffe6
ffe1
0041
0016
ff59
fffc
ff7f
ffb4
ffdf
ffe5
ffb0
0000
ffe4
ffc5
ffb2
ff6d
ffbc
ffa6
fff0
ffd8
000e
ffe2
fffe
0028
ffbb
001a
0011
ff88
ffc3
ffd7
ffe5
ff98
ff6d
0012
ffed
0026
ffe5
003a
0023
ffe0
fffb
000f
ffc5
ffe2
ffac
ffbb
002e
0034
fee7
ffaa
001e
ffdf
0002
001e
fff6
0041
ffe0
ffd6
ff79
fffe
ffae
ffda
fff7
ffa0
ffb4
ff5e
ffc9
0023
ffe9
ffdf
0014
ff59
ffff
ffc0
ffe8
0025
0024
ffdf
ffbe
001c
ffae
ffe9
ff69
ffd5
ffef
ffbd
0001
ff8a
ffee
ff6b
ff75
ffee
fff3
0010
ffbe
ffdd
ffeb
001a
fff4
fff4
fffc
0003
ffd9
0034
0015
ffee
ffed
ff80
001a
ffc2
0018
003b
005a
fffe
0009
ffdb
ffc2
001c
000c
0006
ffb2
ffb5
0006
0039
ffa4
002b
ffb9
000e
ffff
ffa0
0018
004f
ff00
001c
ffac
0025
0021
0057
ffd1
001d
000b
fff0
ffe3
ffed
fff6
ff77
0029
0016
ffcd
0048
0037
ff32
004b
0025
ffc0
000b
0028
ffe2
000c
ffad
ffe9
fffa
003d
ffad
ffc9
ffc2
ffc4
0045
000d
001b
fff5
ffb0
ffef
ffad
0018
ffa1
0027
ffe6
ffe1
001d
ffc6
ff89
ff97
ff7b
ffaf
0009
0041
0012
0035
ff86
000f
ffa2
002d
ff6d
ffe3
fff7
ffdc
ffee
ffa4
ffb1
ff6a
fff9
0057
0043
fff5
ffa5
002c
0001
0057
ffa6
ffad
ff86
ffb8
0016
ffff
002d
003d
ff2e
ffdf
001a
0011
ffa4
0011
0013
ffcf
0056
001e
0035
0052
fff2
0049
fff2
ffc5
ffdb
fec1
0017
ffd0
ffa7
ff75
ffed
0013
ffe5
ffd2
ffcc
0006
fff1
ffda
ffbf
fff1
0097
ffb9
003e
0006
0035
0015
0007
ffed
ffe8
0048
001d
ff60
0003
ff86
ffbb
ffe6
ffec
ffb7
0007
ffeb
ffcc
ffb9
ff74
ffc3
ffad
fff7
ffdf
0015
ffe9
0005
002f
ffc2
0021
0018
ff8f
ffca
ffde
ffec
ff9f
ff74
0019
fff4
002d
ffec
0041
002a
ffe7
0002
0016
ffcc
ffe9
ffb3
ffc2
0035
003b
feee
ffb1
0025
ffe6
0009
0025
fffd
0048
ffe7
ffdd
ff80
0005
ffb5
ffe1
fffe
ffa7
ffbb
ff65
ffd0
002a
fff0
ffe6
001b
ff60
0006
ffc7
ffef
002c
002b
ffe6
ffc5
0023
ffb5
fff0
ff70
ffdc
fff6
ffc4
0008
ff91
fff5
ff72
ff7c
fff5
fffa
0017
ffc5
ffe4
fff2
0021
fffb
fffb
0003
000a
ffe0
003b
001c
fff5
fff4
ff87
0021
ffc9
001f
0042
0061
0005
0010
ffe2
ffc9
0023
0013
000d
ffb9
ffbc
000d
0040
ffab
0032
ffc0
0015
0006
ffa7
001f
0056
ff07
0023
ffb3
002c
0028
005e
ffd8
0024
0012
fff7
ffea
fff4
fffd
ff7e
0030
001d
ffd4
004f
003e
ff39
0052
002c
ffc7
0012
002f
ffe9
0013
ffb4
fff0
0001
0044
ffb4
ffd0
ffc9
ffcb
004c
0014
0022
fffc
ffb7
fff6
ffb4
001f
ffa8
002e
ffed
ffe8
0024
ffcd
ff90
ff9e
ff82
ffb6
0010
0048
0019
003c
ff8d
0016
ffa9
0034
ff74
ffea
fffe
ffe3
fff5
ffab
ffb8
ff71
0000
005e
004a
fffc
ffac
0033
0008
005e
ffad
ffb4
ff8d
ffbf
001d
0006
0034
0044
ff35
ffe6
0021
0018
ffab
0018
001a
ffd6
005d
0025
003c
0059
fff9
0050
fff9
ffcc
ffe2
fec8
001e
ffd7
ffae
ff7c
fff4
001a
ffec
ffd9
ffd3
000d
fff8
ffe1
ffc6
fff8
009e
ffc0
0045
000d
003c
001c
000e
fff4
ffef
004f
0024
ff67
000a
ff8d
ffc2
ffed
fff3
ffbe
000e
fff2
ffd3
ffc0
ff7b
ffca
ffb4
fffe
ffe6
001c
fff0
000c
0036
ffc9
0028
001f
ff96
ffd1
ffe5
fff3
ffa6
ff7b
0020
fffb
0034
fff3
0048
0031
ffee
0009
001d
ffd3
fff0
ffba
ffc9
003c
0042
fef5
ffb8
002c
ffed
0010
002c
0004
004f
ffee
ffe4
ff87
000c
ffbc
ffe8
0005
ffae
ffc2
ff6c
ffd7
0031
fff7
ffed
0022
ff67
000d
ffce
fff6
0033
0032
ffed
ffcc
002a
ffbc
fff7
ff77
ffe3
fffd
ffcb
000f
ff98
fffc
ff79
ff83
fffc
0001
001e
ffcc
ffeb
fff9
0028
0002
0002
000a
0011
ffe7
0042
0023
fffc
fffb
ff8e
0028
ffd0
0026
0049
0068
000c
0017
ffe9
ffd0
002a
001a
0014
ffc0
ffc3
0014
0047
ffb2
0039
ffc7
001c
000d
ffae
0026
005d
ff0e
002a
ffba
0033
002f
0065
ffdf
002b
0019
fffe
fff1
fffb
0004
ff85
0037
0024
ffdb
0056
0045
ff40
0059
0033
ffce
0019
0036
fff0
001a
ffbb
fff7
0008
004b
ffbb
ffd7
ffd0
ffd2
0053
001b
0029
0003
ffbe
fffd
ffbb
0026
ffaf
0035
fff4
ffef
002b
ffd4
ff97
ffa5
ff89
ffbd
0017
004f
0020
0043
ff94
001d
ffb0
003b
ff7b
fff1
0005
ffea
fffc
ffb2
ffbf
ff78
0007
0065
0051
0003
ffb3
003a
000f
0065
ffb4
ffbb
ff94
ffc6
0024
000d
003b
004b
ff3c
ffed
0028
001f
ffb2
001f
0021
ffdd
0064
002c
0043
0060
0000
0057
0000
ffd3
ffe9
fecf
0025
ffde
ffb5
ff83
fffb
0021
fff3
ffe0
ffda
0014
ffff
ffe8
ffcd
ffff
00a5
ffc7
004c
0014
0043
0023
0015
fffb
fff6
0056
002b
ff6e
0011
ff94
ffc9
fff4
fffa
ffc5
0015
fff9
ffda
ffc7
ff82
ffd1
ffbb
0005
ffed
0023
fff7
0013
003d
ffd0
002f
0026
ff9d
ffd8
ffec
fffa
ffad
ff82
0027
0002
003b
fffa
004f
0038
fff5
0010
0024
ffda
fff7
ffc1
ffd0
0043
0049
fefc
ffbf
0033
fff4
0017
0033
000b
0056
fff5
ffeb
ff8e
0013
ffc3
ffef
000c
ffb5
ffc9
ff73
ffde
0038
fffe
fff4
0029
ff6e
0014
ffd5
fffd
003a
0039
fff4
ffd3
0031
ffc3
fffe
ff7e
ffea
0004
ffd2
0016
ff9f
0003
ff80
ff8a
0003
0008
0025
ffd3
fff2
0000
002f
0009
0009
0011
0018
ffee
0049
002a
0003
0002
ff95
002f
ffd7
002d
0050
006f
0013
001e
fff0
ffd7
0031
0021
001b
ffc7
ffca
001b
004e
ffb9
0040
ffce
0023
0014
ffb5
002d
0064
ff15
0031
ffc1
003a
0036
006c
ffe6
0032
0020
0005
fff8
0002
000b
ff8c
003e
002b
ffe2
005d
004c
ff47
0060
003a
ffd5
0020
003d
fff7
0021
ffc2
fffe
000f
0052
ffc2
ffde
ffd7
ffd9
005a
0022
0030
000a
ffc5
0004
ffc2
002d
ffb6
003c
fffb
fff6
0032
ffdb
ff9e
ffac
ff90
ffc4
001e
0056
0027
004a
ff9b
0024
ffb7
0042
ff82
fff8
000c
fff1
0003
ffb9
ffc6
ff7f
000e
006c
0058
ffea
ff9a
0021
fff6
004c
ff9b
ffa2
ff7b
ffad
000b
fff4
0022
0032
ff23
ffd4
000f
0006
ff99
0006
0008
ffc4
004b
0013
002a
0047
ffe7
003e
ffe7
ffba
ffd0
feb6
000c
ffc5
ff9c
ff6a
ffe2
0008
ffda
ffc7
ffc1
fffb
ffe6
ffcf
ffb4
ffe6
008c
ffae
0033
fffb
002a
000a
fffc
ffe2
ffdd
003d
0012
ff55
fff8
ff7b
ffb0
ffdb
ffe1
ffac
fffc
ffe0
ffc1
ffae
ff69
ffb8
ffa2
ffec
ffd4
000a
ffde
fffa
0024
ffb7
0016
000d
ff84
ffbf
ffd3
ffe1
ff94
ff69
000e
ffe9
0022
ffe1
0036
001f
ffdc
fff7
000b
ffc1
ffde
ffa8
ffb7
002a
0030
fee3
ffa6
001a
ffdb
fffe
001a
fff2
003d
ffdc
ffd2
ff75
fffa
ffaa
ffd6
fff3
ff9c
ffb0
ff5a
ffc5
001f
ffe5
ffdb
0010
ff55
fffb
ffbc
ffe4
0021
0020
ffdb
ffba
0018
ffaa
ffe5
ff65
ffd1
ffeb
ffb9
fffd
ff86
ffea
ff67
ff71
ffea
ffef
000c
ffba
ffd9
ffe7
0016
fff0
fff0
fff8
ffff
ffd5
0030
0011
ffea
ffe9
ff7c
0016
ffbe
0014
0037
0056
fffa
0005
ffd7
ffbe
0018
0008
0002
ffae
ffb1
0002
0035
ffa0
0027
ffb5
000a
fffb
ff9c
0014
004b
fefc
0018
ffa8
0021
001d
0053
ffcd
0019
0007
ffec
ffdf
ffe9
fff2
ff73
0025
0012
ffc9
0044
0033
ff2e
0047
0021
ffbc
0007
0024
ffde
0008
ffa9
ffe5
fff6
0039
ffa9
ffc5
ffbe
ffc0
0041
0009
0017
fff1
ffac
ffeb
ffa9
0014
ff9d
0023
ffe2
ffdd
0019
ffc2
ff85
ff93
ff77
ffab
0005
003d
000e
0031
ff82
000b
ff9e
0029
ff69
ffdf
fff3
ffd8
ffea
ffa0
ffad
ff66
fff5
0053
003f
fff1
ffa1
0028
fffd
0053
ffa2
ffa9
ff82
ffb4
0012
fffb
0029
0039
ff2a
ffdb
0016
000d
ffa0
000d
000f
ffcb
0052
001a
0031
004e
ffee
0045
ffee
ffc1
ffd7
febd
0013
ffcc
ffa3
ff71
ffe9
000f
ffe1
ffce
ffc8
0002
ffed
ffd6
ffbb
ffed
0093
ffb5
003a
0002
0031
0011
0003
ffe9
ffe4
0044
0019
ff5c
ffff
ff82
ffb7
ffe2
ffe8
ffb3
0003
ffe7
ffc8
ffb5
ff70
ffbf
ffa9
fff3
ffdb
0011
ffe5
0001
002b
ffbe
001d
0014
ff8b
ffc6
ffda
ffe8
ff9b
ff70
0015
fff0
0029
ffe8
003d
0026
ffe3
fffe
0012
ffc8
ffe5
ffaf
ffbe
0031
0037
feea
ffad
0021
ffe2
0005
0021
fff9
0044
ffe3
ffd9
ff7c
0001
ffb1
ffdd
fffa
ffa3
ffb7
ff61
ffcc
0026
ffec
ffe2
0017
ff5c
0002
ffc3
ffeb
0028
0027
ffe2
ffc1
001f
ffb1
ffec
ff6c
ffd8
fff2
ffc0
0004
ff8d
fff1
ff6e
ff78
fff1
fff6
0013
ffc1
ffe0
ffee
001d
fff7
fff7
ffff
0006
ffdc
0037
0018
fff1
fff0
ff83
001d
ffc5
001b
003e
005d
0001
000c
ffde
ffc5
001f
000f
0009
ffb5
ffb8
0009
003c
ffa7
002e
ffbc
0011
0002
ffa3
001b
0052
ff03
001f
ffaf
0028
0024
005a
ffd4
0020
000e
fff3
ffe6
fff0
fff9
ff7a
002c
0019
ffd0
004b
003a
ff35
004e
0028
ffc3
000e
002b
ffe5
000f
ffb0
ffec
fffd
0040
ffb0
ffcc
ffc5
ffc7
0048
0010
001e
fff8
ffb3
fff2
ffb0
001b
ffa4
002a
ffe9
ffe4
0020
ffc9
ff8c
ff9a
ff7e
ffb2
000c
0044
0015
0038
ff89
0012
ffa5
0030
ff70
ffe6
fffa
ffdf
fff1
ffa7
ffb4
ff6d
fffc
005a
0046
fff8
ffa8
002f
0004
005a
ffa9
ffb0
ff89
ffbb
0019
0002
0030
0040
ff31
ffe2
001d
0014
ffa7
0014
0016
ffd2
0059
0021
0038
0055
fff5
004c
fff5
ffc8
ffde
fec4
001a
ffd3
ffaa
ff78
fff0
0016
ffe8
ffd5
ffcf
0009
fff4
ffdd
ffc2
fff4
009a
ffbc
0041
0009
0038
0018
000a
fff0
ffeb
004b
0020
ff63
0006
ff89
ffbe
ffe9
ffef
ffba
000a
ffee
ffcf
ffbc
ff77
ffc6
ffb0
fffa
ffe2
0018
ffec
0008
0032
ffc5
0024
001b
ff92
ffcd
ffe1
ffef
ffa2
ff77
001c
fff7
0030
ffef
0044
002d
ffea
0005
0019
ffcf
ffec
ffb6
ffc5
0038
003e
fef1
ffb4
0028
ffe9
000c
0028
0000
004b
ffea
ffe0
ff83
0008
ffb8
ffe4
0001
ffaa
ffbe
ff68
ffd3
002d
fff3
ffe9
001e
ff63
0009
ffca
fff2
002f
002e
ffe9
ffc8
0026
ffb8
fff3
ff73
ffdf
fff9
ffc7
000b
ff94
fff8
ff75
ff7f
fff8
fffd
001a
ffc8
ffe7
fff5
0024
fffe
fffe
0006
000d
ffe3
003e
001f
fff8
fff7
ff8a
0024
ffcc
0022
0045
0064
0008
0013
ffe5
ffcc
0026
0016
0010
ffbc
ffbf
0010
0043
ffae
0035
ffc3
0018
0009
ffaa
0022
0059
ff0a
0026
ffb6
002f
002b
0061
ffdb
0027
0015
fffa
ffed
fff7
0000
ff81
0033
0020
ffd7
0052
0041
ff3c
0055
002f
ffca
0015
0032
ffec
0016
ffb7
fff3
0004
0047
ffb7
ffd3
ffcc
ffce
004f
0017
0025
ffff
ffba
fff9
ffb7
0022
ffab
0031
fff0
ffeb
0027
ffd0
ff93
ffa1
ff85
ffb9
0013
004b
001c
003f
ff90
0019
ffac
0037
ff77
ffed
0001
ffe6
fff8
ffae
ffbb
ff74
0003
0061
004d
ffff
ffaf
0036
000b
0061
ffb0
ffb7
ff90
ffc2
0020
0009
0037
0047
ff38
ffe9
0024
001b
ffae
001b
001d
ffd9
0060
0028
003f
005c
fffc
0053
fffc
ffcf
ffe5
fecb
0021
ffda
ffb1
ff7f
fff7
001d
ffef
ffdc
ffd6
0010
fffb
ffe4
ffc9
fffb
00a1
ffc3
0048
0010
003f
001f
0011
fff7
fff2
0052
0027
ff6a
000d
ff90
ffc5
fff0
fff6
ffc1
0011
fff5
ffd6
ffc3
ff7e
ffcd
ffb7
0001
ffe9
001f
fff3
000f
0039
ffcc
002b
0022
ff99
ffd4
ffe8
fff6
ffa9
ff7e
0023
fffe
0037
fff6
004b
0034
fff1
000c
0020
ffd6
fff3
ffbd
ffcc
003f
0045
fef8
ffbb
002f
fff0
0013
002f
0007
0052
fff1
ffe7
ff8a
000f
ffbf
ffeb
0008
ffb1
ffc5
ff6f
ffda
0034
fffa
fff0
0025
ff6a
0010
ffd1
fff9
0036
0035
fff0
ffcf
002d
ffbf
fffa
ff7a
ffe6
0000
ffce
0012
ff9b
ffff
ff7c
ff86
ffff
0004
0021
ffcf
ffee
fffc
002b
0005
0005
000d
0014
ffea
0045
0026
ffff
fffe
ff91
002b
ffd3
0029
004c
006b
000f
001a
ffec
ffd3
002d
001d
0017
ffc3
ffc6
0017
004a
ffb5
003c
ffca
001f
0010
ffb1
0029
0060
ff11
002d
ffbd
0036
0032
0068
ffe2
002e
001c
0001
fff4
fffe
0007
ff88
003a
0027
ffde
0059
0048
ff43
005c
0036
ffd1
001c
0039
fff3
001d
ffbe
fffa
000b
004e
ffbe
ffda
ffd3
ffd5
0056
001e
002c
0006
ffc1
0000
ffbe
0029
ffb2
0038
fff7
fff2
002e
ffd7
ff9a
ffa8
ff8c
ffc0
001a
0052
0023
0046
ff97
0020
ffb3
003e
ff7e
fff4
0008
ffed
ffff
ffb5
ffc2
ff7b
000a
0068
0054
ffe6
ff96
001d
fff2
0048
ff97
ff9e
ff77
ffa9
0007
fff0
001e
002e
ff1f
ffd0
000b
0002
ff95
0002
0004
ffc0
0047
000f
0026
0043
ffe3
003a
ffe3
ffb6
ffcc
feb2
0008
ffc1
ff98
ff66
ffde
0004
ffd6
ffc3
ffbd
fff7
ffe2
ffcb
ffb0
ffe2
0088
ffaa
002f
fff7
0026
0006
fff8
ffde
ffd9
0039
000e
ff51
fff4
ff77
ffac
ffd7
ffdd
ffa8
fff8
ffdc
ffbd
ffaa
ff65
ffb4
ff9e
ffe8
ffd0
0006
ffda
fff6
0020
ffb3
0012
0009
ff80
ffbb
ffcf
ffdd
ff90
ff65
000a
ffe5
001e
ffdd
0032
001b
ffd8
fff3
0007
ffbd
ffda
ffa4
ffb3
0026
002c
fedf
ffa2
0016
ffd7
fffa
0016
ffee
0039
ffd8
ffce
ff71
fff6
ffa6
ffd2
ffef
ff98
ffac
ff56
ffc1
001b
ffe1
ffd7
000c
ff51
fff7
ffb8
ffe0
001d
001c
ffd7
ffb6
0014
ffa6
ffe1
ff61
ffcd
ffe7
ffb5
fff9
ff82
ffe6
ff63
ff6d
ffe6
ffeb
0008
ffb6
ffd5
ffe3
0012
ffec
ffec
fff4
fffb
ffd1
002c
000d
ffe6
ffe5
ff78
0012
ffba
0010
0033
0052
fff6
0001
ffd3
ffba
0014
0004
fffe
ffaa
ffad
fffe
0031
ff9c
0023
ffb1
0006
fff7
ff98
0010
0047
fef8
0014
ffa4
001d
0019
004f
ffc9
0015
0003
ffe8
ffdb
ffe5
ffee
ff6f
0021
000e
ffc5
0040
002f
ff2a
0043
001d
ffb8
0003
0020
ffda
0004
ffa5
ffe1
fff2
0035
ffa5
ffc1
ffba
ffbc
003d
0005
0013
ffed
ffa8
ffe7
ffa5
0010
ff99
001f
ffde
ffd9
0015
ffbe
ff81
ff8f
ff73
ffa7
0001
0039
000a
002d
ff7e
0007
ff9a
0025
ff65
ffdb
ffef
ffd4
ffe6
ff9c
ffa9
ff62
fff1
004f
003b
ffed
ff9d
0024
fff9
004f
ff9e
ffa5
ff7e
ffb0
000e
fff7
0025
0035
ff26
ffd7
0012
0009
ff9c
0009
000b
ffc7
004e
0016
002d
004a
ffea
0041
ffea
ffbd
ffd3
feb9
000f
ffc8
ff9f
ff6d
ffe5
000b
ffdd
ffca
ffc4
fffe
ffe9
ffd2
ffb7
ffe9
008f
ffb1
0036
fffe
002d
000d
ffff
ffe5
ffe0
0040
0015
ff58
fffb
ff7e
ffb3
ffde
ffe4
ffaf
ffff
ffe3
ffc4
ffb1
ff6c
ffbb
ffa5
ffef
ffd7
000d
ffe1
fffd
0027
ffba
0019
0010
ff87
ffc2
ffd6
ffe4
ff97
ff6c
0011
ffec
0025
ffe4
0039
0022
ffdf
fffa
000e
ffc4
ffe1
ffab
ffba
002d
0033
fee6
ffa9
001d
ffde
0001
001d
fff5
0040
ffdf
ffd5
ff78
fffd
ffad
ffd9
fff6
ff9f
ffb3
ff5d
ffc8
0022
ffe8
ffde
0013
ff58
fffe
ffbf
ffe7
0024
0023
ffde
ffbd
001b
ffad
ffe8
ff68
ffd4
ffee
ffbc
0000
ff89
ffed
ff6a
ff74
ffed
fff2
000f
ffbd
ffdc
ffea
0019
fff3
fff3
fffb
0002
ffd8
0033
0014
ffed
ffec
ff7f
0019
ffc1
0017
003a
0059
fffd
0008
ffda
ffc1
001b
000b
0005
ffb1
ffb4
0005
0038
ffa3
002a
ffb8
000d
fffe
ff9f
0017
004e
feff
001b
ffab
0024
0020
0056
ffd0
001c
000a
ffef
ffe2
ffec
fff5
ff76
0028
0015
ffcc
0047
0036
ff31
004a
0024
ffbf
000a
0027
ffe1
000b
ffac
ffe8
fff9
003c
ffac
ffc8
ffc1
ffc3
0044
000c
001a
fff4
ffaf
ffee
ffac
0017
ffa0
0026
ffe5
ffe0
001c
ffc5
ff88
ff96
ff7a
ffae
0008
0040
0011
0034
ff85
000e
ffa1
002c
ff6c
ffe2
fff6
ffdb
ffed
ffa3
ffb0
ff69
fff8
0056
0042
fff4
ffa4
002b
0000
0056
ffa5
ffac
ff85
ffb7
0015
fffe
002c
003c
ff2d
ffde
0019
0010
ffa3
0010
0012
ffce
0055
001d
0034
0051
fff1
0048
fff1
ffc4
ffda
fec0
0016
