ffb0
ff99
ff84
ff8d
ff8b
ff77
ff69
ff85
ff6b
ff82
ff62
ff5d
ff87
ff77
ff69
ff93
ff7c
ffa4
ff75
ff7c
ff93
ff4b
ff77
ff6c
ff77
ff59
ff65
ff54
ff61
ff79
ff46
ff70
ff9b
ff63
ff66
ff6b
ff80
ffb1
ff6f
ff48
ff58
ff31
ff40
ff4b
ff59
ff6f
ff5f
ffa7
ffa0
ff75
ffa2
ff9b
ff8c
ff6f
ff95
ff75
ff74
ff8c
ff92
ff51
ff4f
ff43
ff39
ff85
ff6d
ff89
ff9d
ff91
ff96
ff82
ffa0
ff8d
ffc1
ff83
ffb1
ff8e
ffad
ff8c
ff80
ff76
ff8f
ff5d
ff66
ff4f
ff6e
ff8d
ff8f
ff60
ff5c
ff84
ff5b
ff74
ff51
ff69
ff83
ff75
ff76
ff90
ff7f
ffa0
ffa8
ffd5
ffde
ffdf
ffa3
ff98
ff98
ff95
ff81
ff85
ff37
ff8f
ff94
ff60
ff64
ff4a
ff7d
ff7f
ffa8
ff5f
ff6d
ff91
ff94
ff84
ffb6
ffb7
ff9b
ffba
