ffb0
ff99
ff84
ff8d
ff8b
ff77
ff69
ff85
ff6b
ff82
ff62
ff5d
ff87
ff77
ff69
ff93
ff7c
ffa4
ff75
ff7c
ff93
ff4b
ff77
ff6c
ff77
ff59
ff65
ff54
ff61
ff79
ff46
ff70
ff9b
ff63
ff66
ff6b
ff80
ffb1
ff6f
ff48
ff58
ff31
ff40
ff4b
ff59
ff6f
ff5f
ffa7
ffa0
ff75
ffa2
ff9b
ff8c
ff6f
ff95
ff75
ff74
ff8c
ff92
ff51
ff4f
ff43
ff39
ff85
ff6d
ff89
ff9d
ff91
ff96
ff82
ffa0
ff8d
ffc1
ff83
ffb1
ff8e
ffad
ff8c
ff80
ff76
ff8f
ff5d
ff66
ff4f
ff6e
ff8d
ff8f
ff60
ff5c
ff84
ff5b
ff74
ff51
ff69
ff83
ff75
ff76
ff90
ff7f
ffa0
ffa8
ffd5
ffde
ffdf
ffa3
ff98
ff98
ff95
ff81
ff85
ff37
ff8f
ff94
ff60
ff64
ff4a
ff7d
ff7f
ffa8
ff5f
ff6d
ff91
ff94
ff84
ffb6
ffb7
ff9b
ffba
ffa6
ffc4
ffb1
ff9c
ffac
ffa6
ff80
ff57
ff95
ff8d
ff83
ff64
ff60
ff61
ff60
ff61
ff9e
ff60
ff57
ff41
ff74
ff9b
ffab
ffbc
ffc3
ffc1
ffd7
0006
fffa
ffff
ffe6
ffcd
ffc1
ffb8
ffbe
ffbc
ffb0
ff9f
ff87
ff86
ff6a
ff8a
ff7c
ffb7
ff8f
ff70
ff58
ff60
ff62
ff72
ffd0
fff8
002a
0004
002b
0053
002e
0014
0009
fff8
fff5
ffc1
ffae
ff8e
ffa0
ff98
ff5c
ff94
ff78
ff83
ff85
ff72
ff7c
ff82
ff71
ff75
ff78
ffb0
ffe5
000b
0006
000f
000d
0032
0016
ffff
fff8
ffdf
ffe0
ffbd
ff90
ffb3
ffa0
ff8e
ff85
ff4c
ff6d
ff68
ff73
ff86
ffa2
ff86
ff88
ffad
ffd5
fff5
0020
0032
002a
000a
0054
003e
003f
0029
0023
fff5
ffe7
ffc8
ffc6
ffa1
ffbd
ffcc
ffb7
ff71
ff8d
ff49
ff57
ff9a
ff80
ff4d
ff8f
ff9a
ffc9
fff1
0041
003b
0020
0001
0042
001f
0013
0044
0029
fffb
fff1
000f
ffca
ffbb
ffc4
ffae
ff78
ff64
ff57
ff42
ffba
ffac
ff7c
ff87
ffa5
ffae
ffc0
ffee
0019
0017
0009
0015
0048
000a
0004
0004
0015
0000
0006
ffdb
ffb7
ff9e
ffc1
ff9e
ff73
ff89
ff5b
ffa2
ff81
ffaa
ffaa
ffaa
ffc1
ffa6
ffe2
fff3
ffe8
ffe9
0002
0011
002b
fff5
ffe5
fffc
0011
ffd1
ffdc
ffca
ffa4
ff6a
ffa6
ff96
ff8c
ff8a
ff74
ff6e
ff8c
ff88
ffa9
ffad
ffc5
ffe1
0002
000b
fff4
0011
ffd0
0008
0019
0013
ffff
fff1
ffea
ffd0
ffab
ff9e
ff8c
ffa7
ffa4
ffc4
ff70
ff61
ff5c
ff6e
ff94
ffa5
ff9c
ffc6
0007
0007
0017
0009
001a
0003
ffa0
000d
0001
0028
002d
0016
fff5
ffde
ffa6
ff8b
ffb6
ff96
ffa7
ff75
ff7f
ff82
ff97
ff86
ff5f
ff9d
ffa8
ffed
0001
000f
0007
0029
0031
ffed
ff8f
0022
0030
0048
0028
0017
001d
ffe2
ffbb
ff9b
ffb5
ffa5
ffe1
ff74
ff7b
ff84
ff66
ff67
ff60
ff61
ffc5
ffe7
fff6
ffed
0008
0029
000e
ffb5
ffd5
001a
0036
000b
0014
001b
0015
ffec
ffcb
ffd6
ffab
ffba
ffb8
ffb7
ff9c
ff63
ff6a
ff8c
ff71
ff9f
ffda
ffce
ffcc
fff7
fff2
ffd6
ffeb
ffd0
fffd
0026
0011
ffe7
ffde
fff7
0010
ffff
0000
ffe5
ffb6
ffaa
ffb0
ff8b
ff96
ff99
ff8d
ff84
ff96
ffab
ffb4
ffbd
ffdd
ffc8
ffe0
ffba
ffcb
ffdd
fff8
000b
0020
fff1
ffee
ffdb
fff1
fff1
0007
ffc0
ffc8
ffc3
ffe5
ffd5
ffa7
ff53
ff63
ff62
ff72
ffaa
ff8e
ffb3
ffaf
ffc8
ffd3
ffed
ffdd
ffdb
ffff
001e
003c
fffb
001a
ffda
ffd2
ffee
fff1
ff9b
ffa3
ffeb
ffe3
ffd2
ff76
ff6a
ff77
ff7c
ff60
ffb1
ff99
ff69
ff99
ffd7
0008
ffde
ffd8
ffd3
0014
0018
002d
ffff
0017
ffe6
fff5
ffef
fff4
ffa3
ff90
ffa2
ffc6
ffa6
ffa0
ff8a
ff67
ff74
ff79
ffd3
ff92
ff97
ff93
ffd1
0018
ffeb
ffd8
ffeb
0001
000e
0011
0020
0006
000b
ffe4
ffea
ffc3
ff88
ff68
ff9d
ff9b
ff94
ff49
ff68
ff8f
ff62
ff93
ffc6
ffc4
ff63
ff8c
ffaf
fffa
ffd4
ffed
fffa
ffed
0032
fffe
0010
fff9
fff4
ffc7
ffbc
ff8f
ff6d
ff5d
ff79
ff93
ff8c
ff7f
ff79
ff6e
ff6d
ff90
fff0
ffeb
ff66
ff8c
ffab
ffdd
ffec
fffb
0003
0004
0009
0012
000b
ffed
ffd6
ff8d
ff84
ff7d
ff6d
ff8a
ff65
ff7c
ff99
ff72
ffa1
ff63
ff87
ff6f
ffa6
ffbd
ffa3
ff8e
ff8b
ffb0
fffa
fff6
fff1
0005
000a
fff0
ffc9
ffad
ffb6
ff77
ff8e
ff79
ff81
ff86
ff61
ffa2
ff5d
ff64
ff7a
ff95
ff7f
ff95
ff8d
ff99
ffaa
ffc1
ffb8
ff9b
ffbb
ffb5
ffe4
fffb
ffc4
ffaa
ffcc
ffb1
ffba
ffc0
ff8c
ff80
ff64
ff5f
ff82
ff59
ff97
ff66
ff84
ff59
ff74
ff90
ff7d
ff8b
ff99
ffbd
ff6e
ff86
ff88
ffb3
ffe7
ffe6
ff8a
ff94
ffba
ffee
ffca
ffce
ffbc
ff95
ff62
ff6d
ff6b
ff96
ff82
ffb8
ff9e
ff59
ff78
ff61
ff70
ff71
ff51
ff8b
ff8a
ffa5
ff8c
ffab
ffcc
ffd1
ff95
ff7e
ffb3
ffcc
ffe5
ffd0
ffb5
ff75
ff98
ff69
ff9a
ff89
ff71
ff7e
ff63
ff88
ffa4
ff62
ff88
ff74
ff92
ffa3
ff46
ff7a
ff72
ff44
ff4c
ff47
ff65
ff5f
ff5f
ff36
ff45
ff47
ff83
ff42
ff91
ff98
ff75
ff6b
ff61
ff6b
ff6c
