0014
ffba
ffba
ffed
0035
002e
0004
ffcf
0012
0034
ffff
fffb
0001
000e
0028
ffea
0010
ffc4
ffd6
fff2
001a
ffde
fff9
ffd8
0026
fff1
fff0
ffe8
002f
fffa
ffbe
000b
fff1
003d
ffd9
0049
ffc3
0010
fff7
001b
0027
ffda
000e
001b
0017
001d
002b
ffed
0010
ffeb
fff0
0008
fff8
000d
0005
000c
ffc6
0009
ffdf
ffcf
000a
ffd7
ffe8
001d
001b
ffc1
ffc1
fff4
003c
0035
000b
ffd6
0019
003b
0006
0002
0008
0015
002f
fff1
0017
ffcb
ffdd
fff9
0021
ffe5
0000
ffdf
002d
fff8
fff7
ffef
0036
0001
ffc5
0012
fff8
0044
ffe0
0050
ffca
0017
fffe
0022
002e
ffe1
0015
0022
001e
0024
0032
fff4
0017
fff2
fff7
000f
ffff
0014
000c
0013
ffcd
0010
ffe6
ffd6
0011
ffde
ffef
0024
0022
ffc8
ffc8
fffb
0043
003c
0012
ffdd
0020
0042
000d
0009
000f
001c
0036
fff8
001e
ffd2
ffe4
0000
0028
ffec
0007
ffe6
0034
ffff
fffe
fff6
003d
0008
ffcc
0019
ffff
004b
ffe7
0057
ffd1
001e
0005
0029
0035
ffe8
001c
0029
0025
002b
0039
fffb
001e
fff9
fffe
0016
0006
001b
0013
001a
ffd4
0017
ffed
ffdd
0018
ffe5
fff6
002b
0009
ffaf
ffaf
ffe2
002a
0023
fff9
ffc4
0007
0029
fff4
fff0
fff6
0003
001d
ffdf
0005
ffb9
ffcb
ffe7
000f
ffd3
ffee
ffcd
001b
ffe6
ffe5
ffdd
0024
ffef
ffb3
0000
ffe6
0032
ffce
003e
ffb8
0005
ffec
0010
001c
ffcf
0003
0010
000c
0012
0020
ffe2
0005
ffe0
ffe5
fffd
ffed
0002
fffa
0001
ffbb
fffe
ffd4
ffc4
ffff
ffcc
ffdd
0012
0010
ffb6
ffb6
ffe9
0031
002a
0000
ffcb
000e
0030
fffb
fff7
fffd
000a
0024
ffe6
000c
ffc0
ffd2
ffee
0016
ffda
fff5
ffd4
0022
ffed
ffec
ffe4
002b
fff6
ffba
0007
ffed
0039
ffd5
0045
ffbf
000c
fff3
0017
0023
ffd6
000a
0017
0013
0019
0027
ffe9
000c
ffe7
ffec
0004
fff4
0009
0001
0008
ffc2
0005
ffdb
ffcb
0006
ffd3
ffe4
0019
0017
ffbd
ffbd
fff0
0038
0031
0007
ffd2
0015
0037
0002
fffe
0004
0011
002b
ffed
0013
ffc7
ffd9
fff5
001d
ffe1
fffc
ffdb
0029
fff4
fff3
ffeb
0032
fffd
ffc1
000e
fff4
0040
ffdc
004c
ffc6
0013
fffa
001e
002a
ffdd
0011
001e
001a
0020
002e
fff0
0013
ffee
fff3
000b
fffb
0010
0008
000f
ffc9
000c
ffe2
ffd2
000d
ffda
ffeb
0020
001e
ffc4
ffc4
fff7
003f
0038
000e
ffd9
001c
003e
0009
0005
000b
0018
0032
fff4
001a
ffce
ffe0
fffc
0024
ffe8
0003
ffe2
0030
fffb
fffa
fff2
0039
0004
ffc8
0015
fffb
0047
ffe3
0053
ffcd
001a
0001
0025
0031
ffe4
0018
0025
0021
0027
0035
fff7
001a
fff5
fffa
0012
0002
0017
000f
0016
ffd0
0013
ffe9
ffd9
0014
ffe1
fff2
0027
0025
ffcb
ffcb
fffe
0046
003f
0015
ffe0
0023
0045
0010
000c
0012
001f
0039
fffb
0021
ffd5
ffe7
0003
002b
ffef
000a
ffe9
0037
0002
0001
fff9
0040
000b
ffcf
001c
0002
004e
ffea
005a
ffd4
0021
0008
002c
0038
ffeb
001f
002c
0028
002e
003c
fffe
0021
fffc
0001
0019
0009
001e
0016
001d
ffd7
001a
fff0
ffe0
001b
ffe8
fff9
002e
000c
ffb2
ffb2
ffe5
002d
0026
fffc
ffc7
000a
002c
fff7
fff3
fff9
0006
0020
ffe2
0008
ffbc
ffce
ffea
0012
ffd6
fff1
ffd0
001e
ffe9
ffe8
ffe0
0027
fff2
ffb6
0003
ffe9
0035
ffd1
0041
ffbb
0008
ffef
0013
001f
ffd2
0006
0013
000f
0015
0023
ffe5
0008
ffe3
ffe8
0000
fff0
0005
fffd
0004
ffbe
0001
ffd7
ffc7
0002
ffcf
ffe0
0015
0013
ffb9
ffb9
ffec
0034
002d
0003
ffce
0011
0033
fffe
fffa
0000
000d
0027
ffe9
000f
ffc3
ffd5
fff1
0019
ffdd
fff8
ffd7
0025
fff0
ffef
ffe7
002e
fff9
ffbd
000a
fff0
003c
ffd8
0048
ffc2
000f
fff6
001a
0026
ffd9
000d
001a
0016
001c
002a
ffec
000f
ffea
ffef
0007
fff7
000c
0004
000b
ffc5
0008
ffde
ffce
0009
ffd6
ffe7
001c
001a
ffc0
ffc0
fff3
003b
0034
000a
ffd5
0018
003a
0005
0001
0007
0014
002e
fff0
0016
ffca
ffdc
fff8
0020
ffe4
ffff
ffde
002c
fff7
fff6
ffee
0035
0000
ffc4
0011
fff7
0043
ffdf
004f
ffc9
0016
fffd
0021
002d
ffe0
0014
0021
001d
0023
0031
fff3
0016
fff1
fff6
000e
fffe
0013
000b
0012
ffcc
000f
ffe5
ffd5
0010
ffdd
ffee
0023
0021
ffc7
ffc7
fffa
0042
003b
0011
ffdc
001f
0041
000c
0008
000e
001b
0035
fff7
001d
ffd1
ffe3
ffff
0027
ffeb
0006
ffe5
0033
fffe
fffd
fff5
003c
0007
ffcb
0018
fffe
004a
ffe6
0056
ffd0
001d
0004
0028
0034
ffe7
001b
0028
0024
002a
0038
fffa
001d
fff8
fffd
0015
0005
001a
0012
0019
ffd3
0016
ffec
ffdc
0017
ffe4
fff5
002a
0008
ffae
ffae
ffe1
0029
0022
fff8
ffc3
0006
0028
fff3
ffef
fff5
0002
001c
ffde
0004
ffb8
ffca
ffe6
000e
ffd2
ffed
ffcc
001a
ffe5
ffe4
ffdc
0023
ffee
ffb2
ffff
ffe5
0031
ffcd
003d
ffb7
0004
ffeb
000f
001b
ffce
0002
000f
000b
0011
001f
ffe1
0004
ffdf
ffe4
fffc
ffec
0001
fff9
0000
ffba
fffd
ffd3
ffc3
fffe
ffcb
ffdc
0011
000f
ffb5
ffb5
ffe8
0030
0029
ffff
ffca
000d
002f
fffa
fff6
fffc
0009
0023
ffe5
000b
ffbf
ffd1
ffed
0015
ffd9
fff4
ffd3
0021
ffec
ffeb
ffe3
002a
fff5
ffb9
0006
ffec
0038
ffd4
0044
ffbe
000b
fff2
0016
0022
ffd5
0009
0016
0012
0018
0026
ffe8
000b
ffe6
ffeb
0003
fff3
0008
0000
0007
ffc1
0004
ffda
ffca
0005
ffd2
ffe3
0018
0016
ffbc
ffbc
ffef
0037
0030
0006
ffd1
0014
0036
0001
fffd
0003
0010
002a
ffec
0012
ffc6
ffd8
fff4
001c
ffe0
fffb
ffda
0028
fff3
fff2
ffea
0031
fffc
ffc0
000d
fff3
003f
ffdb
004b
ffc5
0012
fff9
001d
0029
ffdc
0010
001d
0019
001f
002d
ffef
0012
ffed
fff2
000a
fffa
000f
0007
000e
ffc8
000b
ffe1
ffd1
000c
ffd9
ffea
001f
001d
ffc3
ffc3
fff6
003e
0037
000d
ffd8
001b
003d
0008
0004
000a
0017
0031
fff3
0019
ffcd
ffdf
fffb
0023
ffe7
0002
ffe1
002f
fffa
fff9
fff1
0038
0003
ffc7
0014
fffa
0046
ffe2
0052
ffcc
0019
0000
0024
0030
ffe3
0017
0024
0020
0026
0034
fff6
0019
fff4
fff9
0011
0001
0016
000e
0015
ffcf
0012
ffe8
ffd8
0013
ffe0
fff1
0026
0024
ffca
ffca
fffd
0045
003e
0014
ffdf
0022
0044
000f
000b
0011
001e
0038
fffa
0020
ffd4
ffe6
0002
002a
ffee
0009
ffe8
0036
0001
0000
fff8
003f
000a
ffce
001b
0001
004d
ffe9
0059
ffd3
0020
0007
002b
0037
ffea
001e
002b
0027
002d
003b
fffd
0020
fffb
0000
0018
0008
001d
0015
001c
ffd6
0019
ffef
ffdf
001a
ffe7
fff8
002d
000b
ffb1
ffb1
ffe4
002c
0025
fffb
ffc6
0009
002b
fff6
fff2
fff8
0005
001f
ffe1
0007
ffbb
ffcd
ffe9
0011
ffd5
fff0
ffcf
001d
ffe8
ffe7
ffdf
0026
fff1
ffb5
0002
ffe8
0034
ffd0
0040
ffba
0007
ffee
0012
001e
ffd1
0005
0012
000e
0014
0022
ffe4
0007
ffe2
ffe7
ffff
ffef
0004
fffc
0003
ffbd
0000
ffd6
ffc6
0001
ffce
ffdf
0014
0012
ffb8
ffb8
ffeb
0033
002c
0002
ffcd
0010
0032
fffd
fff9
ffff
000c
0026
ffe8
000e
ffc2
ffd4
fff0
0018
ffdc
fff7
ffd6
0024
ffef
ffee
ffe6
002d
fff8
ffbc
0009
ffef
003b
ffd7
0047
ffc1
000e
fff5
0019
0025
ffd8
000c
0019
0015
001b
0029
ffeb
000e
ffe9
ffee
0006
fff6
000b
0003
000a
ffc4
0007
ffdd
ffcd
0008
ffd5
ffe6
001b
0019
ffbf
ffbf
fff2
003a
0033
0009
ffd4
0017
0039
0004
0000
0006
0013
002d
ffef
0015
ffc9
ffdb
fff7
001f
ffe3
fffe
ffdd
002b
fff6
fff5
ffed
0034
ffff
ffc3
0010
fff6
0042
ffde
004e
ffc8
0015
fffc
0020
002c
ffdf
0013
0020
001c
0022
0030
fff2
0015
fff0
fff5
000d
fffd
0012
000a
0011
ffcb
000e
ffe4
ffd4
000f
ffdc
ffed
0022
0020
ffc6
ffc6
fff9
0041
003a
0010
ffdb
001e
0040
000b
0007
000d
001a
0034
fff6
001c
ffd0
ffe2
fffe
0026
ffea
0005
ffe4
0032
fffd
fffc
fff4
003b
0006
ffca
0017
fffd
0049
ffe5
0055
ffcf
001c
0003
0027
0033
ffe6
001a
0027
0023
0029
0037
fff9
001c
fff7
fffc
0014
0004
0019
0011
0018
ffd2
0015
ffeb
ffdb
0016
ffe3
fff4
0029
0007
ffad
ffad
ffe0
0028
0021
fff7
ffc2
0005
0027
fff2
ffee
fff4
0001
001b
ffdd
0003
ffb7
ffc9
ffe5
000d
ffd1
ffec
ffcb
0019
ffe4
ffe3
ffdb
0022
ffed
ffb1
fffe
ffe4
0030
ffcc
003c
ffb6
0003
ffea
000e
001a
ffcd
0001
000e
000a
0010
001e
ffe0
0003
ffde
ffe3
fffb
ffeb
0000
fff8
ffff
ffb9
fffc
ffd2
ffc2
fffd
ffca
ffdb
0010
000e
ffb4
ffb4
ffe7
002f
0028
fffe
ffc9
000c
002e
fff9
fff5
fffb
0008
0022
ffe4
000a
ffbe
ffd0
ffec
0014
ffd8
fff3
ffd2
0020
ffeb
ffea
ffe2
0029
fff4
ffb8
0005
ffeb
0037
ffd3
0043
ffbd
000a
fff1
0015
0021
ffd4
0008
0015
0011
0017
0025
ffe7
000a
ffe5
ffea
0002
fff2
0007
ffff
0006
ffc0
0003
ffd9
ffc9
0004
ffd1
ffe2
0017
0015
ffbb
ffbb
ffee
0036
002f
0005
ffd0
0013
0035
0000
fffc
0002
000f
0029
ffeb
0011
ffc5
ffd7
fff3
001b
ffdf
fffa
ffd9
0027
fff2
fff1
ffe9
0030
fffb
ffbf
000c
fff2
003e
ffda
004a
ffc4
0011
fff8
001c
0028
ffdb
000f
001c
0018
001e
002c
ffee
0011
ffec
fff1
0009
fff9
000e
0006
000d
ffc7
000a
ffe0
ffd0
000b
ffd8
ffe9
001e
001c
ffc2
ffc2
fff5
003d
0036
000c
ffd7
001a
003c
0007
0003
0009
0016
0030
fff2
0018
ffcc
ffde
fffa
0022
ffe6
0001
ffe0
002e
fff9
fff8
fff0
0037
0002
ffc6
0013
fff9
0045
ffe1
0051
ffcb
0018
ffff
0023
002f
ffe2
0016
0023
001f
0025
0033
fff5
0018
fff3
fff8
0010
0000
0015
000d
0014
ffce
0011
ffe7
ffd7
0012
ffdf
fff0
0025
0023
ffc9
ffc9
fffc
0044
003d
0013
ffde
0021
0043
000e
000a
0010
001d
0037
fff9
001f
ffd3
ffe5
0001
0029
ffed
0008
ffe7
0035
0000
ffff
fff7
003e
0009
ffcd
001a
0000
004c
ffe8
0058
ffd2
001f
0006
002a
0036
ffe9
001d
002a
0026
002c
003a
fffc
001f
fffa
ffff
0017
0007
001c
0014
001b
ffd5
0018
ffee
ffde
0019
ffe6
fff7
002c
000a
ffb0
ffb0
ffe3
002b
0024
fffa
ffc5
0008
002a
fff5
fff1
fff7
0004
001e
ffe0
0006
ffba
ffcc
ffe8
0010
ffd4
ffef
ffce
001c
ffe7
ffe6
ffde
0025
fff0
ffb4
0001
ffe7
0033
ffcf
003f
ffb9
0006
ffed
0011
001d
ffd0
0004
0011
000d
0013
0021
ffe3
0006
ffe1
ffe6
fffe
ffee
0003
fffb
0002
ffbc
ffff
ffd5
ffc5
0000
ffcd
ffde
0013
0011
ffb7
ffb7
ffea
0032
002b
0001
ffcc
000f
0031
fffc
fff8
fffe
000b
0025
ffe7
000d
ffc1
ffd3
ffef
0017
ffdb
fff6
ffd5
0023
ffee
ffed
ffe5
002c
fff7
ffbb
0008
ffee
003a
ffd6
0046
ffc0
000d
fff4
0018
0024
ffd7
000b
0018
0014
001a
0028
ffea
000d
ffe8
ffed
0005
fff5
000a
0002
0009
ffc3
0006
ffdc
ffcc
0007
ffd4
ffe5
001a
0018
ffbe
ffbe
fff1
0039
0032
0008
ffd3
0016
0038
0003
ffff
0005
0012
002c
ffee
0014
ffc8
ffda
fff6
001e
ffe2
fffd
ffdc
002a
fff5
fff4
ffec
0033
fffe
ffc2
000f
fff5
0041
ffdd
004d
ffc7
0014
fffb
001f
002b
ffde
0012
001f
001b
0021
002f
fff1
0014
ffef
fff4
000c
fffc
0011
0009
0010
ffca
000d
ffe3
ffd3
000e
ffdb
ffec
0021
001f
ffc5
ffc5
fff8
0040
0039
000f
ffda
001d
003f
000a
0006
000c
0019
0033
fff5
001b
ffcf
ffe1
fffd
0025
ffe9
0004
ffe3
0031
fffc
fffb
fff3
003a
0005
ffc9
0016
fffc
0048
ffe4
0054
ffce
001b
0002
0026
0032
ffe5
0019
0026
0022
0028
0036
fff8
001b
fff6
fffb
0013
0003
0018
0010
0017
ffd1
0014
ffea
ffda
0015
ffe2
fff3
0028
0026
ffcc
ffcc
ffff
0047
0040
0016
ffe1
0024
0046
0011
000d
0013
0020
003a
fffc
0022
ffd6
ffe8
0004
002c
fff0
000b
ffea
0038
0003
0002
fffa
0041
000c
ffd0
001d
0003
004f
ffeb
005b
ffd5
0022
0009
002d
0039
ffec
0020
002d
0029
002f
003d
ffff
0022
fffd
0002
001a
000a
001f
0017
001e
ffd8
001b
fff1
ffe1
001c
ffe9
fffa
002f
000d
ffb3
ffb3
ffe6
002e
0027
fffd
ffc8
000b
002d
fff8
fff4
fffa
0007
0021
ffe3
0009
ffbd
ffcf
ffeb
0013
ffd7
fff2
ffd1
001f
ffea
ffe9
ffe1
0028
fff3
ffb7
0004
ffea
0036
ffd2
0042
ffbc
0009
fff0
0014
0020
ffd3
0007
0014
0010
0016
0024
ffe6
0009
ffe4
ffe9
0001
fff1
0006
fffe
0005
ffbf
0002
ffd8
ffc8
0003
ffd0
ffe1
0016
0014
ffba
ffba
ffed
0035
002e
0004
ffcf
0012
0034
ffff
fffb
0001
000e
0028
ffea
0010
ffc4
ffd6
fff2
001a
ffde
fff9
ffd8
0026
fff1
fff0
ffe8
002f
fffa
ffbe
000b
fff1
003d
ffd9
0049
ffc3
0010
fff7
001b
0027
ffda
000e
001b
0017
001d
002b
ffed
0010
ffeb
fff0
0008
fff8
000d
0005
000c
ffc6
0009
ffdf
ffcf
000a
ffd7
ffe8
001d
001b
ffc1
ffc1
fff4
003c
0035
000b
ffd6
0019
003b
0006
0002
0008
0015
002f
fff1
0017
ffcb
ffdd
fff9
0021
ffe5
0000
ffdf
002d
fff8
fff7
ffef
0036
0001
ffc5
0012
fff8
0044
ffe0
0050
ffca
0017
fffe
0022
002e
ffe1
0015
0022
001e
0024
0032
fff4
0017
fff2
fff7
000f
ffff
0014
000c
0013
ffcd
0010
ffe6
ffd6
0011
ffde
ffef
0024
0022
ffc8
ffc8
fffb
0043
003c
0012
ffdd
0020
0042
000d
0009
000f
001c
0036
fff8
001e
ffd2
ffe4
0000
0028
ffec
0007
ffe6
0034
ffff
fffe
fff6
003d
0008
ffcc
0019
ffff
004b
ffe7
0057
ffd1
001e
0005
0029
0035
ffe8
001c
0029
0025
002b
0039
fffb
001e
fff9
fffe
0016
0006
001b
0013
001a
ffd4
0017
ffed
ffdd
0018
ffe5
fff6
002b
0009
ffaf
ffaf
ffe2
002a
0023
fff9
ffc4
0007
0029
fff4
fff0
fff6
0003
001d
ffdf
0005
ffb9
ffcb
ffe7
000f
ffd3
ffee
ffcd
001b
ffe6
ffe5
ffdd
0024
ffef
ffb3
0000
ffe6
0032
ffce
003e
ffb8
0005
ffec
0010
001c
ffcf
0003
0010
000c
0012
0020
ffe2
0005
ffe0
ffe5
fffd
ffed
0002
fffa
0001
ffbb
fffe
ffd4
ffc4
ffff
ffcc
ffdd
0012
0010
ffb6
ffb6
ffe9
0031
002a
0000
ffcb
000e
0030
fffb
fff7
fffd
000a
0024
ffe6
000c
ffc0
ffd2
ffee
0016
ffda
fff5
ffd4
0022
ffed
ffec
ffe4
002b
fff6
ffba
0007
ffed
0039
ffd5
0045
ffbf
000c
fff3
0017
0023
ffd6
000a
0017
0013
0019
0027
ffe9
000c
ffe7
ffec
0004
fff4
0009
0001
0008
ffc2
0005
ffdb
ffcb
0006
ffd3
ffe4
0019
0017
ffbd
ffbd
fff0
0038
0031
0007
ffd2
0015
0037
0002
fffe
0004
0011
002b
ffed
0013
ffc7
ffd9
fff5
001d
ffe1
fffc
ffdb
0029
fff4
fff3
ffeb
0032
fffd
ffc1
000e
fff4
0040
ffdc
004c
ffc6
0013
fffa
001e
002a
ffdd
0011
001e
001a
0020
002e
fff0
0013
ffee
fff3
000b
fffb
0010
0008
000f
ffc9
000c
ffe2
ffd2
000d
ffda
ffeb
0020
001e
ffc4
ffc4
fff7
003f
0038
000e
ffd9
001c
003e
0009
0005
000b
0018
0032
fff4
001a
ffce
ffe0
fffc
0024
ffe8
0003
ffe2
0030
fffb
fffa
fff2
0039
0004
ffc8
0015
fffb
0047
ffe3
0053
ffcd
001a
0001
0025
0031
ffe4
0018
0025
0021
0027
0035
fff7
001a
fff5
fffa
0012
0002
0017
000f
0016
ffd0
0013
ffe9
ffd9
0014
ffe1
fff2
0027
0025
ffcb
ffcb
fffe
0046
003f
0015
ffe0
0023
0045
0010
000c
0012
001f
0039
fffb
0021
ffd5
ffe7
0003
002b
ffef
000a
ffe9
0037
0002
0001
fff9
0040
000b
ffcf
001c
0002
004e
ffea
005a
ffd4
0021
0008
002c
0038
ffeb
001f
002c
0028
002e
003c
fffe
0021
fffc
0001
0019
0009
001e
0016
001d
ffd7
001a
fff0
ffe0
001b
ffe8
fff9
002e
000c
ffb2
ffb2
ffe5
002d
0026
fffc
ffc7
000a
002c
fff7
fff3
fff9
0006
0020
ffe2
0008
ffbc
ffce
ffea
0012
ffd6
fff1
ffd0
001e
ffe9
ffe8
ffe0
0027
fff2
ffb6
0003
ffe9
0035
ffd1
0041
ffbb
0008
ffef
0013
001f
ffd2
0006
0013
000f
0015
0023
ffe5
0008
ffe3
ffe8
0000
fff0
0005
fffd
0004
ffbe
0001
ffd7
ffc7
0002
ffcf
ffe0
0015
0013
ffb9
ffb9
ffec
0034
002d
0003
ffce
0011
0033
fffe
fffa
0000
000d
0027
ffe9
000f
ffc3
ffd5
fff1
0019
ffdd
fff8
ffd7
0025
fff0
ffef
ffe7
002e
fff9
ffbd
000a
fff0
003c
ffd8
0048
ffc2
000f
fff6
001a
0026
ffd9
000d
001a
0016
001c
002a
ffec
000f
ffea
ffef
0007
fff7
000c
0004
000b
ffc5
0008
ffde
ffce
0009
ffd6
ffe7
001c
001a
ffc0
ffc0
fff3
003b
0034
000a
ffd5
0018
003a
0005
0001
0007
0014
002e
fff0
0016
ffca
ffdc
fff8
0020
ffe4
ffff
ffde
002c
fff7
fff6
ffee
0035
0000
ffc4
0011
fff7
0043
ffdf
004f
ffc9
0016
fffd
0021
002d
ffe0
0014
0021
001d
0023
0031
fff3
0016
fff1
fff6
000e
fffe
0013
000b
0012
ffcc
000f
ffe5
ffd5
0010
ffdd
ffee
0023
0021
ffc7
ffc7
fffa
0042
003b
0011
ffdc
001f
0041
000c
0008
000e
001b
0035
fff7
001d
ffd1
ffe3
ffff
0027
ffeb
0006
ffe5
0033
fffe
fffd
fff5
003c
0007
ffcb
0018
fffe
004a
ffe6
0056
ffd0
001d
0004
0028
0034
ffe7
001b
0028
0024
002a
0038
fffa
001d
fff8
fffd
0015
0005
001a
0012
0019
ffd3
0016
ffec
ffdc
0017
ffe4
fff5
002a
0008
ffae
ffae
ffe1
0029
0022
fff8
ffc3
0006
0028
fff3
ffef
fff5
0002
001c
ffde
0004
ffb8
ffca
ffe6
000e
ffd2
ffed
ffcc
001a
ffe5
ffe4
ffdc
0023
ffee
ffb2
ffff
ffe5
0031
ffcd
003d
ffb7
0004
ffeb
000f
001b
ffce
0002
000f
000b
0011
001f
ffe1
0004
ffdf
ffe4
fffc
ffec
0001
fff9
0000
ffba
fffd
ffd3
ffc3
fffe
ffcb
ffdc
0011
000f
ffb5
ffb5
ffe8
0030
0029
ffff
ffca
000d
002f
fffa
fff6
fffc
0009
0023
ffe5
000b
ffbf
ffd1
ffed
0015
ffd9
fff4
ffd3
0021
ffec
ffeb
ffe3
002a
fff5
ffb9
0006
ffec
0038
ffd4
0044
ffbe
000b
fff2
0016
0022
ffd5
0009
0016
0012
0018
0026
ffe8
000b
ffe6
ffeb
0003
fff3
0008
0000
0007
ffc1
0004
ffda
ffca
0005
ffd2
ffe3
0018
0016
ffbc
ffbc
ffef
0037
0030
0006
ffd1
0014
0036
0001
fffd
0003
0010
002a
ffec
0012
ffc6
ffd8
fff4
001c
ffe0
fffb
ffda
0028
fff3
fff2
ffea
0031
fffc
ffc0
000d
fff3
003f
ffdb
004b
ffc5
0012
fff9
001d
0029
ffdc
0010
001d
0019
001f
002d
ffef
0012
ffed
fff2
000a
fffa
000f
0007
000e
ffc8
000b
ffe1
ffd1
000c
ffd9
ffea
001f
001d
ffc3
ffc3
fff6
003e
0037
000d
ffd8
001b
003d
0008
0004
000a
0017
0031
fff3
0019
ffcd
ffdf
fffb
0023
ffe7
0002
ffe1
002f
fffa
fff9
fff1
0038
0003
ffc7
0014
fffa
0046
ffe2
0052
ffcc
0019
0000
0024
0030
ffe3
0017
0024
0020
0026
0034
fff6
0019
fff4
fff9
0011
0001
0016
000e
0015
ffcf
0012
ffe8
ffd8
0013
ffe0
fff1
0026
0024
ffca
ffca
fffd
0045
003e
0014
ffdf
0022
0044
000f
000b
0011
001e
0038
fffa
0020
ffd4
ffe6
0002
002a
ffee
0009
ffe8
0036
0001
0000
fff8
003f
000a
ffce
001b
0001
004d
ffe9
0059
ffd3
0020
0007
002b
0037
ffea
001e
002b
0027
002d
003b
fffd
0020
fffb
0000
0018
0008
001d
0015
001c
ffd6
0019
ffef
ffdf
001a
ffe7
fff8
002d
000b
ffb1
ffb1
ffe4
002c
0025
fffb
ffc6
0009
002b
fff6
fff2
fff8
0005
001f
ffe1
0007
ffbb
ffcd
ffe9
0011
ffd5
fff0
ffcf
001d
ffe8
ffe7
ffdf
0026
fff1
ffb5
0002
ffe8
0034
ffd0
0040
ffba
0007
ffee
0012
001e
ffd1
0005
0012
000e
0014
0022
ffe4
0007
ffe2
ffe7
ffff
ffef
0004
fffc
0003
ffbd
0000
ffd6
ffc6
0001
ffce
ffdf
0014
0012
ffb8
ffb8
ffeb
0033
002c
0002
ffcd
0010
0032
fffd
fff9
ffff
000c
0026
ffe8
000e
ffc2
ffd4
fff0
0018
ffdc
fff7
ffd6
0024
ffef
ffee
ffe6
002d
fff8
ffbc
0009
ffef
003b
ffd7
0047
ffc1
000e
fff5
0019
0025
ffd8
000c
0019
0015
001b
0029
ffeb
000e
ffe9
ffee
0006
fff6
000b
0003
000a
ffc4
0007
ffdd
ffcd
0008
ffd5
ffe6
001b
0019
ffbf
ffbf
fff2
003a
0033
0009
ffd4
0017
0039
0004
0000
0006
0013
002d
ffef
0015
ffc9
ffdb
fff7
001f
ffe3
fffe
ffdd
002b
fff6
fff5
ffed
0034
ffff
ffc3
0010
fff6
0042
ffde
004e
ffc8
0015
fffc
0020
002c
ffdf
0013
0020
001c
0022
0030
fff2
0015
fff0
fff5
000d
fffd
0012
000a
0011
ffcb
000e
ffe4
ffd4
000f
ffdc
ffed
0022
0020
ffc6
ffc6
fff9
0041
003a
0010
ffdb
001e
0040
000b
0007
000d
001a
0034
fff6
001c
ffd0
ffe2
fffe
0026
ffea
0005
ffe4
0032
fffd
fffc
fff4
003b
0006
ffca
0017
fffd
0049
ffe5
0055
ffcf
001c
0003
0027
0033
ffe6
001a
0027
0023
0029
0037
fff9
001c
fff7
fffc
0014
0004
0019
0011
0018
ffd2
0015
ffeb
ffdb
0016
ffe3
fff4
0029
0007
ffad
ffad
ffe0
0028
0021
fff7
ffc2
0005
0027
fff2
ffee
fff4
0001
001b
ffdd
0003
ffb7
ffc9
ffe5
000d
ffd1
ffec
ffcb
0019
ffe4
ffe3
ffdb
0022
ffed
ffb1
fffe
ffe4
0030
ffcc
003c
ffb6
0003
ffea
000e
001a
ffcd
0001
000e
000a
0010
001e
ffe0
0003
ffde
ffe3
fffb
ffeb
0000
fff8
ffff
ffb9
fffc
ffd2
ffc2
fffd
ffca
ffdb
0010
000e
ffb4
ffb4
ffe7
002f
0028
fffe
ffc9
000c
002e
fff9
fff5
fffb
0008
0022
ffe4
000a
ffbe
ffd0
ffec
0014
ffd8
fff3
ffd2
0020
ffeb
ffea
ffe2
0029
fff4
ffb8
0005
ffeb
0037
ffd3
0043
ffbd
000a
fff1
0015
0021
ffd4
0008
0015
0011
0017
0025
ffe7
000a
ffe5
ffea
0002
fff2
0007
ffff
0006
ffc0
0003
ffd9
ffc9
0004
ffd1
ffe2
0017
0015
ffbb
ffbb
ffee
0036
002f
0005
ffd0
0013
0035
0000
fffc
0002
000f
0029
ffeb
0011
ffc5
ffd7
fff3
001b
ffdf
fffa
ffd9
0027
fff2
fff1
ffe9
0030
fffb
ffbf
000c
fff2
003e
ffda
004a
ffc4
0011
fff8
001c
0028
ffdb
000f
001c
0018
001e
002c
ffee
0011
ffec
fff1
0009
fff9
000e
0006
000d
ffc7
000a
ffe0
ffd0
000b
ffd8
ffe9
001e
001c
ffc2
ffc2
fff5
003d
0036
000c
ffd7
001a
003c
0007
0003
0009
0016
0030
fff2
0018
ffcc
ffde
fffa
0022
ffe6
0001
ffe0
002e
fff9
fff8
fff0
0037
0002
ffc6
0013
fff9
0045
ffe1
0051
ffcb
0018
ffff
0023
002f
ffe2
0016
0023
001f
0025
0033
fff5
0018
fff3
fff8
0010
0000
0015
000d
0014
ffce
0011
ffe7
ffd7
0012
ffdf
fff0
0025
0023
ffc9
ffc9
fffc
0044
003d
0013
ffde
0021
0043
000e
000a
0010
001d
0037
fff9
001f
ffd3
ffe5
0001
0029
ffed
0008
ffe7
0035
0000
ffff
fff7
003e
0009
ffcd
001a
0000
004c
ffe8
0058
ffd2
001f
0006
002a
0036
ffe9
001d
002a
0026
002c
003a
fffc
001f
fffa
ffff
0017
0007
001c
0014
001b
ffd5
0018
ffee
ffde
0019
ffe6
fff7
002c
000a
ffb0
ffb0
ffe3
002b
0024
fffa
ffc5
0008
002a
fff5
fff1
fff7
0004
001e
ffe0
0006
ffba
ffcc
ffe8
0010
ffd4
ffef
ffce
001c
ffe7
ffe6
ffde
0025
fff0
ffb4
0001
ffe7
0033
ffcf
003f
ffb9
0006
ffed
0011
001d
ffd0
0004
0011
000d
0013
0021
ffe3
0006
ffe1
ffe6
fffe
ffee
0003
fffb
0002
ffbc
ffff
ffd5
ffc5
0000
ffcd
ffde
0013
0011
ffb7
ffb7
ffea
0032
002b
0001
ffcc
000f
0031
fffc
fff8
fffe
000b
0025
ffe7
000d
ffc1
ffd3
ffef
0017
ffdb
fff6
ffd5
0023
ffee
ffed
ffe5
002c
fff7
ffbb
0008
ffee
003a
ffd6
0046
ffc0
000d
fff4
0018
0024
ffd7
000b
0018
0014
001a
0028
ffea
000d
ffe8
ffed
0005
fff5
000a
0002
0009
ffc3
0006
ffdc
ffcc
0007
ffd4
ffe5
001a
0018
ffbe
ffbe
fff1
0039
0032
0008
ffd3
0016
0038
0003
ffff
0005
0012
002c
ffee
0014
ffc8
ffda
fff6
001e
ffe2
fffd
ffdc
002a
fff5
fff4
ffec
0033
fffe
ffc2
000f
fff5
0041
ffdd
004d
ffc7
0014
fffb
001f
002b
ffde
0012
001f
001b
0021
002f
fff1
0014
ffef
fff4
000c
fffc
0011
0009
0010
ffca
000d
ffe3
ffd3
000e
ffdb
ffec
0021
001f
ffc5
ffc5
fff8
0040
0039
000f
ffda
001d
003f
000a
0006
000c
0019
0033
fff5
001b
ffcf
ffe1
fffd
0025
ffe9
0004
ffe3
0031
fffc
fffb
fff3
003a
0005
ffc9
0016
fffc
0048
ffe4
0054
ffce
001b
0002
0026
0032
ffe5
0019
0026
0022
0028
0036
fff8
001b
fff6
fffb
0013
0003
0018
0010
0017
ffd1
0014
ffea
ffda
0015
ffe2
fff3
0028
0026
ffcc
ffcc
ffff
0047
0040
0016
ffe1
0024
0046
0011
000d
0013
0020
003a
fffc
0022
ffd6
ffe8
0004
002c
fff0
000b
ffea
0038
0003
0002
fffa
0041
000c
ffd0
001d
0003
004f
ffeb
005b
ffd5
0022
0009
002d
0039
ffec
0020
002d
0029
002f
003d
ffff
0022
fffd
0002
001a
000a
001f
0017
001e
ffd8
001b
fff1
ffe1
001c
ffe9
fffa
002f
000d
ffb3
ffb3
ffe6
002e
0027
fffd
ffc8
000b
002d
fff8
fff4
fffa
0007
0021
ffe3
0009
ffbd
ffcf
ffeb
0013
ffd7
fff2
ffd1
001f
ffea
ffe9
ffe1
0028
fff3
ffb7
0004
ffea
0036
ffd2
0042
ffbc
0009
fff0
0014
0020
ffd3
0007
0014
0010
0016
0024
ffe6
0009
ffe4
ffe9
0001
fff1
0006
fffe
0005
ffbf
0002
ffd8
ffc8
0003
ffd0
ffe1
0016
0014
ffba
ffba
ffed
0035
002e
0004
ffcf
0012
0034
ffff
fffb
0001
000e
0028
ffea
0010
ffc4
ffd6
fff2
001a
ffde
fff9
ffd8
0026
fff1
fff0
ffe8
002f
fffa
ffbe
000b
fff1
003d
ffd9
0049
ffc3
0010
fff7
001b
0027
ffda
000e
001b
0017
001d
002b
ffed
0010
ffeb
fff0
0008
fff8
000d
0005
000c
ffc6
0009
ffdf
ffcf
000a
ffd7
ffe8
001d
001b
ffc1
ffc1
fff4
003c
0035
000b
ffd6
0019
003b
0006
0002
0008
0015
002f
fff1
0017
ffcb
ffdd
fff9
0021
ffe5
0000
ffdf
002d
fff8
fff7
ffef
0036
0001
ffc5
0012
fff8
0044
ffe0
0050
ffca
0017
fffe
0022
002e
ffe1
0015
0022
001e
0024
0032
fff4
0017
fff2
fff7
000f
ffff
0014
000c
0013
ffcd
0010
ffe6
ffd6
0011
ffde
ffef
0024
0022
ffc8
ffc8
fffb
0043
003c
0012
ffdd
0020
0042
000d
0009
000f
001c
0036
fff8
001e
ffd2
ffe4
0000
0028
ffec
0007
ffe6
0034
ffff
fffe
fff6
003d
0008
ffcc
0019
ffff
004b
ffe7
0057
ffd1
001e
0005
0029
0035
ffe8
001c
0029
0025
002b
0039
fffb
001e
fff9
fffe
0016
0006
001b
0013
001a
ffd4
0017
ffed
ffdd
0018
ffe5
fff6
002b
0009
ffaf
ffaf
ffe2
002a
0023
fff9
ffc4
0007
0029
fff4
fff0
fff6
0003
001d
ffdf
0005
ffb9
ffcb
ffe7
000f
ffd3
ffee
ffcd
001b
ffe6
ffe5
ffdd
0024
ffef
ffb3
0000
ffe6
0032
ffce
003e
ffb8
0005
ffec
0010
001c
ffcf
0003
0010
000c
0012
0020
ffe2
0005
ffe0
ffe5
fffd
ffed
0002
fffa
0001
ffbb
fffe
ffd4
ffc4
ffff
ffcc
ffdd
0012
0010
ffb6
ffb6
ffe9
0031
002a
0000
ffcb
000e
0030
fffb
fff7
fffd
000a
0024
ffe6
000c
ffc0
ffd2
ffee
0016
ffda
fff5
ffd4
0022
ffed
ffec
ffe4
002b
fff6
ffba
0007
ffed
0039
ffd5
0045
ffbf
000c
fff3
0017
0023
ffd6
000a
0017
0013
0019
0027
ffe9
000c
ffe7
ffec
0004
fff4
0009
0001
0008
ffc2
0005
ffdb
ffcb
0006
ffd3
ffe4
0019
0017
ffbd
ffbd
fff0
0038
0031
0007
ffd2
0015
0037
0002
fffe
0004
0011
002b
ffed
0013
ffc7
ffd9
fff5
001d
ffe1
fffc
ffdb
0029
fff4
fff3
ffeb
0032
fffd
ffc1
000e
fff4
0040
ffdc
004c
ffc6
0013
fffa
001e
002a
ffdd
0011
001e
001a
0020
002e
fff0
0013
ffee
fff3
000b
fffb
0010
0008
000f
ffc9
000c
ffe2
ffd2
000d
ffda
ffeb
0020
001e
ffc4
ffc4
fff7
003f
0038
000e
ffd9
001c
003e
0009
0005
000b
0018
0032
fff4
001a
ffce
ffe0
fffc
0024
ffe8
0003
ffe2
0030
fffb
fffa
fff2
0039
0004
ffc8
0015
fffb
0047
ffe3
0053
ffcd
001a
0001
0025
0031
ffe4
0018
0025
0021
0027
0035
fff7
001a
fff5
fffa
0012
0002
0017
000f
0016
ffd0
0013
ffe9
ffd9
0014
ffe1
fff2
0027
0025
ffcb
ffcb
fffe
0046
003f
0015
ffe0
0023
0045
0010
000c
0012
001f
0039
fffb
0021
ffd5
ffe7
0003
002b
ffef
000a
ffe9
0037
0002
0001
fff9
0040
000b
ffcf
001c
0002
004e
ffea
005a
ffd4
0021
0008
002c
0038
ffeb
001f
002c
0028
002e
003c
fffe
0021
fffc
0001
0019
0009
001e
0016
001d
ffd7
001a
fff0
ffe0
001b
ffe8
fff9
002e
000c
ffb2
ffb2
ffe5
002d
0026
fffc
ffc7
000a
002c
fff7
fff3
fff9
0006
0020
ffe2
0008
ffbc
ffce
ffea
0012
ffd6
fff1
ffd0
001e
ffe9
ffe8
ffe0
0027
fff2
ffb6
0003
ffe9
0035
ffd1
0041
ffbb
0008
ffef
0013
001f
ffd2
0006
0013
000f
0015
0023
ffe5
0008
ffe3
ffe8
0000
fff0
0005
fffd
0004
ffbe
0001
ffd7
ffc7
0002
ffcf
ffe0
0015
0013
ffb9
ffb9
ffec
0034
002d
0003
ffce
0011
0033
fffe
fffa
0000
000d
0027
ffe9
000f
ffc3
ffd5
fff1
0019
ffdd
fff8
ffd7
0025
fff0
ffef
ffe7
002e
fff9
ffbd
000a
fff0
003c
ffd8
0048
ffc2
000f
fff6
001a
0026
ffd9
000d
001a
0016
001c
002a
ffec
000f
ffea
ffef
0007
fff7
000c
0004
000b
ffc5
0008
ffde
ffce
0009
ffd6
ffe7
001c
001a
ffc0
ffc0
fff3
003b
0034
000a
ffd5
0018
003a
0005
0001
0007
0014
002e
fff0
0016
ffca
ffdc
fff8
0020
ffe4
ffff
ffde
002c
fff7
fff6
ffee
0035
0000
ffc4
0011
fff7
0043
ffdf
004f
ffc9
0016
fffd
0021
002d
ffe0
0014
0021
001d
0023
0031
fff3
0016
fff1
fff6
000e
fffe
0013
000b
0012
ffcc
000f
ffe5
ffd5
0010
ffdd
ffee
0023
0021
ffc7
ffc7
fffa
0042
003b
0011
ffdc
001f
0041
000c
0008
000e
001b
0035
fff7
001d
ffd1
ffe3
ffff
0027
ffeb
0006
ffe5
0033
fffe
fffd
fff5
003c
0007
ffcb
0018
fffe
004a
ffe6
0056
ffd0
001d
0004
0028
0034
ffe7
001b
0028
0024
002a
0038
fffa
001d
fff8
fffd
0015
0005
001a
0012
0019
ffd3
0016
ffec
ffdc
0017
ffe4
fff5
002a
0008
ffae
ffae
ffe1
0029
0022
fff8
ffc3
0006
0028
fff3
ffef
fff5
0002
001c
ffde
0004
ffb8
ffca
ffe6
000e
ffd2
ffed
ffcc
001a
ffe5
ffe4
ffdc
0023
ffee
ffb2
ffff
ffe5
0031
ffcd
003d
ffb7
0004
ffeb
000f
001b
ffce
0002
000f
000b
0011
001f
ffe1
0004
ffdf
ffe4
fffc
ffec
0001
fff9
0000
ffba
fffd
ffd3
ffc3
fffe
ffcb
ffdc
0011
000f
ffb5
ffb5
ffe8
0030
0029
ffff
ffca
000d
002f
fffa
fff6
fffc
0009
0023
ffe5
000b
ffbf
ffd1
ffed
0015
ffd9
fff4
ffd3
0021
ffec
ffeb
ffe3
002a
fff5
ffb9
0006
ffec
0038
ffd4
0044
ffbe
000b
fff2
0016
0022
ffd5
0009
0016
0012
0018
0026
ffe8
000b
ffe6
ffeb
0003
fff3
0008
0000
0007
ffc1
0004
ffda
ffca
0005
ffd2
ffe3
0018
0016
ffbc
ffbc
ffef
0037
0030
0006
ffd1
0014
0036
0001
fffd
0003
0010
002a
ffec
0012
ffc6
ffd8
fff4
001c
ffe0
fffb
ffda
0028
fff3
fff2
ffea
0031
fffc
ffc0
000d
fff3
003f
ffdb
004b
ffc5
0012
fff9
001d
0029
ffdc
0010
001d
0019
001f
002d
ffef
0012
ffed
fff2
000a
fffa
000f
0007
000e
ffc8
000b
ffe1
ffd1
000c
ffd9
ffea
001f
001d
ffc3
ffc3
fff6
003e
0037
000d
ffd8
001b
003d
0008
0004
000a
0017
0031
fff3
0019
ffcd
ffdf
fffb
0023
ffe7
0002
ffe1
002f
fffa
fff9
fff1
0038
0003
ffc7
0014
fffa
0046
ffe2
0052
ffcc
0019
0000
0024
0030
ffe3
0017
0024
0020
0026
0034
fff6
0019
fff4
fff9
0011
0001
0016
000e
0015
ffcf
0012
ffe8
ffd8
0013
ffe0
fff1
0026
0024
ffca
ffca
fffd
0045
003e
0014
ffdf
0022
0044
000f
000b
0011
001e
0038
fffa
0020
ffd4
ffe6
0002
002a
ffee
0009
ffe8
0036
0001
0000
fff8
003f
000a
ffce
001b
0001
004d
ffe9
0059
ffd3
0020
0007
002b
0037
ffea
001e
002b
0027
002d
003b
fffd
0020
fffb
0000
0018
0008
001d
0015
001c
ffd6
0019
ffef
ffdf
001a
ffe7
fff8
002d
000b
ffb1
ffb1
ffe4
002c
0025
fffb
ffc6
0009
002b
fff6
fff2
fff8
0005
001f
ffe1
0007
ffbb
ffcd
ffe9
0011
ffd5
fff0
ffcf
001d
ffe8
ffe7
ffdf
0026
fff1
ffb5
0002
ffe8
0034
ffd0
0040
ffba
0007
ffee
0012
001e
ffd1
0005
0012
000e
0014
0022
ffe4
0007
ffe2
ffe7
ffff
ffef
0004
fffc
0003
ffbd
0000
ffd6
ffc6
0001
ffce
ffdf
0014
0012
ffb8
ffb8
ffeb
0033
002c
0002
ffcd
0010
0032
fffd
fff9
ffff
000c
0026
ffe8
000e
ffc2
ffd4
fff0
0018
ffdc
fff7
ffd6
0024
ffef
ffee
ffe6
002d
fff8
ffbc
0009
ffef
003b
ffd7
0047
ffc1
000e
fff5
0019
0025
ffd8
000c
0019
0015
001b
0029
ffeb
000e
ffe9
ffee
0006
fff6
000b
0003
000a
ffc4
0007
ffdd
ffcd
0008
ffd5
ffe6
001b
0019
ffbf
ffbf
fff2
003a
0033
0009
ffd4
0017
0039
0004
0000
0006
0013
002d
ffef
0015
ffc9
ffdb
fff7
001f
ffe3
fffe
ffdd
002b
fff6
fff5
ffed
0034
ffff
ffc3
0010
fff6
0042
ffde
004e
ffc8
0015
fffc
0020
002c
ffdf
0013
0020
001c
0022
0030
fff2
0015
fff0
fff5
000d
fffd
0012
000a
0011
ffcb
000e
ffe4
ffd4
000f
ffdc
ffed
0022
0020
ffc6
ffc6
fff9
0041
003a
0010
ffdb
001e
0040
000b
0007
000d
001a
0034
fff6
001c
ffd0
ffe2
fffe
0026
ffea
0005
ffe4
0032
fffd
fffc
fff4
003b
0006
ffca
0017
fffd
0049
ffe5
0055
ffcf
001c
0003
0027
0033
ffe6
001a
0027
0023
0029
0037
fff9
001c
fff7
fffc
0014
0004
0019
0011
0018
ffd2
0015
ffeb
ffdb
0016
ffe3
fff4
0029
0007
ffad
ffad
ffe0
0028
0021
fff7
ffc2
0005
0027
fff2
ffee
fff4
0001
001b
ffdd
0003
ffb7
ffc9
ffe5
000d
ffd1
ffec
ffcb
0019
ffe4
ffe3
ffdb
0022
ffed
ffb1
fffe
ffe4
0030
ffcc
003c
ffb6
0003
ffea
000e
001a
ffcd
0001
000e
000a
0010
001e
ffe0
0003
ffde
ffe3
fffb
ffeb
0000
fff8
ffff
ffb9
fffc
ffd2
ffc2
fffd
ffca
ffdb
0010
000e
ffb4
ffb4
ffe7
002f
0028
fffe
ffc9
000c
002e
fff9
fff5
fffb
0008
0022
ffe4
000a
ffbe
ffd0
ffec
0014
ffd8
fff3
ffd2
0020
ffeb
ffea
ffe2
0029
fff4
ffb8
0005
ffeb
0037
ffd3
0043
ffbd
000a
fff1
0015
0021
ffd4
0008
0015
0011
0017
0025
ffe7
000a
ffe5
ffea
0002
fff2
0007
ffff
0006
ffc0
0003
ffd9
ffc9
0004
ffd1
ffe2
0017
0015
ffbb
ffbb
ffee
0036
002f
0005
ffd0
0013
0035
0000
fffc
0002
000f
0029
ffeb
0011
ffc5
ffd7
fff3
001b
ffdf
fffa
ffd9
0027
fff2
fff1
ffe9
0030
fffb
ffbf
000c
fff2
003e
ffda
004a
ffc4
0011
fff8
001c
0028
ffdb
000f
001c
0018
001e
002c
ffee
0011
ffec
fff1
0009
fff9
000e
0006
000d
ffc7
000a
ffe0
ffd0
000b
ffd8
ffe9
001e
001c
ffc2
ffc2
fff5
003d
0036
000c
ffd7
001a
003c
0007
0003
0009
0016
0030
fff2
0018
ffcc
ffde
fffa
0022
ffe6
0001
ffe0
002e
fff9
fff8
fff0
0037
0002
ffc6
0013
fff9
0045
ffe1
0051
ffcb
0018
ffff
0023
002f
ffe2
0016
0023
001f
0025
0033
fff5
0018
fff3
fff8
0010
0000
0015
000d
0014
ffce
0011
ffe7
ffd7
0012
ffdf
fff0
0025
0023
ffc9
ffc9
fffc
0044
003d
0013
ffde
0021
0043
000e
000a
0010
001d
0037
fff9
001f
ffd3
ffe5
0001
0029
ffed
0008
ffe7
0035
0000
ffff
fff7
003e
0009
ffcd
001a
0000
004c
ffe8
0058
ffd2
001f
0006
002a
0036
ffe9
001d
002a
0026
002c
003a
fffc
001f
fffa
ffff
0017
0007
001c
0014
001b
ffd5
0018
ffee
ffde
0019
ffe6
fff7
002c
000a
ffb0
ffb0
ffe3
002b
0024
fffa
ffc5
0008
002a
fff5
fff1
fff7
0004
001e
ffe0
0006
ffba
ffcc
ffe8
0010
ffd4
ffef
ffce
001c
ffe7
ffe6
ffde
0025
fff0
ffb4
0001
ffe7
0033
ffcf
003f
ffb9
0006
ffed
0011
001d
ffd0
0004
0011
000d
0013
0021
ffe3
0006
ffe1
ffe6
fffe
ffee
0003
fffb
0002
ffbc
ffff
ffd5
ffc5
0000
ffcd
ffde
0013
0011
ffb7
ffb7
ffea
0032
002b
0001
ffcc
000f
0031
fffc
fff8
fffe
000b
0025
ffe7
000d
ffc1
ffd3
ffef
0017
ffdb
fff6
ffd5
0023
ffee
ffed
ffe5
002c
fff7
ffbb
0008
ffee
003a
ffd6
0046
ffc0
000d
fff4
0018
0024
ffd7
000b
0018
0014
001a
0028
ffea
000d
ffe8
ffed
0005
fff5
000a
0002
0009
ffc3
0006
ffdc
ffcc
0007
ffd4
ffe5
001a
0018
ffbe
ffbe
fff1
0039
0032
0008
ffd3
0016
0038
0003
ffff
0005
0012
002c
ffee
0014
ffc8
ffda
fff6
001e
ffe2
fffd
ffdc
002a
fff5
fff4
ffec
0033
fffe
ffc2
000f
fff5
0041
ffdd
004d
ffc7
0014
fffb
001f
002b
ffde
0012
001f
001b
0021
002f
fff1
0014
ffef
fff4
000c
fffc
0011
0009
0010
ffca
000d
ffe3
ffd3
000e
ffdb
ffec
0021
001f
ffc5
ffc5
fff8
0040
0039
000f
ffda
001d
003f
000a
0006
000c
0019
0033
fff5
001b
ffcf
ffe1
fffd
0025
ffe9
0004
ffe3
0031
fffc
fffb
fff3
003a
0005
ffc9
0016
fffc
0048
ffe4
0054
ffce
001b
0002
0026
0032
ffe5
0019
0026
0022
0028
0036
fff8
001b
fff6
fffb
0013
0003
0018
0010
0017
ffd1
0014
ffea
ffda
0015
ffe2
fff3
0028
0026
ffcc
ffcc
ffff
0047
0040
0016
ffe1
0024
0046
0011
000d
0013
0020
003a
fffc
0022
ffd6
ffe8
0004
002c
fff0
000b
ffea
0038
0003
0002
fffa
0041
000c
ffd0
001d
0003
004f
ffeb
005b
ffd5
0022
0009
002d
0039
ffec
0020
002d
0029
002f
003d
ffff
0022
fffd
0002
001a
000a
001f
0017
001e
ffd8
001b
fff1
ffe1
001c
ffe9
fffa
002f
000d
ffb3
ffb3
ffe6
002e
0027
fffd
ffc8
000b
002d
fff8
fff4
fffa
0007
0021
ffe3
0009
ffbd
ffcf
ffeb
0013
ffd7
fff2
ffd1
001f
ffea
ffe9
ffe1
0028
fff3
ffb7
0004
ffea
0036
ffd2
0042
ffbc
0009
fff0
0014
0020
ffd3
0007
0014
0010
0016
0024
ffe6
0009
ffe4
ffe9
0001
fff1
0006
fffe
0005
ffbf
0002
ffd8
ffc8
0003
ffd0
ffe1
0016
0014
ffba
ffba
ffed
0035
002e
0004
ffcf
0012
0034
ffff
fffb
0001
000e
0028
ffea
0010
ffc4
ffd6
fff2
001a
ffde
fff9
ffd8
0026
fff1
fff0
ffe8
002f
fffa
ffbe
000b
fff1
003d
ffd9
0049
ffc3
0010
fff7
001b
0027
ffda
000e
001b
0017
001d
002b
ffed
0010
ffeb
fff0
0008
fff8
000d
0005
000c
ffc6
0009
ffdf
ffcf
000a
ffd7
ffe8
001d
001b
ffc1
ffc1
fff4
003c
0035
000b
ffd6
0019
003b
0006
0002
0008
0015
002f
fff1
0017
ffcb
ffdd
fff9
0021
ffe5
0000
ffdf
002d
fff8
fff7
ffef
0036
0001
ffc5
0012
fff8
0044
ffe0
0050
ffca
0017
fffe
0022
002e
ffe1
0015
0022
001e
0024
0032
fff4
0017
fff2
fff7
000f
ffff
0014
000c
0013
ffcd
0010
ffe6
ffd6
0011
ffde
ffef
0024
0022
ffc8
ffc8
fffb
0043
003c
0012
ffdd
0020
0042
000d
0009
000f
001c
0036
fff8
001e
ffd2
ffe4
0000
0028
ffec
0007
ffe6
0034
ffff
fffe
fff6
003d
0008
ffcc
0019
ffff
004b
ffe7
0057
ffd1
001e
0005
0029
0035
ffe8
001c
0029
0025
002b
0039
fffb
001e
fff9
fffe
0016
0006
001b
0013
001a
ffd4
0017
ffed
ffdd
0018
ffe5
fff6
002b
0009
ffaf
ffaf
ffe2
002a
0023
fff9
ffc4
0007
0029
fff4
fff0
fff6
0003
001d
ffdf
0005
ffb9
ffcb
ffe7
000f
ffd3
ffee
ffcd
001b
ffe6
ffe5
ffdd
0024
ffef
ffb3
0000
ffe6
0032
ffce
003e
ffb8
0005
ffec
0010
001c
ffcf
0003
0010
000c
0012
0020
ffe2
0005
ffe0
ffe5
fffd
ffed
0002
fffa
0001
ffbb
fffe
ffd4
ffc4
ffff
ffcc
ffdd
0012
0010
ffb6
ffb6
ffe9
0031
002a
0000
ffcb
000e
0030
fffb
fff7
fffd
000a
0024
ffe6
000c
ffc0
ffd2
ffee
0016
ffda
fff5
ffd4
0022
ffed
ffec
ffe4
002b
fff6
ffba
0007
ffed
0039
ffd5
0045
ffbf
000c
fff3
0017
0023
ffd6
000a
0017
0013
0019
0027
ffe9
000c
ffe7
ffec
0004
fff4
0009
0001
0008
ffc2
0005
ffdb
ffcb
0006
ffd3
ffe4
0019
0017
ffbd
ffbd
fff0
0038
0031
0007
ffd2
0015
0037
0002
fffe
0004
0011
002b
ffed
0013
ffc7
ffd9
fff5
001d
ffe1
fffc
ffdb
0029
fff4
fff3
ffeb
0032
fffd
ffc1
000e
fff4
0040
ffdc
004c
ffc6
0013
fffa
001e
002a
ffdd
0011
001e
001a
0020
002e
fff0
0013
ffee
fff3
000b
fffb
0010
0008
000f
ffc9
000c
ffe2
ffd2
000d
ffda
ffeb
0020
001e
ffc4
ffc4
fff7
003f
0038
000e
ffd9
001c
003e
0009
0005
000b
0018
0032
fff4
001a
ffce
ffe0
fffc
0024
ffe8
0003
ffe2
0030
fffb
fffa
fff2
0039
0004
ffc8
0015
fffb
0047
ffe3
0053
ffcd
001a
0001
0025
0031
ffe4
0018
0025
0021
0027
0035
fff7
001a
fff5
fffa
0012
0002
0017
000f
0016
ffd0
0013
ffe9
ffd9
0014
ffe1
fff2
0027
0025
ffcb
ffcb
fffe
0046
003f
0015
ffe0
0023
0045
0010
000c
0012
001f
0039
fffb
0021
ffd5
ffe7
0003
002b
ffef
000a
ffe9
0037
0002
0001
fff9
0040
000b
ffcf
001c
0002
004e
ffea
005a
ffd4
0021
0008
002c
0038
ffeb
001f
002c
0028
002e
003c
fffe
0021
fffc
0001
0019
0009
001e
0016
001d
ffd7
001a
fff0
ffe0
001b
ffe8
fff9
002e
000c
ffb2
ffb2
ffe5
002d
0026
fffc
ffc7
000a
002c
fff7
fff3
fff9
0006
0020
ffe2
0008
ffbc
ffce
ffea
0012
ffd6
fff1
ffd0
001e
ffe9
ffe8
ffe0
0027
fff2
ffb6
0003
ffe9
0035
ffd1
0041
ffbb
0008
ffef
0013
001f
ffd2
0006
0013
000f
0015
0023
ffe5
0008
ffe3
ffe8
0000
fff0
0005
fffd
0004
ffbe
0001
ffd7
ffc7
0002
ffcf
ffe0
0015
0013
ffb9
ffb9
ffec
0034
002d
0003
ffce
0011
0033
fffe
fffa
0000
000d
0027
ffe9
000f
ffc3
ffd5
fff1
0019
ffdd
fff8
ffd7
0025
fff0
ffef
ffe7
002e
fff9
ffbd
000a
fff0
003c
ffd8
0048
ffc2
000f
fff6
001a
0026
ffd9
000d
001a
0016
001c
002a
ffec
000f
ffea
ffef
0007
fff7
000c
0004
000b
ffc5
0008
ffde
ffce
0009
ffd6
ffe7
001c
001a
ffc0
ffc0
fff3
003b
0034
000a
ffd5
0018
003a
0005
0001
0007
0014
002e
fff0
0016
ffca
ffdc
fff8
0020
ffe4
ffff
ffde
002c
fff7
fff6
ffee
0035
0000
ffc4
0011
fff7
0043
ffdf
004f
ffc9
0016
fffd
0021
002d
ffe0
0014
0021
001d
0023
0031
fff3
0016
fff1
fff6
000e
fffe
0013
000b
0012
ffcc
000f
ffe5
ffd5
0010
ffdd
ffee
0023
0021
ffc7
ffc7
fffa
0042
003b
0011
ffdc
001f
0041
000c
0008
000e
001b
0035
fff7
001d
ffd1
ffe3
ffff
0027
ffeb
0006
ffe5
0033
fffe
fffd
fff5
003c
0007
ffcb
0018
fffe
004a
ffe6
0056
ffd0
001d
0004
0028
0034
ffe7
001b
0028
0024
002a
0038
fffa
001d
fff8
fffd
0015
0005
001a
0012
0019
ffd3
0016
ffec
ffdc
0017
ffe4
fff5
002a
0008
ffae
ffae
ffe1
0029
0022
fff8
ffc3
0006
0028
fff3
ffef
fff5
0002
001c
ffde
0004
ffb8
ffca
ffe6
000e
ffd2
ffed
ffcc
001a
ffe5
ffe4
ffdc
0023
ffee
ffb2
ffff
ffe5
0031
ffcd
003d
ffb7
0004
ffeb
000f
001b
ffce
0002
000f
000b
0011
001f
ffe1
0004
ffdf
ffe4
fffc
ffec
0001
fff9
0000
ffba
fffd
ffd3
ffc3
fffe
ffcb
ffdc
0011
000f
ffb5
ffb5
ffe8
0030
0029
ffff
ffca
000d
002f
fffa
fff6
fffc
0009
0023
ffe5
000b
ffbf
ffd1
ffed
0015
ffd9
fff4
ffd3
0021
ffec
ffeb
ffe3
002a
fff5
ffb9
0006
ffec
0038
ffd4
0044
ffbe
000b
fff2
0016
0022
ffd5
0009
0016
0012
0018
0026
ffe8
000b
ffe6
ffeb
0003
fff3
0008
0000
0007
ffc1
0004
ffda
ffca
0005
ffd2
ffe3
0018
0016
ffbc
ffbc
ffef
0037
0030
0006
ffd1
0014
0036
0001
fffd
0003
0010
002a
ffec
0012
ffc6
ffd8
fff4
001c
ffe0
fffb
ffda
0028
fff3
fff2
ffea
0031
fffc
ffc0
000d
fff3
003f
ffdb
004b
ffc5
0012
fff9
001d
0029
ffdc
0010
001d
0019
001f
002d
ffef
0012
ffed
fff2
000a
fffa
000f
0007
000e
ffc8
000b
ffe1
ffd1
000c
ffd9
ffea
001f
001d
ffc3
ffc3
fff6
003e
0037
000d
ffd8
001b
003d
0008
0004
000a
0017
0031
fff3
0019
ffcd
ffdf
fffb
0023
ffe7
0002
ffe1
002f
fffa
fff9
fff1
0038
0003
ffc7
0014
fffa
0046
ffe2
0052
ffcc
0019
0000
0024
0030
ffe3
0017
0024
0020
0026
0034
fff6
0019
fff4
fff9
0011
0001
0016
000e
0015
ffcf
0012
ffe8
ffd8
0013
ffe0
fff1
0026
0024
ffca
ffca
fffd
0045
003e
0014
ffdf
0022
0044
000f
000b
0011
001e
0038
fffa
0020
ffd4
ffe6
0002
002a
ffee
0009
ffe8
0036
0001
0000
fff8
003f
000a
ffce
001b
0001
004d
ffe9
0059
ffd3
0020
0007
002b
0037
ffea
001e
002b
0027
002d
003b
fffd
0020
fffb
0000
0018
0008
001d
0015
001c
ffd6
0019
ffef
ffdf
001a
ffe7
fff8
002d
000b
ffb1
ffb1
ffe4
002c
0025
fffb
ffc6
0009
002b
fff6
fff2
fff8
0005
001f
ffe1
0007
ffbb
ffcd
ffe9
0011
ffd5
fff0
ffcf
001d
ffe8
ffe7
ffdf
0026
fff1
ffb5
0002
ffe8
0034
ffd0
0040
ffba
0007
ffee
0012
001e
ffd1
0005
0012
000e
0014
0022
ffe4
0007
ffe2
ffe7
ffff
ffef
0004
fffc
0003
ffbd
0000
ffd6
ffc6
0001
ffce
ffdf
0014
0012
ffb8
ffb8
ffeb
0033
002c
0002
ffcd
0010
0032
fffd
fff9
ffff
000c
0026
ffe8
000e
ffc2
ffd4
fff0
0018
ffdc
fff7
ffd6
0024
ffef
ffee
ffe6
002d
fff8
ffbc
0009
ffef
003b
ffd7
0047
ffc1
000e
fff5
0019
0025
ffd8
000c
0019
0015
001b
0029
ffeb
000e
ffe9
ffee
0006
fff6
000b
0003
000a
ffc4
0007
ffdd
ffcd
0008
ffd5
ffe6
001b
0019
ffbf
ffbf
fff2
003a
0033
0009
ffd4
0017
0039
0004
0000
0006
0013
002d
ffef
0015
ffc9
ffdb
fff7
001f
ffe3
fffe
ffdd
002b
fff6
fff5
ffed
0034
ffff
ffc3
0010
fff6
0042
ffde
004e
ffc8
0015
fffc
0020
002c
ffdf
0013
0020
001c
0022
0030
fff2
0015
fff0
fff5
000d
fffd
0012
000a
0011
ffcb
000e
ffe4
ffd4
000f
ffdc
ffed
0022
0020
ffc6
ffc6
fff9
0041
003a
0010
ffdb
001e
0040
000b
0007
000d
001a
0034
fff6
001c
ffd0
ffe2
fffe
0026
ffea
0005
ffe4
0032
fffd
fffc
fff4
003b
0006
ffca
0017
fffd
0049
ffe5
0055
ffcf
001c
0003
0027
0033
ffe6
001a
0027
0023
0029
0037
fff9
001c
fff7
fffc
0014
0004
0019
0011
0018
ffd2
0015
ffeb
ffdb
0016
ffe3
fff4
0029
0007
ffad
ffad
ffe0
0028
0021
fff7
ffc2
0005
0027
fff2
ffee
fff4
0001
001b
ffdd
0003
ffb7
ffc9
ffe5
000d
ffd1
ffec
ffcb
0019
ffe4
ffe3
ffdb
0022
ffed
ffb1
fffe
ffe4
0030
ffcc
003c
ffb6
0003
ffea
000e
001a
ffcd
0001
000e
000a
0010
001e
ffe0
0003
ffde
ffe3
fffb
ffeb
0000
fff8
ffff
ffb9
fffc
ffd2
ffc2
fffd
ffca
ffdb
0010
000e
ffb4
ffb4
ffe7
002f
0028
fffe
ffc9
000c
002e
fff9
fff5
fffb
0008
0022
ffe4
000a
ffbe
ffd0
ffec
0014
ffd8
fff3
ffd2
0020
ffeb
ffea
ffe2
0029
fff4
ffb8
0005
ffeb
0037
ffd3
0043
ffbd
000a
fff1
0015
0021
ffd4
0008
0015
0011
0017
0025
ffe7
000a
ffe5
ffea
0002
fff2
0007
ffff
0006
ffc0
0003
ffd9
ffc9
0004
ffd1
ffe2
0017
0015
ffbb
ffbb
ffee
0036
002f
0005
ffd0
0013
0035
0000
fffc
0002
000f
0029
ffeb
0011
ffc5
ffd7
fff3
001b
ffdf
fffa
ffd9
0027
fff2
fff1
ffe9
0030
fffb
ffbf
000c
fff2
003e
ffda
004a
ffc4
0011
fff8
001c
0028
ffdb
000f
001c
0018
001e
002c
ffee
0011
ffec
fff1
0009
fff9
000e
0006
000d
ffc7
000a
ffe0
ffd0
000b
ffd8
ffe9
001e
001c
ffc2
ffc2
fff5
003d
0036
000c
ffd7
001a
003c
0007
0003
0009
0016
0030
fff2
0018
ffcc
ffde
fffa
0022
ffe6
0001
ffe0
002e
fff9
fff8
fff0
0037
0002
ffc6
0013
fff9
0045
ffe1
0051
ffcb
0018
ffff
0023
002f
ffe2
0016
0023
001f
0025
0033
fff5
0018
fff3
fff8
0010
0000
0015
000d
0014
ffce
0011
ffe7
ffd7
0012
ffdf
fff0
0025
0023
ffc9
ffc9
fffc
0044
003d
0013
ffde
0021
0043
000e
000a
0010
001d
0037
fff9
001f
ffd3
ffe5
0001
0029
ffed
0008
ffe7
0035
0000
ffff
fff7
003e
0009
ffcd
001a
0000
004c
ffe8
0058
ffd2
001f
0006
002a
0036
ffe9
001d
002a
0026
002c
003a
fffc
001f
fffa
ffff
0017
0007
001c
0014
001b
ffd5
0018
ffee
ffde
0019
ffe6
fff7
002c
000a
ffb0
ffb0
ffe3
002b
0024
fffa
ffc5
0008
002a
fff5
fff1
fff7
0004
001e
ffe0
0006
ffba
ffcc
ffe8
0010
ffd4
ffef
ffce
001c
ffe7
ffe6
ffde
0025
fff0
ffb4
0001
ffe7
0033
ffcf
003f
ffb9
0006
ffed
0011
001d
ffd0
0004
0011
000d
0013
0021
ffe3
0006
ffe1
ffe6
fffe
ffee
0003
fffb
0002
ffbc
ffff
ffd5
ffc5
0000
ffcd
ffde
0013
0011
ffb7
ffb7
ffea
0032
002b
0001
ffcc
000f
0031
fffc
fff8
fffe
000b
0025
ffe7
000d
ffc1
ffd3
ffef
0017
ffdb
fff6
ffd5
0023
ffee
ffed
ffe5
002c
fff7
ffbb
0008
ffee
003a
ffd6
0046
ffc0
000d
fff4
0018
0024
ffd7
000b
0018
0014
001a
0028
ffea
000d
ffe8
ffed
0005
fff5
000a
0002
0009
ffc3
0006
ffdc
ffcc
0007
ffd4
ffe5
001a
0018
ffbe
ffbe
fff1
0039
0032
0008
ffd3
0016
0038
0003
ffff
0005
0012
002c
ffee
0014
ffc8
ffda
fff6
001e
ffe2
fffd
ffdc
002a
fff5
fff4
ffec
0033
fffe
ffc2
000f
fff5
0041
ffdd
004d
ffc7
0014
fffb
001f
002b
ffde
0012
001f
001b
0021
002f
fff1
0014
ffef
fff4
000c
fffc
0011
0009
0010
ffca
000d
ffe3
ffd3
000e
ffdb
ffec
0021
001f
ffc5
ffc5
fff8
0040
0039
000f
ffda
001d
003f
000a
0006
000c
0019
0033
fff5
001b
ffcf
ffe1
fffd
0025
ffe9
0004
ffe3
0031
fffc
fffb
fff3
003a
0005
ffc9
0016
fffc
0048
ffe4
0054
ffce
001b
0002
0026
0032
ffe5
0019
0026
0022
0028
0036
fff8
001b
fff6
fffb
0013
0003
0018
0010
0017
ffd1
0014
ffea
ffda
0015
ffe2
fff3
0028
0026
ffcc
ffcc
ffff
0047
0040
0016
ffe1
0024
0046
0011
000d
0013
0020
003a
fffc
0022
ffd6
ffe8
0004
002c
fff0
000b
ffea
0038
0003
0002
fffa
0041
000c
ffd0
001d
0003
004f
ffeb
005b
ffd5
0022
0009
002d
0039
ffec
0020
002d
0029
002f
003d
ffff
0022
fffd
0002
001a
000a
001f
0017
001e
ffd8
001b
fff1
ffe1
001c
ffe9
fffa
002f
000d
ffb3
ffb3
ffe6
002e
0027
fffd
ffc8
000b
002d
fff8
fff4
fffa
0007
0021
ffe3
0009
ffbd
ffcf
ffeb
0013
ffd7
fff2
ffd1
001f
ffea
ffe9
ffe1
0028
fff3
ffb7
0004
ffea
0036
ffd2
0042
ffbc
0009
fff0
0014
0020
ffd3
0007
0014
0010
0016
0024
ffe6
0009
ffe4
ffe9
0001
fff1
0006
fffe
0005
ffbf
0002
ffd8
ffc8
0003
ffd0
ffe1
0016
0014
ffba
ffba
ffed
0035
002e
0004
ffcf
0012
0034
ffff
fffb
0001
000e
0028
ffea
0010
ffc4
ffd6
fff2
001a
ffde
fff9
ffd8
0026
fff1
fff0
ffe8
002f
fffa
ffbe
000b
fff1
003d
ffd9
0049
ffc3
0010
fff7
001b
0027
ffda
000e
001b
0017
001d
002b
ffed
0010
ffeb
fff0
0008
fff8
000d
0005
000c
ffc6
0009
ffdf
ffcf
000a
ffd7
ffe8
001d
001b
ffc1
ffc1
fff4
003c
0035
000b
ffd6
0019
003b
0006
0002
0008
0015
002f
fff1
0017
ffcb
ffdd
fff9
0021
ffe5
0000
ffdf
002d
fff8
fff7
ffef
0036
0001
ffc5
0012
fff8
0044
ffe0
0050
ffca
0017
fffe
0022
002e
ffe1
0015
0022
001e
0024
0032
fff4
0017
fff2
fff7
000f
ffff
0014
000c
0013
ffcd
0010
ffe6
ffd6
0011
ffde
ffef
0024
0022
ffc8
ffc8
fffb
0043
003c
0012
ffdd
0020
0042
000d
0009
000f
001c
0036
fff8
001e
ffd2
ffe4
0000
0028
ffec
0007
ffe6
0034
ffff
fffe
fff6
003d
0008
ffcc
0019
ffff
004b
ffe7
0057
ffd1
001e
0005
0029
0035
ffe8
001c
0029
0025
002b
0039
fffb
001e
fff9
fffe
0016
0006
001b
0013
001a
ffd4
0017
ffed
ffdd
0018
ffe5
fff6
002b
0009
ffaf
ffaf
ffe2
002a
0023
fff9
ffc4
0007
0029
fff4
fff0
fff6
0003
001d
ffdf
0005
ffb9
ffcb
ffe7
000f
ffd3
ffee
ffcd
001b
ffe6
ffe5
ffdd
0024
ffef
ffb3
0000
ffe6
0032
ffce
003e
ffb8
0005
ffec
0010
001c
ffcf
0003
0010
000c
0012
0020
ffe2
0005
ffe0
ffe5
fffd
ffed
0002
fffa
0001
ffbb
fffe
ffd4
ffc4
ffff
ffcc
ffdd
0012
0010
ffb6
ffb6
ffe9
0031
002a
0000
ffcb
000e
0030
fffb
fff7
fffd
000a
0024
ffe6
000c
ffc0
ffd2
ffee
0016
ffda
fff5
ffd4
0022
ffed
ffec
ffe4
002b
fff6
ffba
0007
ffed
0039
ffd5
0045
ffbf
000c
fff3
0017
0023
ffd6
000a
0017
0013
0019
0027
ffe9
000c
ffe7
ffec
0004
fff4
0009
0001
0008
ffc2
0005
ffdb
ffcb
0006
ffd3
ffe4
0019
0017
ffbd
ffbd
fff0
0038
0031
0007
ffd2
0015
0037
0002
fffe
0004
0011
002b
ffed
0013
ffc7
ffd9
fff5
001d
ffe1
fffc
ffdb
0029
fff4
fff3
ffeb
0032
fffd
ffc1
000e
fff4
0040
ffdc
004c
ffc6
0013
fffa
001e
002a
ffdd
0011
001e
001a
0020
002e
fff0
0013
ffee
fff3
000b
fffb
0010
0008
000f
ffc9
000c
ffe2
ffd2
000d
ffda
ffeb
0020
001e
ffc4
ffc4
fff7
003f
0038
000e
ffd9
001c
003e
0009
0005
000b
0018
0032
fff4
001a
ffce
ffe0
fffc
0024
ffe8
0003
ffe2
0030
fffb
fffa
fff2
0039
0004
ffc8
0015
fffb
0047
ffe3
0053
ffcd
001a
0001
0025
0031
ffe4
0018
0025
0021
0027
0035
fff7
001a
fff5
fffa
0012
0002
0017
000f
0016
ffd0
0013
ffe9
ffd9
0014
ffe1
fff2
0027
0025
ffcb
ffcb
fffe
0046
003f
0015
ffe0
0023
0045
0010
000c
0012
001f
0039
fffb
0021
ffd5
ffe7
0003
002b
ffef
000a
ffe9
0037
0002
0001
fff9
0040
000b
ffcf
001c
0002
004e
ffea
005a
ffd4
0021
0008
002c
0038
ffeb
001f
002c
0028
002e
003c
fffe
0021
fffc
0001
0019
0009
001e
0016
001d
ffd7
001a
fff0
ffe0
001b
ffe8
fff9
002e
000c
ffb2
ffb2
ffe5
002d
0026
fffc
ffc7
000a
002c
fff7
fff3
fff9
0006
0020
ffe2
0008
ffbc
ffce
ffea
0012
ffd6
fff1
ffd0
001e
ffe9
ffe8
ffe0
0027
fff2
ffb6
0003
ffe9
0035
ffd1
0041
ffbb
0008
ffef
0013
001f
ffd2
0006
0013
000f
0015
0023
ffe5
0008
ffe3
ffe8
0000
fff0
0005
fffd
0004
ffbe
0001
ffd7
ffc7
0002
ffcf
ffe0
0015
0013
ffb9
ffb9
ffec
0034
002d
0003
ffce
0011
0033
fffe
fffa
0000
000d
0027
ffe9
000f
ffc3
ffd5
fff1
0019
ffdd
fff8
ffd7
0025
fff0
ffef
ffe7
002e
fff9
ffbd
000a
fff0
003c
ffd8
0048
ffc2
000f
fff6
001a
0026
ffd9
000d
001a
0016
001c
002a
ffec
000f
ffea
ffef
0007
fff7
000c
0004
000b
ffc5
0008
ffde
ffce
0009
ffd6
ffe7
001c
001a
ffc0
ffc0
fff3
003b
0034
000a
ffd5
0018
003a
0005
0001
0007
0014
002e
fff0
0016
ffca
ffdc
fff8
0020
ffe4
ffff
ffde
002c
fff7
fff6
ffee
0035
0000
ffc4
0011
fff7
0043
ffdf
004f
ffc9
0016
fffd
0021
002d
ffe0
0014
0021
001d
0023
0031
fff3
0016
fff1
fff6
000e
fffe
0013
000b
0012
ffcc
000f
ffe5
ffd5
0010
ffdd
ffee
0023
0021
ffc7
ffc7
fffa
0042
003b
0011
ffdc
001f
0041
000c
0008
000e
001b
0035
fff7
001d
ffd1
ffe3
ffff
0027
ffeb
0006
ffe5
0033
fffe
fffd
fff5
003c
0007
ffcb
0018
fffe
004a
ffe6
0056
ffd0
001d
0004
0028
0034
ffe7
001b
0028
0024
002a
0038
fffa
001d
fff8
fffd
0015
0005
001a
0012
0019
ffd3
0016
ffec
ffdc
0017
ffe4
fff5
002a
0008
ffae
ffae
ffe1
0029
0022
fff8
ffc3
0006
0028
fff3
ffef
fff5
0002
001c
ffde
0004
ffb8
ffca
ffe6
000e
ffd2
ffed
ffcc
001a
ffe5
ffe4
ffdc
0023
ffee
ffb2
ffff
ffe5
0031
ffcd
003d
ffb7
0004
ffeb
000f
001b
ffce
0002
000f
000b
0011
001f
ffe1
0004
ffdf
ffe4
fffc
ffec
0001
fff9
0000
ffba
fffd
ffd3
ffc3
fffe
ffcb
ffdc
0011
000f
ffb5
ffb5
ffe8
0030
0029
ffff
ffca
000d
002f
fffa
fff6
fffc
0009
0023
ffe5
000b
ffbf
ffd1
ffed
0015
ffd9
fff4
ffd3
0021
ffec
ffeb
ffe3
002a
fff5
ffb9
0006
ffec
0038
ffd4
0044
ffbe
000b
fff2
0016
0022
ffd5
0009
0016
0012
0018
0026
ffe8
000b
ffe6
ffeb
0003
fff3
0008
0000
0007
ffc1
0004
ffda
ffca
0005
ffd2
ffe3
0018
0016
ffbc
ffbc
ffef
0037
0030
0006
ffd1
0014
0036
0001
fffd
0003
0010
002a
ffec
0012
ffc6
ffd8
fff4
001c
ffe0
fffb
ffda
0028
fff3
fff2
ffea
0031
fffc
ffc0
000d
fff3
003f
ffdb
004b
ffc5
0012
fff9
001d
0029
ffdc
0010
001d
0019
001f
002d
ffef
0012
ffed
fff2
000a
fffa
000f
0007
000e
ffc8
000b
ffe1
ffd1
000c
ffd9
ffea
001f
001d
ffc3
ffc3
fff6
003e
0037
000d
ffd8
001b
003d
0008
0004
000a
0017
0031
fff3
0019
ffcd
ffdf
fffb
0023
ffe7
0002
ffe1
002f
fffa
fff9
fff1
0038
0003
ffc7
0014
fffa
0046
ffe2
0052
ffcc
0019
0000
0024
0030
ffe3
0017
0024
0020
0026
0034
fff6
0019
fff4
fff9
0011
0001
0016
000e
0015
ffcf
0012
ffe8
ffd8
0013
ffe0
fff1
0026
0024
ffca
ffca
fffd
0045
003e
0014
ffdf
0022
0044
000f
000b
0011
001e
0038
fffa
0020
ffd4
ffe6
0002
002a
ffee
0009
ffe8
0036
0001
0000
fff8
003f
000a
ffce
001b
0001
004d
ffe9
0059
ffd3
0020
0007
002b
0037
ffea
001e
002b
0027
002d
003b
fffd
0020
fffb
0000
0018
0008
001d
0015
001c
ffd6
0019
ffef
ffdf
001a
ffe7
fff8
002d
000b
ffb1
ffb1
ffe4
002c
0025
fffb
ffc6
0009
002b
fff6
fff2
fff8
0005
001f
ffe1
0007
ffbb
ffcd
ffe9
0011
ffd5
fff0
ffcf
001d
ffe8
ffe7
ffdf
0026
fff1
ffb5
0002
ffe8
0034
ffd0
0040
ffba
0007
ffee
0012
001e
ffd1
0005
0012
000e
0014
0022
ffe4
0007
ffe2
ffe7
ffff
ffef
0004
fffc
0003
ffbd
0000
ffd6
ffc6
0001
ffce
ffdf
0014
0012
ffb8
ffb8
ffeb
0033
002c
0002
ffcd
0010
0032
fffd
fff9
ffff
000c
0026
ffe8
000e
ffc2
ffd4
fff0
0018
ffdc
fff7
ffd6
0024
ffef
ffee
ffe6
002d
fff8
ffbc
0009
ffef
003b
ffd7
0047
ffc1
000e
fff5
0019
0025
ffd8
000c
0019
0015
001b
0029
ffeb
000e
ffe9
ffee
0006
fff6
000b
0003
000a
ffc4
0007
ffdd
ffcd
0008
ffd5
ffe6
001b
0019
ffbf
ffbf
fff2
003a
0033
0009
ffd4
0017
0039
0004
0000
0006
0013
002d
ffef
0015
ffc9
ffdb
fff7
001f
ffe3
fffe
ffdd
002b
fff6
fff5
ffed
0034
ffff
ffc3
0010
fff6
0042
ffde
004e
ffc8
0015
fffc
0020
002c
ffdf
0013
0020
001c
0022
0030
fff2
0015
fff0
fff5
000d
fffd
0012
000a
0011
ffcb
000e
ffe4
ffd4
000f
ffdc
ffed
0022
0020
ffc6
ffc6
fff9
0041
003a
0010
ffdb
001e
0040
000b
0007
000d
001a
0034
fff6
001c
ffd0
ffe2
fffe
0026
ffea
0005
ffe4
0032
fffd
fffc
fff4
003b
0006
ffca
0017
fffd
0049
ffe5
0055
ffcf
001c
0003
0027
0033
ffe6
001a
0027
0023
0029
0037
fff9
001c
fff7
fffc
0014
0004
0019
0011
0018
ffd2
0015
ffeb
ffdb
0016
ffe3
fff4
0029
0007
ffad
ffad
ffe0
0028
0021
fff7
ffc2
0005
0027
fff2
ffee
fff4
0001
001b
ffdd
0003
ffb7
ffc9
ffe5
000d
ffd1
ffec
ffcb
0019
ffe4
ffe3
ffdb
0022
ffed
ffb1
fffe
ffe4
0030
ffcc
003c
ffb6
0003
ffea
000e
001a
ffcd
0001
000e
000a
0010
001e
ffe0
0003
ffde
ffe3
fffb
ffeb
0000
fff8
ffff
ffb9
fffc
ffd2
ffc2
fffd
ffca
ffdb
0010
000e
ffb4
ffb4
ffe7
002f
0028
fffe
ffc9
000c
002e
fff9
fff5
fffb
0008
0022
ffe4
000a
ffbe
ffd0
ffec
0014
ffd8
fff3
ffd2
0020
ffeb
ffea
ffe2
0029
fff4
ffb8
0005
ffeb
0037
ffd3
0043
ffbd
000a
fff1
0015
0021
ffd4
0008
0015
0011
0017
0025
ffe7
000a
ffe5
ffea
0002
fff2
0007
ffff
0006
ffc0
0003
ffd9
ffc9
0004
ffd1
ffe2
0017
0015
ffbb
ffbb
ffee
0036
002f
0005
ffd0
0013
0035
0000
fffc
0002
000f
0029
ffeb
0011
ffc5
ffd7
fff3
001b
ffdf
fffa
ffd9
0027
fff2
fff1
ffe9
0030
fffb
ffbf
000c
fff2
003e
ffda
004a
ffc4
0011
fff8
001c
0028
ffdb
000f
001c
0018
001e
002c
ffee
0011
ffec
fff1
0009
fff9
000e
0006
000d
ffc7
000a
ffe0
ffd0
000b
ffd8
ffe9
001e
001c
ffc2
ffc2
fff5
003d
0036
000c
ffd7
001a
003c
0007
0003
0009
0016
0030
fff2
0018
ffcc
ffde
fffa
0022
ffe6
0001
ffe0
002e
fff9
fff8
fff0
0037
0002
ffc6
0013
fff9
0045
ffe1
0051
ffcb
0018
ffff
0023
002f
ffe2
0016
0023
001f
0025
0033
fff5
0018
fff3
fff8
0010
0000
0015
000d
0014
ffce
0011
ffe7
ffd7
0012
ffdf
fff0
0025
0023
ffc9
ffc9
fffc
0044
003d
0013
ffde
0021
0043
000e
000a
0010
001d
0037
fff9
001f
ffd3
ffe5
0001
0029
ffed
0008
ffe7
0035
0000
ffff
fff7
003e
0009
ffcd
001a
0000
004c
ffe8
0058
ffd2
001f
0006
002a
0036
ffe9
001d
002a
0026
002c
003a
fffc
001f
fffa
ffff
0017
0007
001c
0014
001b
ffd5
0018
ffee
ffde
0019
ffe6
fff7
002c
000a
ffb0
ffb0
ffe3
002b
0024
fffa
ffc5
0008
002a
fff5
fff1
fff7
0004
001e
ffe0
0006
ffba
ffcc
ffe8
0010
ffd4
ffef
ffce
001c
ffe7
ffe6
ffde
0025
fff0
ffb4
0001
ffe7
0033
ffcf
003f
ffb9
0006
ffed
0011
001d
ffd0
0004
0011
000d
0013
0021
ffe3
0006
ffe1
ffe6
fffe
ffee
0003
fffb
0002
ffbc
ffff
ffd5
ffc5
0000
ffcd
ffde
0013
0011
ffb7
ffb7
ffea
0032
002b
0001
ffcc
000f
0031
fffc
fff8
fffe
000b
0025
ffe7
000d
ffc1
ffd3
ffef
0017
ffdb
fff6
ffd5
0023
ffee
ffed
ffe5
002c
fff7
ffbb
0008
ffee
003a
ffd6
0046
ffc0
000d
fff4
0018
0024
ffd7
000b
0018
0014
001a
0028
ffea
000d
ffe8
ffed
0005
fff5
000a
0002
0009
ffc3
0006
ffdc
ffcc
0007
ffd4
ffe5
001a
0018
ffbe
ffbe
fff1
0039
0032
0008
ffd3
0016
0038
0003
ffff
0005
0012
002c
ffee
0014
ffc8
ffda
fff6
001e
ffe2
fffd
ffdc
002a
fff5
fff4
ffec
0033
fffe
ffc2
000f
fff5
0041
ffdd
004d
ffc7
0014
fffb
001f
002b
ffde
0012
001f
001b
0021
002f
fff1
0014
ffef
fff4
000c
fffc
0011
0009
0010
ffca
000d
ffe3
ffd3
000e
ffdb
ffec
0021
001f
ffc5
ffc5
fff8
0040
0039
000f
ffda
001d
003f
000a
0006
000c
0019
0033
fff5
001b
ffcf
ffe1
fffd
0025
ffe9
0004
ffe3
0031
fffc
fffb
fff3
003a
0005
ffc9
0016
fffc
0048
ffe4
0054
ffce
001b
0002
0026
0032
ffe5
0019
0026
0022
0028
0036
fff8
001b
fff6
fffb
0013
0003
0018
0010
0017
ffd1
0014
ffea
ffda
0015
ffe2
fff3
0028
0026
ffcc
ffcc
ffff
0047
0040
0016
ffe1
0024
0046
0011
000d
0013
0020
003a
fffc
0022
ffd6
ffe8
0004
002c
fff0
000b
ffea
0038
0003
0002
fffa
0041
000c
ffd0
001d
0003
004f
ffeb
005b
ffd5
0022
0009
002d
0039
ffec
0020
002d
0029
002f
003d
ffff
0022
fffd
0002
001a
000a
001f
0017
001e
ffd8
001b
fff1
ffe1
001c
ffe9
fffa
002f
000d
ffb3
ffb3
ffe6
002e
0027
fffd
ffc8
000b
002d
fff8
fff4
fffa
0007
0021
ffe3
0009
ffbd
ffcf
ffeb
0013
ffd7
fff2
ffd1
001f
ffea
ffe9
ffe1
0028
fff3
ffb7
0004
ffea
0036
ffd2
0042
ffbc
0009
fff0
0014
0020
ffd3
0007
0014
0010
0016
0024
ffe6
0009
ffe4
ffe9
0001
fff1
0006
fffe
0005
ffbf
0002
ffd8
ffc8
0003
ffd0
ffe1
0016
0014
ffba
ffba
ffed
0035
002e
0004
ffcf
0012
0034
ffff
fffb
0001
000e
0028
ffea
0010
ffc4
ffd6
fff2
001a
ffde
fff9
ffd8
0026
fff1
fff0
ffe8
002f
fffa
ffbe
000b
fff1
003d
ffd9
0049
ffc3
0010
fff7
001b
0027
ffda
000e
001b
0017
001d
002b
ffed
0010
ffeb
fff0
0008
fff8
000d
0005
000c
ffc6
0009
ffdf
ffcf
000a
ffd7
ffe8
001d
001b
ffc1
ffc1
fff4
003c
0035
000b
ffd6
0019
003b
0006
0002
0008
0015
002f
fff1
0017
ffcb
ffdd
fff9
0021
ffe5
0000
ffdf
002d
fff8
fff7
ffef
0036
0001
ffc5
0012
fff8
0044
ffe0
0050
ffca
0017
fffe
0022
002e
ffe1
0015
0022
001e
0024
0032
fff4
0017
fff2
fff7
000f
ffff
0014
000c
0013
ffcd
0010
ffe6
ffd6
0011
ffde
ffef
0024
0022
ffc8
ffc8
fffb
0043
003c
0012
ffdd
0020
0042
000d
0009
000f
001c
0036
fff8
001e
ffd2
ffe4
0000
0028
ffec
0007
ffe6
0034
ffff
fffe
fff6
003d
0008
ffcc
0019
ffff
004b
ffe7
0057
ffd1
001e
0005
0029
0035
ffe8
001c
0029
0025
002b
0039
fffb
001e
fff9
fffe
0016
0006
001b
0013
001a
ffd4
0017
ffed
ffdd
0018
ffe5
fff6
002b
0009
ffaf
ffaf
ffe2
002a
0023
fff9
ffc4
0007
0029
fff4
fff0
fff6
0003
001d
ffdf
0005
ffb9
ffcb
ffe7
000f
ffd3
ffee
ffcd
001b
ffe6
ffe5
ffdd
0024
ffef
ffb3
0000
ffe6
0032
ffce
003e
ffb8
0005
ffec
0010
001c
ffcf
0003
0010
000c
0012
0020
ffe2
0005
ffe0
ffe5
fffd
ffed
0002
fffa
0001
ffbb
fffe
ffd4
ffc4
ffff
ffcc
ffdd
0012
0010
ffb6
ffb6
ffe9
0031
002a
0000
ffcb
000e
0030
fffb
fff7
fffd
000a
0024
ffe6
000c
ffc0
ffd2
ffee
0016
ffda
fff5
ffd4
0022
ffed
ffec
ffe4
002b
fff6
ffba
0007
ffed
0039
ffd5
0045
ffbf
000c
fff3
0017
0023
ffd6
000a
0017
0013
0019
0027
ffe9
000c
ffe7
ffec
0004
fff4
0009
0001
0008
ffc2
0005
ffdb
ffcb
0006
ffd3
ffe4
0019
0017
ffbd
ffbd
fff0
0038
0031
0007
ffd2
0015
0037
0002
fffe
0004
0011
002b
ffed
0013
ffc7
ffd9
fff5
001d
ffe1
fffc
ffdb
0029
fff4
fff3
ffeb
0032
fffd
ffc1
000e
fff4
0040
ffdc
004c
ffc6
0013
fffa
001e
002a
ffdd
0011
001e
001a
0020
002e
fff0
0013
ffee
fff3
000b
fffb
0010
0008
000f
ffc9
000c
ffe2
ffd2
000d
ffda
ffeb
0020
001e
ffc4
ffc4
fff7
003f
0038
000e
ffd9
001c
003e
0009
0005
000b
0018
0032
fff4
001a
ffce
ffe0
fffc
0024
ffe8
0003
ffe2
0030
fffb
fffa
fff2
0039
0004
ffc8
0015
fffb
0047
ffe3
0053
ffcd
001a
0001
0025
0031
ffe4
0018
0025
0021
0027
0035
fff7
001a
fff5
fffa
0012
0002
0017
000f
0016
ffd0
0013
ffe9
ffd9
0014
ffe1
fff2
0027
0025
ffcb
ffcb
fffe
0046
003f
0015
ffe0
0023
0045
0010
000c
0012
001f
0039
fffb
0021
ffd5
ffe7
0003
002b
ffef
000a
ffe9
0037
0002
0001
fff9
0040
000b
ffcf
001c
0002
004e
ffea
005a
ffd4
0021
0008
002c
0038
ffeb
001f
002c
0028
002e
003c
fffe
0021
fffc
0001
0019
0009
001e
0016
001d
ffd7
001a
fff0
ffe0
001b
ffe8
fff9
002e
000c
ffb2
ffb2
ffe5
002d
0026
fffc
ffc7
000a
002c
fff7
fff3
fff9
0006
0020
ffe2
0008
ffbc
ffce
ffea
0012
ffd6
fff1
ffd0
001e
ffe9
ffe8
ffe0
0027
fff2
ffb6
0003
ffe9
0035
ffd1
0041
ffbb
0008
ffef
0013
001f
ffd2
0006
0013
000f
0015
0023
ffe5
0008
ffe3
ffe8
0000
fff0
0005
fffd
0004
ffbe
0001
ffd7
ffc7
0002
ffcf
ffe0
0015
0013
ffb9
ffb9
ffec
0034
002d
0003
ffce
0011
0033
fffe
fffa
0000
000d
0027
ffe9
000f
ffc3
ffd5
fff1
0019
ffdd
fff8
ffd7
0025
fff0
ffef
ffe7
002e
fff9
ffbd
000a
fff0
003c
ffd8
0048
ffc2
000f
fff6
001a
0026
ffd9
000d
001a
0016
001c
002a
ffec
000f
ffea
ffef
0007
fff7
000c
0004
000b
ffc5
0008
ffde
ffce
0009
ffd6
ffe7
001c
001a
ffc0
ffc0
fff3
003b
0034
000a
ffd5
0018
003a
0005
0001
0007
0014
002e
fff0
0016
ffca
ffdc
fff8
0020
ffe4
ffff
ffde
002c
fff7
fff6
ffee
0035
0000
ffc4
0011
fff7
0043
ffdf
004f
ffc9
0016
fffd
0021
002d
ffe0
0014
0021
001d
0023
0031
fff3
0016
fff1
fff6
000e
fffe
0013
000b
0012
ffcc
000f
ffe5
ffd5
0010
ffdd
ffee
0023
0021
ffc7
ffc7
fffa
0042
003b
0011
ffdc
001f
0041
000c
0008
000e
001b
0035
fff7
001d
ffd1
ffe3
ffff
0027
ffeb
0006
ffe5
0033
fffe
fffd
fff5
003c
0007
ffcb
0018
fffe
004a
ffe6
0056
ffd0
001d
0004
0028
0034
ffe7
001b
0028
0024
002a
0038
fffa
001d
fff8
fffd
0015
0005
001a
0012
0019
ffd3
0016
ffec
ffdc
0017
ffe4
fff5
002a
0008
ffae
ffae
ffe1
0029
0022
fff8
ffc3
0006
0028
fff3
ffef
fff5
0002
001c
ffde
0004
ffb8
ffca
ffe6
000e
ffd2
ffed
ffcc
001a
ffe5
ffe4
ffdc
0023
ffee
ffb2
ffff
ffe5
0031
ffcd
003d
ffb7
0004
ffeb
000f
001b
ffce
0002
000f
000b
0011
001f
ffe1
0004
ffdf
ffe4
fffc
ffec
0001
fff9
0000
ffba
fffd
ffd3
ffc3
fffe
ffcb
ffdc
0011
000f
ffb5
ffb5
ffe8
0030
0029
ffff
ffca
000d
002f
fffa
fff6
fffc
0009
0023
ffe5
000b
ffbf
ffd1
ffed
0015
ffd9
fff4
ffd3
0021
ffec
ffeb
ffe3
002a
fff5
ffb9
0006
ffec
0038
ffd4
0044
ffbe
000b
fff2
0016
0022
ffd5
0009
0016
0012
0018
0026
ffe8
000b
ffe6
ffeb
0003
fff3
0008
0000
0007
ffc1
0004
ffda
ffca
0005
ffd2
ffe3
0018
0016
ffbc
ffbc
ffef
0037
0030
0006
ffd1
0014
0036
0001
fffd
0003
0010
002a
ffec
0012
ffc6
ffd8
fff4
001c
ffe0
fffb
ffda
0028
fff3
fff2
ffea
0031
fffc
ffc0
000d
fff3
003f
ffdb
004b
ffc5
0012
fff9
001d
0029
ffdc
0010
001d
0019
001f
002d
ffef
0012
ffed
fff2
000a
fffa
000f
0007
000e
ffc8
000b
ffe1
ffd1
000c
ffd9
ffea
001f
001d
ffc3
ffc3
fff6
003e
0037
000d
ffd8
001b
003d
0008
0004
000a
0017
0031
fff3
0019
ffcd
ffdf
fffb
0023
ffe7
0002
ffe1
002f
fffa
fff9
fff1
0038
0003
ffc7
0014
fffa
0046
ffe2
0052
ffcc
0019
0000
0024
0030
ffe3
0017
0024
0020
0026
0034
fff6
0019
fff4
fff9
0011
0001
0016
000e
0015
ffcf
0012
ffe8
ffd8
0013
ffe0
fff1
0026
0024
ffca
ffca
fffd
0045
003e
0014
ffdf
0022
0044
000f
000b
0011
001e
0038
fffa
0020
ffd4
ffe6
0002
002a
ffee
0009
ffe8
0036
0001
0000
fff8
003f
000a
ffce
001b
0001
004d
ffe9
0059
ffd3
0020
0007
002b
0037
ffea
001e
002b
0027
002d
003b
fffd
0020
fffb
0000
0018
0008
001d
0015
001c
ffd6
0019
ffef
ffdf
001a
ffe7
fff8
002d
000b
ffb1
ffb1
ffe4
002c
0025
fffb
ffc6
0009
002b
fff6
fff2
fff8
0005
001f
ffe1
0007
ffbb
ffcd
ffe9
0011
ffd5
fff0
ffcf
001d
ffe8
ffe7
ffdf
0026
fff1
ffb5
0002
ffe8
0034
ffd0
0040
ffba
0007
ffee
0012
001e
ffd1
0005
0012
000e
0014
0022
ffe4
0007
ffe2
ffe7
ffff
ffef
0004
fffc
0003
ffbd
0000
ffd6
ffc6
0001
ffce
ffdf
0014
0012
ffb8
ffb8
ffeb
0033
002c
0002
ffcd
0010
0032
fffd
fff9
ffff
000c
0026
ffe8
000e
ffc2
ffd4
fff0
0018
ffdc
fff7
ffd6
0024
ffef
ffee
ffe6
002d
fff8
ffbc
0009
ffef
003b
ffd7
0047
ffc1
000e
fff5
0019
0025
ffd8
000c
0019
0015
001b
0029
ffeb
000e
ffe9
ffee
0006
fff6
000b
0003
000a
ffc4
0007
ffdd
ffcd
0008
ffd5
ffe6
001b
0019
ffbf
ffbf
fff2
003a
0033
0009
ffd4
0017
0039
0004
0000
0006
0013
002d
ffef
0015
ffc9
ffdb
fff7
001f
ffe3
fffe
ffdd
002b
fff6
fff5
ffed
0034
ffff
ffc3
0010
fff6
0042
ffde
004e
ffc8
0015
fffc
0020
002c
ffdf
0013
0020
001c
0022
0030
fff2
0015
fff0
fff5
000d
fffd
0012
000a
0011
ffcb
000e
ffe4
ffd4
000f
ffdc
ffed
0022
0020
ffc6
ffc6
fff9
0041
003a
0010
ffdb
001e
0040
000b
0007
000d
001a
0034
fff6
001c
ffd0
ffe2
fffe
0026
ffea
0005
ffe4
0032
fffd
fffc
fff4
003b
0006
ffca
0017
fffd
0049
ffe5
0055
ffcf
001c
0003
0027
0033
ffe6
001a
0027
0023
0029
0037
fff9
001c
fff7
fffc
0014
0004
0019
0011
0018
ffd2
0015
ffeb
ffdb
0016
ffe3
fff4
0029
0007
ffad
ffad
ffe0
0028
0021
fff7
ffc2
0005
0027
fff2
ffee
fff4
0001
001b
ffdd
0003
ffb7
ffc9
ffe5
000d
ffd1
ffec
ffcb
0019
ffe4
ffe3
ffdb
0022
ffed
ffb1
fffe
ffe4
0030
ffcc
003c
ffb6
0003
ffea
000e
001a
ffcd
0001
000e
000a
0010
001e
ffe0
0003
ffde
ffe3
fffb
ffeb
0000
fff8
ffff
ffb9
fffc
ffd2
ffc2
fffd
ffca
ffdb
0010
000e
ffb4
ffb4
ffe7
002f
0028
fffe
ffc9
000c
002e
fff9
fff5
fffb
0008
0022
ffe4
000a
ffbe
ffd0
ffec
0014
ffd8
fff3
ffd2
0020
ffeb
ffea
ffe2
0029
fff4
ffb8
0005
ffeb
0037
ffd3
0043
ffbd
000a
fff1
0015
0021
ffd4
0008
0015
0011
0017
0025
ffe7
000a
ffe5
ffea
0002
fff2
0007
ffff
0006
ffc0
0003
ffd9
ffc9
0004
ffd1
ffe2
0017
0015
ffbb
ffbb
ffee
0036
002f
0005
ffd0
0013
0035
0000
fffc
0002
000f
0029
ffeb
0011
ffc5
ffd7
fff3
001b
ffdf
fffa
ffd9
0027
fff2
fff1
ffe9
0030
fffb
ffbf
000c
fff2
003e
ffda
004a
ffc4
0011
fff8
001c
0028
ffdb
000f
001c
0018
001e
002c
ffee
0011
ffec
fff1
0009
fff9
000e
0006
000d
ffc7
000a
ffe0
ffd0
000b
ffd8
ffe9
001e
001c
ffc2
ffc2
fff5
003d
0036
000c
ffd7
001a
003c
0007
0003
0009
0016
0030
fff2
0018
ffcc
ffde
fffa
0022
ffe6
0001
ffe0
002e
fff9
fff8
fff0
0037
0002
ffc6
0013
fff9
0045
ffe1
0051
ffcb
0018
ffff
0023
002f
ffe2
0016
0023
001f
0025
0033
fff5
0018
fff3
fff8
0010
0000
0015
000d
0014
ffce
0011
ffe7
ffd7
0012
ffdf
fff0
0025
0023
ffc9
ffc9
fffc
0044
003d
0013
ffde
0021
0043
000e
000a
0010
001d
0037
fff9
001f
ffd3
ffe5
0001
0029
ffed
0008
ffe7
0035
0000
ffff
fff7
003e
0009
ffcd
001a
0000
004c
ffe8
0058
ffd2
001f
0006
002a
0036
ffe9
001d
002a
0026
002c
003a
fffc
001f
fffa
ffff
0017
0007
001c
0014
001b
ffd5
0018
ffee
ffde
0019
ffe6
fff7
002c
000a
ffb0
ffb0
ffe3
002b
0024
fffa
ffc5
0008
002a
fff5
fff1
fff7
0004
001e
ffe0
0006
ffba
ffcc
ffe8
0010
ffd4
ffef
ffce
001c
ffe7
ffe6
ffde
0025
fff0
ffb4
0001
ffe7
0033
ffcf
003f
ffb9
0006
ffed
0011
001d
ffd0
0004
0011
000d
0013
0021
ffe3
0006
ffe1
ffe6
fffe
ffee
0003
fffb
0002
ffbc
ffff
ffd5
ffc5
0000
ffcd
ffde
0013
0011
ffb7
ffb7
ffea
0032
002b
0001
ffcc
000f
0031
fffc
fff8
fffe
000b
0025
ffe7
000d
ffc1
ffd3
ffef
0017
ffdb
fff6
ffd5
0023
ffee
ffed
ffe5
002c
fff7
ffbb
0008
ffee
003a
ffd6
0046
ffc0
000d
fff4
0018
0024
ffd7
000b
0018
0014
001a
0028
ffea
000d
ffe8
ffed
0005
fff5
000a
0002
0009
ffc3
0006
ffdc
ffcc
0007
ffd4
ffe5
001a
0018
ffbe
ffbe
fff1
0039
0032
0008
ffd3
0016
0038
0003
ffff
0005
0012
002c
ffee
0014
ffc8
ffda
fff6
001e
ffe2
fffd
ffdc
002a
fff5
fff4
ffec
0033
fffe
ffc2
000f
fff5
0041
ffdd
004d
ffc7
0014
fffb
001f
002b
ffde
0012
001f
001b
0021
002f
fff1
0014
ffef
fff4
000c
fffc
0011
0009
0010
ffca
000d
ffe3
ffd3
000e
ffdb
ffec
0021
001f
ffc5
ffc5
fff8
0040
0039
000f
ffda
001d
003f
000a
0006
000c
0019
0033
fff5
001b
ffcf
ffe1
fffd
0025
ffe9
0004
ffe3
0031
fffc
fffb
fff3
003a
0005
ffc9
0016
fffc
0048
ffe4
0054
ffce
001b
0002
0026
0032
ffe5
0019
0026
0022
0028
0036
fff8
001b
fff6
fffb
0013
0003
0018
0010
0017
ffd1
0014
ffea
ffda
0015
ffe2
fff3
0028
0026
ffcc
ffcc
ffff
0047
0040
0016
ffe1
0024
0046
0011
000d
0013
0020
003a
fffc
0022
ffd6
ffe8
0004
002c
fff0
000b
ffea
0038
0003
0002
fffa
0041
000c
ffd0
001d
0003
004f
ffeb
005b
ffd5
0022
0009
002d
0039
ffec
0020
002d
0029
002f
003d
ffff
0022
fffd
0002
001a
000a
001f
0017
001e
ffd8
001b
fff1
ffe1
001c
ffe9
fffa
002f
000d
ffb3
ffb3
ffe6
002e
0027
fffd
ffc8
000b
002d
fff8
fff4
fffa
0007
0021
ffe3
0009
ffbd
ffcf
ffeb
0013
ffd7
fff2
ffd1
001f
ffea
ffe9
ffe1
0028
fff3
ffb7
0004
ffea
0036
ffd2
0042
ffbc
0009
fff0
0014
0020
ffd3
0007
0014
0010
0016
0024
ffe6
0009
ffe4
ffe9
0001
fff1
0006
fffe
0005
ffbf
0002
ffd8
ffc8
0003
ffd0
ffe1
0016
0014
ffba
ffba
ffed
0035
002e
0004
ffcf
0012
0034
ffff
fffb
0001
000e
0028
ffea
0010
ffc4
ffd6
fff2
001a
ffde
fff9
ffd8
0026
fff1
fff0
ffe8
002f
fffa
ffbe
000b
fff1
003d
ffd9
0049
ffc3
0010
fff7
001b
0027
ffda
000e
001b
0017
001d
002b
ffed
0010
ffeb
fff0
0008
fff8
000d
0005
000c
ffc6
0009
ffdf
ffcf
000a
ffd7
ffe8
001d
001b
ffc1
ffc1
fff4
003c
0035
000b
ffd6
0019
003b
0006
0002
0008
0015
002f
fff1
0017
ffcb
ffdd
fff9
0021
ffe5
0000
ffdf
002d
fff8
fff7
ffef
0036
0001
ffc5
0012
fff8
0044
ffe0
0050
ffca
0017
fffe
0022
002e
ffe1
0015
0022
001e
0024
0032
fff4
0017
fff2
fff7
000f
ffff
0014
000c
0013
ffcd
0010
ffe6
ffd6
0011
ffde
ffef
0024
0022
ffc8
ffc8
fffb
0043
003c
0012
ffdd
0020
0042
000d
0009
000f
001c
0036
fff8
001e
ffd2
ffe4
0000
0028
ffec
0007
ffe6
0034
ffff
fffe
fff6
003d
0008
ffcc
0019
ffff
004b
ffe7
0057
ffd1
001e
0005
0029
0035
ffe8
001c
0029
0025
002b
0039
fffb
001e
fff9
fffe
0016
0006
001b
0013
001a
ffd4
0017
ffed
ffdd
0018
ffe5
fff6
002b
0009
ffaf
ffaf
ffe2
002a
0023
fff9
ffc4
0007
0029
fff4
fff0
fff6
0003
001d
ffdf
0005
ffb9
ffcb
ffe7
000f
ffd3
ffee
ffcd
001b
ffe6
ffe5
ffdd
0024
ffef
ffb3
0000
ffe6
0032
ffce
003e
ffb8
0005
ffec
0010
001c
ffcf
0003
0010
000c
0012
0020
ffe2
0005
ffe0
ffe5
fffd
ffed
0002
fffa
0001
ffbb
fffe
ffd4
ffc4
ffff
ffcc
ffdd
0012
0010
ffb6
ffb6
ffe9
0031
002a
0000
ffcb
000e
0030
fffb
fff7
fffd
000a
0024
ffe6
000c
ffc0
ffd2
ffee
0016
ffda
fff5
ffd4
0022
ffed
ffec
ffe4
002b
fff6
ffba
0007
ffed
0039
ffd5
0045
ffbf
000c
fff3
0017
0023
ffd6
000a
0017
0013
0019
0027
ffe9
000c
ffe7
ffec
0004
fff4
0009
0001
0008
ffc2
0005
ffdb
ffcb
0006
ffd3
ffe4
0019
0017
ffbd
ffbd
fff0
0038
0031
0007
ffd2
0015
0037
0002
fffe
0004
0011
002b
ffed
0013
ffc7
ffd9
fff5
001d
ffe1
fffc
ffdb
0029
fff4
fff3
ffeb
0032
fffd
ffc1
000e
fff4
0040
ffdc
004c
ffc6
0013
fffa
001e
002a
ffdd
0011
001e
001a
0020
002e
fff0
0013
ffee
fff3
000b
fffb
0010
0008
000f
ffc9
000c
ffe2
ffd2
000d
ffda
ffeb
0020
001e
ffc4
ffc4
fff7
003f
0038
000e
ffd9
001c
003e
0009
0005
000b
0018
0032
fff4
001a
ffce
ffe0
fffc
0024
ffe8
0003
ffe2
0030
fffb
fffa
fff2
0039
0004
ffc8
0015
fffb
0047
ffe3
0053
ffcd
001a
0001
0025
0031
ffe4
0018
0025
0021
0027
0035
fff7
001a
fff5
fffa
0012
0002
0017
000f
0016
ffd0
0013
ffe9
ffd9
0014
ffe1
fff2
0027
0025
ffcb
ffcb
fffe
0046
003f
0015
ffe0
0023
0045
0010
000c
0012
001f
0039
fffb
0021
ffd5
ffe7
0003
002b
ffef
000a
ffe9
0037
0002
0001
fff9
0040
000b
ffcf
001c
0002
004e
ffea
005a
ffd4
0021
0008
002c
0038
ffeb
001f
002c
0028
002e
003c
fffe
0021
fffc
0001
0019
0009
001e
0016
001d
ffd7
001a
fff0
ffe0
001b
ffe8
fff9
002e
000c
ffb2
ffb2
ffe5
002d
0026
fffc
ffc7
000a
002c
fff7
fff3
fff9
0006
0020
ffe2
0008
ffbc
ffce
ffea
0012
ffd6
fff1
ffd0
001e
ffe9
ffe8
ffe0
0027
fff2
ffb6
0003
ffe9
0035
ffd1
0041
ffbb
0008
ffef
0013
001f
ffd2
0006
0013
000f
0015
0023
ffe5
0008
ffe3
ffe8
0000
fff0
0005
fffd
0004
ffbe
0001
ffd7
ffc7
0002
ffcf
ffe0
0015
0013
ffb9
ffb9
ffec
0034
002d
0003
ffce
0011
0033
fffe
fffa
0000
000d
0027
ffe9
000f
ffc3
ffd5
fff1
0019
ffdd
fff8
ffd7
0025
fff0
ffef
ffe7
002e
fff9
ffbd
000a
fff0
003c
ffd8
0048
ffc2
000f
fff6
001a
0026
ffd9
000d
001a
0016
001c
002a
ffec
000f
ffea
ffef
0007
fff7
000c
0004
000b
ffc5
0008
ffde
ffce
0009
ffd6
ffe7
001c
001a
ffc0
ffc0
fff3
003b
0034
000a
ffd5
0018
003a
0005
0001
0007
0014
002e
fff0
0016
ffca
ffdc
fff8
0020
ffe4
ffff
ffde
002c
fff7
fff6
ffee
0035
0000
ffc4
0011
fff7
0043
ffdf
004f
ffc9
0016
fffd
0021
002d
ffe0
0014
0021
001d
0023
0031
fff3
0016
fff1
fff6
000e
fffe
0013
000b
0012
ffcc
000f
ffe5
ffd5
0010
ffdd
ffee
0023
0021
ffc7
ffc7
fffa
0042
003b
0011
ffdc
001f
0041
000c
0008
000e
001b
0035
fff7
001d
ffd1
ffe3
ffff
0027
ffeb
0006
ffe5
0033
fffe
fffd
fff5
003c
0007
ffcb
0018
fffe
004a
ffe6
0056
ffd0
001d
0004
0028
0034
ffe7
001b
0028
0024
002a
0038
fffa
001d
fff8
fffd
0015
0005
001a
0012
0019
ffd3
0016
ffec
ffdc
0017
ffe4
fff5
002a
0008
ffae
ffae
ffe1
0029
0022
fff8
ffc3
0006
0028
fff3
ffef
fff5
0002
001c
ffde
0004
ffb8
ffca
ffe6
000e
ffd2
ffed
ffcc
001a
ffe5
ffe4
ffdc
0023
ffee
ffb2
ffff
ffe5
0031
ffcd
003d
ffb7
0004
ffeb
000f
001b
ffce
0002
000f
000b
0011
001f
ffe1
0004
ffdf
ffe4
fffc
ffec
0001
fff9
0000
ffba
fffd
ffd3
ffc3
fffe
ffcb
ffdc
0011
000f
ffb5
ffb5
ffe8
0030
0029
ffff
ffca
000d
002f
fffa
fff6
fffc
0009
0023
ffe5
000b
ffbf
ffd1
ffed
0015
ffd9
fff4
ffd3
0021
ffec
ffeb
ffe3
002a
fff5
ffb9
0006
ffec
0038
ffd4
0044
ffbe
000b
fff2
0016
0022
ffd5
0009
0016
0012
0018
0026
ffe8
000b
ffe6
ffeb
0003
fff3
0008
0000
0007
ffc1
0004
ffda
ffca
0005
ffd2
ffe3
0018
0016
ffbc
ffbc
ffef
0037
0030
0006
ffd1
0014
0036
0001
fffd
0003
0010
002a
ffec
0012
ffc6
ffd8
fff4
001c
ffe0
fffb
ffda
0028
fff3
fff2
ffea
0031
fffc
ffc0
000d
fff3
003f
ffdb
004b
ffc5
0012
fff9
001d
0029
ffdc
0010
001d
0019
001f
002d
ffef
0012
ffed
fff2
000a
fffa
000f
0007
000e
ffc8
000b
ffe1
ffd1
000c
ffd9
ffea
001f
001d
ffc3
ffc3
fff6
003e
0037
000d
ffd8
001b
003d
0008
0004
000a
0017
0031
fff3
0019
ffcd
ffdf
fffb
0023
ffe7
0002
ffe1
002f
fffa
fff9
fff1
0038
0003
ffc7
0014
fffa
0046
ffe2
0052
ffcc
0019
0000
0024
0030
ffe3
0017
0024
0020
0026
0034
fff6
0019
fff4
fff9
0011
0001
0016
000e
0015
ffcf
0012
ffe8
ffd8
0013
ffe0
fff1
0026
0024
ffca
ffca
fffd
0045
003e
0014
ffdf
0022
0044
000f
000b
0011
001e
0038
fffa
0020
ffd4
ffe6
0002
002a
ffee
0009
ffe8
0036
0001
0000
fff8
003f
000a
ffce
001b
0001
004d
ffe9
0059
ffd3
0020
0007
002b
0037
ffea
001e
002b
0027
002d
003b
fffd
0020
fffb
0000
0018
0008
001d
0015
001c
ffd6
0019
ffef
ffdf
001a
ffe7
fff8
002d
000b
ffb1
ffb1
ffe4
002c
0025
fffb
ffc6
0009
002b
fff6
fff2
fff8
0005
001f
ffe1
0007
ffbb
ffcd
ffe9
0011
ffd5
fff0
ffcf
001d
ffe8
ffe7
ffdf
0026
fff1
ffb5
0002
ffe8
0034
ffd0
0040
ffba
0007
ffee
0012
001e
ffd1
0005
0012
000e
0014
0022
ffe4
0007
ffe2
ffe7
ffff
ffef
0004
fffc
0003
ffbd
0000
ffd6
ffc6
0001
ffce
ffdf
0014
0012
ffb8
ffb8
ffeb
0033
002c
0002
ffcd
0010
0032
fffd
fff9
ffff
000c
0026
ffe8
000e
ffc2
ffd4
fff0
0018
ffdc
fff7
ffd6
0024
ffef
ffee
ffe6
002d
fff8
ffbc
0009
ffef
003b
ffd7
0047
ffc1
000e
fff5
0019
0025
ffd8
000c
0019
0015
001b
0029
ffeb
000e
ffe9
ffee
0006
fff6
000b
0003
000a
ffc4
0007
ffdd
ffcd
0008
ffd5
ffe6
001b
0019
ffbf
ffbf
fff2
003a
0033
0009
ffd4
0017
0039
0004
0000
0006
0013
002d
ffef
0015
ffc9
ffdb
fff7
001f
ffe3
fffe
ffdd
002b
fff6
fff5
ffed
0034
ffff
ffc3
0010
fff6
0042
ffde
004e
ffc8
0015
fffc
0020
002c
ffdf
0013
0020
001c
0022
0030
fff2
0015
fff0
fff5
000d
fffd
0012
000a
0011
ffcb
000e
ffe4
ffd4
000f
ffdc
ffed
0022
0020
ffc6
ffc6
fff9
0041
003a
0010
ffdb
001e
0040
000b
0007
000d
001a
0034
fff6
001c
ffd0
ffe2
fffe
0026
ffea
0005
ffe4
0032
fffd
fffc
fff4
003b
0006
ffca
0017
fffd
0049
ffe5
0055
ffcf
001c
0003
0027
0033
ffe6
001a
0027
0023
0029
0037
fff9
001c
fff7
fffc
0014
0004
0019
0011
0018
ffd2
0015
ffeb
ffdb
0016
ffe3
fff4
0029
0007
ffad
ffad
ffe0
0028
0021
fff7
ffc2
0005
0027
fff2
ffee
fff4
0001
001b
ffdd
0003
ffb7
ffc9
ffe5
000d
ffd1
ffec
ffcb
0019
ffe4
ffe3
ffdb
0022
ffed
ffb1
fffe
ffe4
0030
ffcc
003c
ffb6
0003
ffea
000e
001a
ffcd
0001
000e
000a
0010
001e
ffe0
0003
ffde
ffe3
fffb
ffeb
0000
fff8
ffff
ffb9
fffc
ffd2
ffc2
fffd
ffca
ffdb
0010
000e
ffb4
ffb4
ffe7
002f
0028
fffe
ffc9
000c
002e
fff9
fff5
fffb
0008
0022
ffe4
000a
ffbe
ffd0
ffec
0014
ffd8
fff3
ffd2
0020
ffeb
ffea
ffe2
0029
fff4
ffb8
0005
ffeb
0037
ffd3
0043
ffbd
000a
fff1
0015
0021
ffd4
0008
0015
0011
0017
0025
ffe7
000a
ffe5
ffea
0002
fff2
0007
ffff
0006
ffc0
0003
ffd9
ffc9
0004
ffd1
ffe2
0017
0015
ffbb
ffbb
ffee
0036
002f
0005
ffd0
0013
0035
0000
fffc
0002
000f
0029
ffeb
0011
ffc5
ffd7
fff3
001b
ffdf
fffa
ffd9
0027
fff2
fff1
ffe9
0030
fffb
ffbf
000c
fff2
003e
ffda
004a
ffc4
0011
fff8
001c
0028
ffdb
000f
001c
0018
001e
002c
ffee
0011
ffec
fff1
0009
fff9
000e
0006
000d
ffc7
000a
ffe0
ffd0
000b
ffd8
ffe9
001e
001c
ffc2
ffc2
fff5
003d
0036
000c
ffd7
001a
003c
0007
0003
0009
0016
0030
fff2
0018
ffcc
ffde
fffa
0022
ffe6
0001
ffe0
002e
fff9
fff8
fff0
0037
0002
ffc6
0013
fff9
0045
ffe1
0051
ffcb
0018
ffff
0023
002f
ffe2
0016
0023
001f
0025
0033
fff5
0018
fff3
fff8
0010
0000
0015
000d
0014
ffce
0011
ffe7
ffd7
0012
ffdf
fff0
0025
0023
ffc9
ffc9
fffc
0044
003d
0013
ffde
0021
0043
000e
000a
0010
001d
0037
fff9
001f
ffd3
ffe5
0001
0029
ffed
0008
ffe7
0035
0000
ffff
fff7
003e
0009
ffcd
001a
0000
004c
ffe8
0058
ffd2
001f
0006
002a
0036
ffe9
001d
002a
0026
002c
003a
fffc
001f
fffa
ffff
0017
0007
001c
0014
001b
ffd5
0018
ffee
ffde
0019
ffe6
fff7
002c
000a
ffb0
ffb0
ffe3
002b
0024
fffa
ffc5
0008
002a
fff5
fff1
fff7
0004
001e
ffe0
0006
ffba
ffcc
ffe8
0010
ffd4
ffef
ffce
001c
ffe7
ffe6
ffde
0025
fff0
ffb4
0001
ffe7
0033
ffcf
003f
ffb9
0006
ffed
0011
001d
ffd0
0004
0011
000d
0013
0021
ffe3
0006
ffe1
ffe6
fffe
ffee
0003
fffb
0002
ffbc
ffff
ffd5
ffc5
0000
ffcd
ffde
0013
0011
ffb7
ffb7
ffea
0032
002b
0001
ffcc
000f
0031
fffc
fff8
fffe
000b
0025
ffe7
000d
ffc1
ffd3
ffef
0017
ffdb
fff6
ffd5
0023
ffee
ffed
ffe5
002c
fff7
ffbb
0008
ffee
003a
ffd6
0046
ffc0
000d
fff4
0018
0024
ffd7
000b
0018
0014
001a
0028
ffea
000d
ffe8
ffed
0005
fff5
000a
0002
0009
ffc3
0006
ffdc
ffcc
0007
ffd4
ffe5
001a
0018
ffbe
ffbe
fff1
0039
0032
0008
ffd3
0016
0038
0003
ffff
0005
0012
002c
ffee
0014
ffc8
ffda
fff6
001e
ffe2
fffd
ffdc
002a
fff5
fff4
ffec
0033
fffe
ffc2
000f
fff5
0041
ffdd
004d
ffc7
0014
fffb
001f
002b
ffde
0012
001f
001b
0021
002f
fff1
0014
ffef
fff4
000c
fffc
0011
0009
0010
ffca
000d
ffe3
ffd3
000e
ffdb
ffec
0021
001f
ffc5
ffc5
fff8
0040
0039
000f
ffda
001d
003f
000a
0006
000c
0019
0033
fff5
001b
ffcf
ffe1
fffd
0025
ffe9
0004
ffe3
0031
fffc
fffb
fff3
003a
0005
ffc9
0016
fffc
0048
ffe4
0054
ffce
001b
0002
0026
0032
ffe5
0019
0026
0022
0028
0036
fff8
001b
fff6
fffb
0013
0003
0018
0010
0017
ffd1
0014
ffea
ffda
0015
ffe2
fff3
0028
0026
ffcc
ffcc
ffff
0047
0040
0016
ffe1
0024
0046
0011
000d
0013
0020
003a
fffc
0022
ffd6
ffe8
0004
002c
fff0
000b
ffea
0038
0003
0002
fffa
0041
000c
ffd0
001d
0003
004f
ffeb
005b
ffd5
0022
0009
002d
0039
ffec
0020
002d
0029
002f
003d
ffff
0022
fffd
0002
001a
000a
001f
0017
001e
ffd8
001b
fff1
ffe1
001c
ffe9
fffa
002f
000d
ffb3
ffb3
ffe6
002e
0027
fffd
ffc8
000b
002d
fff8
fff4
fffa
0007
0021
ffe3
0009
ffbd
ffcf
ffeb
0013
ffd7
fff2
ffd1
001f
ffea
ffe9
ffe1
0028
fff3
ffb7
0004
ffea
0036
ffd2
0042
ffbc
0009
fff0
0014
0020
ffd3
0007
0014
0010
0016
0024
ffe6
0009
ffe4
ffe9
0001
fff1
0006
fffe
0005
ffbf
0002
ffd8
ffc8
0003
ffd0
ffe1
0016
0014
ffba
ffba
ffed
0035
002e
0004
ffcf
0012
0034
ffff
fffb
0001
000e
0028
ffea
0010
ffc4
ffd6
fff2
001a
ffde
fff9
ffd8
0026
fff1
fff0
ffe8
002f
fffa
ffbe
000b
fff1
003d
ffd9
0049
ffc3
0010
fff7
001b
0027
ffda
000e
001b
0017
001d
002b
ffed
0010
ffeb
fff0
0008
fff8
000d
0005
000c
ffc6
0009
ffdf
ffcf
000a
ffd7
ffe8
001d
001b
ffc1
ffc1
fff4
003c
0035
000b
ffd6
0019
003b
0006
0002
0008
0015
002f
fff1
0017
ffcb
ffdd
fff9
0021
ffe5
0000
ffdf
002d
fff8
fff7
ffef
0036
0001
ffc5
0012
fff8
0044
ffe0
0050
ffca
0017
fffe
0022
002e
ffe1
0015
0022
001e
0024
0032
fff4
0017
fff2
fff7
000f
ffff
0014
000c
0013
ffcd
0010
ffe6
ffd6
0011
ffde
ffef
0024
0022
ffc8
ffc8
fffb
0043
003c
0012
ffdd
0020
0042
000d
0009
000f
001c
0036
fff8
001e
ffd2
ffe4
0000
0028
ffec
0007
ffe6
0034
ffff
fffe
fff6
003d
0008
ffcc
0019
ffff
004b
ffe7
0057
ffd1
001e
0005
0029
0035
ffe8
001c
0029
0025
002b
0039
fffb
001e
fff9
fffe
0016
0006
001b
0013
001a
ffd4
0017
ffed
ffdd
0018
ffe5
fff6
002b
0009
ffaf
ffaf
ffe2
002a
0023
fff9
ffc4
0007
0029
fff4
fff0
fff6
0003
001d
ffdf
0005
ffb9
ffcb
ffe7
000f
ffd3
ffee
ffcd
001b
ffe6
ffe5
ffdd
0024
ffef
ffb3
0000
ffe6
0032
ffce
003e
ffb8
0005
ffec
0010
001c
ffcf
0003
0010
000c
0012
0020
ffe2
0005
ffe0
ffe5
fffd
ffed
0002
fffa
0001
ffbb
fffe
ffd4
ffc4
ffff
ffcc
ffdd
0012
0010
ffb6
ffb6
ffe9
0031
002a
0000
ffcb
000e
0030
fffb
fff7
fffd
000a
0024
ffe6
000c
ffc0
ffd2
ffee
0016
ffda
fff5
ffd4
0022
ffed
ffec
ffe4
002b
fff6
ffba
0007
ffed
0039
ffd5
0045
ffbf
000c
fff3
0017
0023
ffd6
000a
0017
0013
0019
0027
ffe9
000c
ffe7
ffec
0004
fff4
0009
0001
0008
ffc2
0005
ffdb
ffcb
0006
ffd3
ffe4
0019
0017
ffbd
ffbd
fff0
0038
0031
0007
ffd2
0015
0037
0002
fffe
0004
0011
002b
ffed
0013
ffc7
ffd9
fff5
001d
ffe1
fffc
ffdb
0029
fff4
fff3
ffeb
0032
fffd
ffc1
000e
fff4
0040
ffdc
004c
ffc6
0013
fffa
001e
002a
ffdd
0011
001e
001a
0020
002e
fff0
0013
ffee
fff3
000b
fffb
0010
0008
000f
ffc9
000c
ffe2
ffd2
000d
ffda
ffeb
0020
001e
ffc4
ffc4
fff7
003f
0038
000e
ffd9
001c
003e
0009
0005
000b
0018
0032
fff4
001a
ffce
ffe0
fffc
0024
ffe8
0003
ffe2
0030
fffb
fffa
fff2
0039
0004
ffc8
0015
fffb
0047
ffe3
0053
ffcd
001a
0001
0025
0031
ffe4
0018
0025
0021
0027
0035
fff7
001a
fff5
fffa
0012
0002
0017
000f
0016
ffd0
0013
ffe9
ffd9
0014
ffe1
fff2
0027
0025
ffcb
ffcb
fffe
0046
003f
0015
ffe0
0023
0045
0010
000c
0012
001f
0039
fffb
0021
ffd5
ffe7
0003
002b
ffef
000a
ffe9
0037
0002
0001
fff9
0040
000b
ffcf
001c
0002
004e
ffea
005a
ffd4
0021
0008
002c
0038
ffeb
001f
002c
0028
002e
003c
fffe
0021
fffc
0001
0019
0009
001e
0016
001d
ffd7
001a
fff0
ffe0
001b
ffe8
fff9
002e
000c
ffb2
ffb2
ffe5
002d
0026
fffc
ffc7
000a
002c
fff7
fff3
fff9
0006
0020
ffe2
0008
ffbc
ffce
ffea
0012
ffd6
fff1
ffd0
001e
ffe9
ffe8
ffe0
0027
fff2
ffb6
0003
ffe9
0035
ffd1
0041
ffbb
0008
ffef
0013
001f
ffd2
0006
0013
000f
0015
0023
ffe5
0008
ffe3
ffe8
0000
fff0
0005
fffd
0004
ffbe
0001
ffd7
ffc7
0002
ffcf
ffe0
0015
0013
ffb9
ffb9
ffec
0034
002d
0003
ffce
0011
0033
fffe
fffa
0000
000d
0027
ffe9
000f
ffc3
ffd5
fff1
0019
ffdd
fff8
ffd7
0025
fff0
ffef
ffe7
002e
fff9
ffbd
000a
fff0
003c
ffd8
0048
ffc2
000f
fff6
001a
0026
ffd9
000d
001a
0016
001c
002a
ffec
000f
ffea
ffef
0007
fff7
000c
0004
000b
ffc5
0008
ffde
ffce
0009
ffd6
ffe7
001c
001a
ffc0
ffc0
fff3
003b
0034
000a
ffd5
0018
003a
0005
0001
0007
0014
002e
fff0
0016
ffca
ffdc
fff8
0020
ffe4
ffff
ffde
002c
fff7
fff6
ffee
0035
0000
ffc4
0011
fff7
0043
ffdf
004f
ffc9
0016
fffd
0021
002d
ffe0
0014
0021
001d
0023
0031
fff3
0016
fff1
fff6
000e
fffe
0013
000b
0012
ffcc
000f
ffe5
ffd5
0010
ffdd
ffee
0023
0021
ffc7
ffc7
fffa
0042
003b
0011
ffdc
001f
0041
000c
0008
000e
001b
0035
fff7
001d
ffd1
ffe3
ffff
0027
ffeb
0006
ffe5
0033
fffe
fffd
fff5
003c
0007
ffcb
0018
fffe
004a
ffe6
0056
ffd0
001d
0004
0028
0034
ffe7
001b
0028
0024
002a
0038
fffa
001d
fff8
fffd
0015
0005
001a
0012
0019
ffd3
0016
ffec
ffdc
0017
ffe4
fff5
002a
0008
ffae
ffae
ffe1
0029
0022
fff8
ffc3
0006
0028
fff3
ffef
fff5
0002
001c
ffde
0004
ffb8
ffca
ffe6
000e
ffd2
ffed
ffcc
001a
ffe5
ffe4
ffdc
0023
ffee
ffb2
ffff
ffe5
0031
ffcd
003d
ffb7
0004
ffeb
000f
001b
ffce
0002
000f
000b
0011
001f
ffe1
0004
ffdf
ffe4
fffc
ffec
0001
fff9
0000
ffba
fffd
ffd3
ffc3
fffe
ffcb
ffdc
0011
000f
ffb5
ffb5
ffe8
0030
0029
ffff
ffca
000d
002f
fffa
fff6
fffc
0009
0023
ffe5
000b
ffbf
ffd1
ffed
0015
ffd9
fff4
ffd3
0021
ffec
ffeb
ffe3
002a
fff5
ffb9
0006
ffec
0038
ffd4
0044
ffbe
000b
fff2
0016
0022
ffd5
0009
0016
0012
0018
0026
ffe8
000b
ffe6
ffeb
0003
fff3
0008
0000
0007
ffc1
0004
ffda
ffca
0005
ffd2
ffe3
0018
0016
ffbc
ffbc
ffef
0037
0030
0006
ffd1
0014
0036
0001
fffd
0003
0010
002a
ffec
0012
ffc6
ffd8
fff4
001c
ffe0
fffb
ffda
0028
fff3
fff2
ffea
0031
fffc
ffc0
000d
fff3
003f
ffdb
004b
ffc5
0012
fff9
001d
0029
ffdc
0010
001d
0019
001f
002d
ffef
0012
ffed
fff2
000a
fffa
000f
0007
000e
ffc8
000b
ffe1
ffd1
000c
ffd9
ffea
001f
001d
ffc3
ffc3
fff6
003e
0037
000d
ffd8
001b
003d
0008
0004
000a
0017
0031
fff3
0019
ffcd
ffdf
fffb
0023
ffe7
0002
ffe1
002f
fffa
fff9
fff1
0038
0003
ffc7
0014
fffa
0046
ffe2
0052
ffcc
0019
0000
0024
0030
ffe3
0017
0024
0020
0026
0034
fff6
0019
fff4
fff9
0011
0001
0016
000e
0015
ffcf
0012
ffe8
ffd8
0013
ffe0
fff1
0026
0024
ffca
ffca
fffd
0045
003e
0014
ffdf
0022
0044
000f
000b
0011
001e
0038
fffa
0020
ffd4
ffe6
0002
002a
ffee
0009
ffe8
0036
0001
0000
fff8
003f
000a
ffce
001b
0001
004d
ffe9
0059
ffd3
0020
0007
002b
0037
ffea
001e
002b
0027
002d
003b
fffd
0020
fffb
0000
0018
0008
001d
0015
001c
ffd6
0019
ffef
ffdf
001a
ffe7
fff8
002d
000b
ffb1
ffb1
ffe4
002c
0025
fffb
ffc6
0009
002b
fff6
fff2
fff8
0005
001f
ffe1
0007
ffbb
ffcd
ffe9
0011
ffd5
fff0
ffcf
001d
ffe8
ffe7
ffdf
0026
fff1
ffb5
0002
ffe8
0034
ffd0
0040
ffba
0007
ffee
0012
001e
ffd1
0005
0012
000e
0014
0022
ffe4
0007
ffe2
ffe7
ffff
ffef
0004
fffc
0003
ffbd
0000
ffd6
ffc6
0001
ffce
ffdf
0014
0012
ffb8
ffb8
ffeb
0033
002c
0002
ffcd
0010
0032
fffd
fff9
ffff
000c
0026
ffe8
000e
ffc2
ffd4
fff0
0018
ffdc
fff7
ffd6
0024
ffef
ffee
ffe6
002d
fff8
ffbc
0009
ffef
003b
ffd7
0047
ffc1
000e
fff5
0019
0025
ffd8
000c
0019
0015
001b
0029
ffeb
000e
ffe9
ffee
0006
fff6
000b
0003
000a
ffc4
0007
ffdd
ffcd
0008
ffd5
ffe6
001b
0019
ffbf
ffbf
fff2
003a
0033
0009
ffd4
0017
0039
0004
0000
0006
0013
002d
ffef
0015
ffc9
ffdb
fff7
001f
ffe3
fffe
ffdd
002b
fff6
fff5
ffed
0034
ffff
ffc3
0010
fff6
0042
ffde
004e
ffc8
0015
fffc
0020
002c
ffdf
0013
0020
001c
0022
0030
fff2
0015
fff0
fff5
000d
fffd
0012
000a
0011
ffcb
000e
ffe4
ffd4
000f
ffdc
ffed
0022
0020
ffc6
ffc6
fff9
0041
003a
0010
ffdb
001e
0040
000b
0007
000d
001a
0034
fff6
001c
ffd0
ffe2
fffe
0026
ffea
0005
ffe4
0032
fffd
fffc
fff4
003b
0006
ffca
0017
fffd
0049
ffe5
0055
ffcf
001c
0003
0027
0033
ffe6
001a
0027
0023
0029
0037
fff9
001c
fff7
fffc
0014
0004
0019
0011
0018
ffd2
0015
ffeb
ffdb
0016
ffe3
fff4
0029
0007
ffad
ffad
ffe0
0028
0021
fff7
ffc2
0005
0027
fff2
ffee
fff4
0001
001b
ffdd
0003
ffb7
ffc9
ffe5
000d
ffd1
ffec
ffcb
0019
ffe4
ffe3
ffdb
0022
ffed
ffb1
fffe
ffe4
0030
ffcc
003c
ffb6
0003
ffea
000e
001a
ffcd
0001
000e
000a
0010
001e
ffe0
0003
ffde
ffe3
fffb
ffeb
0000
fff8
ffff
ffb9
fffc
ffd2
ffc2
fffd
ffca
ffdb
0010
000e
ffb4
ffb4
ffe7
002f
0028
fffe
ffc9
000c
002e
fff9
fff5
fffb
0008
0022
ffe4
000a
ffbe
ffd0
ffec
0014
ffd8
fff3
ffd2
0020
ffeb
ffea
ffe2
0029
fff4
ffb8
0005
ffeb
0037
ffd3
0043
ffbd
000a
fff1
0015
0021
ffd4
0008
0015
0011
0017
0025
ffe7
000a
ffe5
ffea
0002
fff2
0007
ffff
0006
ffc0
0003
ffd9
ffc9
0004
ffd1
ffe2
0017
0015
ffbb
ffbb
ffee
0036
002f
0005
ffd0
0013
0035
0000
fffc
0002
000f
0029
ffeb
0011
ffc5
ffd7
fff3
001b
ffdf
fffa
ffd9
0027
fff2
fff1
ffe9
0030
fffb
ffbf
000c
fff2
003e
ffda
004a
ffc4
0011
fff8
001c
0028
ffdb
000f
001c
0018
001e
002c
ffee
0011
ffec
fff1
0009
fff9
000e
0006
000d
ffc7
000a
ffe0
ffd0
000b
ffd8
ffe9
001e
001c
ffc2
ffc2
fff5
003d
0036
000c
ffd7
001a
003c
0007
0003
0009
0016
0030
fff2
0018
ffcc
ffde
fffa
0022
ffe6
0001
ffe0
002e
fff9
fff8
fff0
0037
0002
ffc6
0013
fff9
0045
ffe1
0051
ffcb
0018
ffff
0023
002f
ffe2
0016
0023
001f
0025
0033
fff5
0018
fff3
fff8
0010
0000
0015
000d
0014
ffce
0011
ffe7
ffd7
0012
ffdf
fff0
0025
0023
ffc9
ffc9
fffc
0044
003d
0013
ffde
0021
0043
000e
000a
0010
001d
0037
fff9
001f
ffd3
ffe5
0001
0029
ffed
0008
ffe7
0035
0000
ffff
fff7
003e
0009
ffcd
001a
0000
004c
ffe8
0058
ffd2
001f
0006
002a
0036
ffe9
001d
002a
0026
002c
003a
fffc
001f
fffa
ffff
0017
0007
001c
0014
001b
ffd5
0018
ffee
ffde
0019
ffe6
fff7
002c
000a
ffb0
ffb0
ffe3
002b
0024
fffa
ffc5
0008
002a
fff5
fff1
fff7
0004
001e
ffe0
0006
ffba
ffcc
ffe8
0010
ffd4
ffef
ffce
001c
ffe7
ffe6
ffde
0025
fff0
ffb4
0001
ffe7
0033
ffcf
003f
ffb9
0006
ffed
0011
001d
ffd0
0004
0011
000d
0013
0021
ffe3
0006
ffe1
ffe6
fffe
ffee
0003
fffb
0002
ffbc
ffff
ffd5
ffc5
0000
ffcd
ffde
0013
0011
ffb7
ffb7
ffea
0032
002b
0001
ffcc
000f
0031
fffc
fff8
fffe
000b
0025
ffe7
000d
ffc1
ffd3
ffef
0017
ffdb
fff6
ffd5
0023
ffee
ffed
ffe5
002c
fff7
ffbb
0008
ffee
003a
ffd6
0046
ffc0
000d
fff4
0018
0024
ffd7
000b
0018
0014
001a
0028
ffea
000d
ffe8
ffed
0005
fff5
000a
0002
0009
ffc3
0006
ffdc
ffcc
0007
ffd4
ffe5
001a
0018
ffbe
ffbe
fff1
0039
0032
0008
ffd3
0016
0038
0003
ffff
0005
0012
002c
ffee
0014
ffc8
ffda
fff6
001e
ffe2
fffd
ffdc
002a
fff5
fff4
ffec
0033
fffe
ffc2
000f
fff5
0041
ffdd
004d
ffc7
0014
fffb
001f
002b
ffde
0012
001f
001b
0021
002f
fff1
0014
ffef
fff4
000c
fffc
0011
0009
0010
ffca
000d
ffe3
ffd3
000e
ffdb
ffec
0021
001f
ffc5
ffc5
fff8
0040
0039
000f
ffda
001d
003f
000a
0006
000c
0019
0033
fff5
001b
ffcf
ffe1
fffd
0025
ffe9
0004
ffe3
0031
fffc
fffb
fff3
003a
0005
ffc9
0016
fffc
0048
ffe4
0054
ffce
001b
0002
0026
0032
ffe5
0019
0026
0022
0028
0036
fff8
001b
fff6
fffb
0013
0003
0018
0010
0017
ffd1
0014
ffea
ffda
0015
ffe2
fff3
0028
0026
ffcc
ffcc
ffff
0047
0040
0016
ffe1
0024
0046
0011
000d
0013
0020
003a
fffc
0022
ffd6
ffe8
0004
002c
fff0
000b
ffea
0038
0003
0002
fffa
0041
000c
ffd0
001d
0003
004f
ffeb
005b
ffd5
0022
0009
002d
0039
ffec
0020
002d
0029
002f
003d
ffff
0022
fffd
0002
001a
000a
001f
0017
001e
ffd8
001b
fff1
ffe1
001c
ffe9
fffa
002f
000d
ffb3
ffb3
ffe6
002e
0027
fffd
ffc8
000b
002d
fff8
fff4
fffa
0007
0021
ffe3
0009
ffbd
ffcf
ffeb
0013
ffd7
fff2
ffd1
001f
ffea
ffe9
ffe1
0028
fff3
ffb7
0004
ffea
0036
ffd2
0042
ffbc
0009
fff0
0014
0020
ffd3
0007
0014
0010
0016
0024
ffe6
0009
ffe4
ffe9
0001
fff1
0006
fffe
0005
ffbf
0002
ffd8
ffc8
0003
ffd0
ffe1
0016
